#version: 0.2
  क
  स
  ह
  म
  प
् र
े ं
 ह ै
ा र
 क े
न े
  ब
  ज
य ा
  व
  अ
  द
 म ें
  र
  ल
ो ं
  न
र ्
 क ी
त ा
 क ो
  उ
  आ
ा न
् य
  ग
  त
 स े
 क ि
 क र
  इ
  भ
 क ा
  औ
 औ र
ि क
न ा
 प ्र
स ्
 प र
  ए
  श
ा ल
क ्
  च
 ह ो
  य
  ने
 इ स
 है ं
ह ी
ि ल
ि त
न ्
। 

  थ
ह ा
ड ़
त े
 ज ा
ि य
क े
ि ए
ा म
् व
 व ि
ि या
 भ ी
त ि
 ए क
त ी
  फ
  ख
त ्र
स े
व ा
ं ग
ही ं
् या
ल ा
 स ा
 द े
 ब ा
 स म
र ी
 ल िए
ल े
र ा
क ा
 अ प
त ्
् ट
क र
न ी
 न हीं
 स ं
 र ा
  ।
स ी
ि न
ो ग
 ह ी
ि स
 ह ु
ग ा
े श
क ार
 कि या
  ट
क् ष
 स ्
 ल े
ु र
क ी
  (
 थ ा
  ड
 य ह
 न ि
 र ह
ा य
ल ी
म ा
 म ु
 त ो
 ग या
 कर ने
 क ार
 उ स
ा स
 प ह
 अ न
ार ी
ा ं
 सा थ
िय ों
 उ न
् म
 क ु
न् ह
स ा
ं द
  घ
 ज ो
 अ ध
 आ प
ि व
 स क
र े
भ ा
ल ्
ा ह
  या
म ें
द ्
  ध
 स ु
ि र
 क हा
्र ी
ं ड
 प ू
थ ा
 रा ज
ार ा
 उ न्ह
क ि
द ी
 व ाल
िल ा
स् ट
ु ल
ू प
 बा द
 अप ने
  छ
भ ी
क ो
 द ो
ग ी
् त
 स ि
ष ्ट
ढ ़
 थ ी
ज ी
 त क
 ल ोग
 ह म
 रह े
 म े
ं त्र
 द िया
द ेश
्र े
च ्
व ि
 व ह
द ा
ओ ं
 स ्व
् ष
ग े
त र
 उ प
 ज िस
ा इ
  ऐ
ार ्
ं च
 हु ए
 भ ा
र ो
 म ै
2 0
. 

 म ह
ट ी
  '
 भ ार
 थ े
  -
द् ध
 स ी
 अध िक
 र हा
 प ा
ान ा
स् त
र् म
 ग ई
 म िल
 म ा
ो ज
 ज ी
 अन ु
ज ा
ग र
ख ा
ों ने
 ब ी
ान ी
 स र
ि श
ी न
 ब ार
ट र
 व े
द ्र
 कु छ
म ्
व ी
 व र्
 र ही
प ी
य े
 स् थ
 ब ता
 ब ना
 र ूप
न ों
प ा
 च ु
 स ब
ौ र
े ल
 द ी
स् थ
क िन
 च ाह
 त र
े ट
र् व
 कर ते
 द ू
 द ्व
 उन्ह ोंने
श न
 इ न
 वि श
ड़ ा
 ज ब
क् त
ड़ ी
 बा त
 ल ा
 ब ह
 हो ने
 व ्य
 ले किन
 पह ले
 क म
ब ा
द ि
ं ध
्य ों
 स ाम
 सर कार
ि ंग
 क ह
ा प
  "
 इस के
ु त
हा ं
 जा ता
 ल गा
क ्र
ब र
 सम य
 नि र्
 जा ए
 को ई
 अ ब
 उ त्
 अप नी
 द िन
 दे ख
 लोग ों
 स ो
 प्र ति
म ान
 क ्ष
च ार
 ब ै
 ज ान
ह र
् ञ
 द्व ारा
 कि सी
 ग ए
 कार ्य
 ट ी
ू ल
ंत्र ी
ड़ े
 ह ि
व ार
 वाल े
 हु आ
 य े
 म ो
  ओ
 प ुल
 म ौ
ष ्
ि प
र् ट
 हो ता
  ।

ू र
व ं
क ों
 प ी
 का म
् स
 दे श
 भार त
 न ाम
व े
् ल
 ब े
ो ल
ु प
 तर ह
 द ु
 उन के
 ब ि
 पुल िस
 क ै
 कर ना
ज ़
क्ष ा
ृ त
्य ू
च ा
 व िक
क् ति
ो ट
 हु ई
ो क
 ज ै
र ण
  ऑ
 क ई
 सक ता
ज न
य ोग
i n
प र
 ब ढ़
िक ा
 प ु
ं ह
 म ान
ि ट
म े
 कर ें
ं स
च् छ
 त था
ध ान
ं क
 स ्ट
 म ाम
 र ख
व न
ं ट
 स भी
न् न
र् थ
श ्
 ज न
 स ाल
ं प
म ी
 ल ग
 स ू
े त्र
िव ार
 बह ुत
 फ िल
ध ार
च् च
त ु
प ्र
 ले कर
a n
िय े
 पह ु
 सक ते
भा व
 न ा
ब ्
म ार
 ह ा
 कार ण
 श ुर
 मै ं
 उन्ह ें
ब ी
 क्ष ेत्र
 प ार
 ग ्र
 अ व
ब ंध
 फ िर
ज े
 क ्या
 ए वं
स ार
 दू स
 ग ु
 आ ज
िल ्
 उस के
 बता या
न् द
ो र
 हो गा
स् ता
 मु ख
ि म
क् स
व ाल
 अन ्य
 न िक
 द ि
र् ण
 सि ंह
 म न
ती य
 स ह
 अ भ
 ह र
ी ड
ज ्ञ
 पर ि
  ता
 फिल ्म
ार े
 अ ं
ू न
 च ल
 ब ु
 ब न
e r
न ि
 श ाम
 य ु
प ुर
 द ौर
 वर् ष
 क ्र
 प ि
 द र्
ड ी
 व ा
 राज ्य
 कर ता
 ह ाल
 न ी
 ल ि
 प ै
र् स
ू म
 ल िया
क् ट
 पहु ंच
o n
ो ड़
 जा ने
व र
द ्य
t h
द ार
 ख ु
 चाह िए
्ट ी
े ष
 घ र
 सब से
ध ्य
 क ्यों
 उ से
 श िक
कार ी
 बी च
  ठ
्रे स
फ ी
 दो नों
 प ास
य र
 दौर ान
द े
ए स
 स्थ ित
द ान
 टी म
म ु
प ू
 हो ती
 व ै
ा ज
त ्व
 ख िला
ा ने
 ऐ से
ज र
व ल
 र ुप
त ्य
म ंत्री
 उन की
 ज ु
 मुख ्य
स् था
 स्व ा
त् म
 प्र ा
a r
  ई
् ड
1 0
 ज ि
 फ ै
िल् ली
िय म
श ी
्री य
ाप ्त
  )
 शुर ू
a t
 प्र कार
 प्र देश
  झ
 इ ं
ें द्र
ए म
श ्य
 आ ई
च ना
e s
म ्म
ए ं
भा ग
 शाम िल
प ्
स र
 भार तीय
1 9
ा ई
 आ य
ग त
 त ु
िय ो
ध ी
 आप को
ह ार
 ब ो
 त ीन
 श ्री
ना व
च ित
ज ार
 द िल्ली
 बार े
a l
ण ा
 र ो
 ज र
र् ड
 वाल ी
ह त
ल ों
े ज
 त ै
 अप ना
 बै ठ
क्र म
 विश ्व
 दे ने
 य हां
 अ च्छ
 ब ्र
 अ ल
 श ु
ग ्र
स ान
 पर िवार
 इस ी
 ओ र
 मह िला
स्थ ्य
 रा ष्ट
द र्
20 2
्या दा
 माम ले
ार् थ
 म हा
र् य
द न
मा ण
 ऐ सा
 ग ां
ु क
 ब च्च
ट ना
स् प
व ान
 विश ेष
ल ो
20 1
ल य
ट ा
वा द
न िया
 व हीं
 पू र्व
 अनु सार
o r
आ ई
 प द
 आ रो
ाल ी
ता ओं
 क ल
ें गे
ुर ु
 ग ो
 ड ि
 अध ्य
ै न
 ह ू
 सम झ
ख ्या
 ज ारी
 कि ए
 श ा
 अ गर
 ज िन
 प्र ाप्त
  S
हा ँ
  ॥
 ब द
 क ॉ
e n
 जा ती
ज ू
 ज ्यादा
  C
 जै से
 जान कारी
 का फी
ो र्ट
 व ो
 श ्र
ध ा
 ड ॉ
 सं बंध
कर ण
ोज ना
ं ब
 व्य क्ति
 इस े
न् द्र
0 0
i s
 जिस में
 स ुर
ध िक
 जाए गा
  ऊ
त िक
 हो ते
िया ं
 आ दि
 य ू
भ व
ेश न
ें ट
 ह े
ो ष
 व ्या
ष् ठ
स् क
i t
 च ौ
ल ि
 म ंत्री
? 

 का ंग
ो न
ल िए
त्र ा
 इस से
 स ंग
 सक ती
झ े
श ा
 म ार्
त न
 ल ी
 आ व
 जी वन
 विक ास
ध ि
. .
 साम ने
र् ष
 य ोग
 चु नाव
 क्यों कि
 ल िये
 पार ्टी
 व्य व
 उ ठ
क् टर
 क ंप
 प ड़
 स् प
 ट ्र
ें द
 हो गी
 तै य
 कांग ्रेस
स ि
 च ार
 त ब
 खिला फ
 स द
 शिक ्ष
 अ ला
 इ त
 अ ग
 वि भाग
 ज ग
 र े
वा ई
श ्व
 उस की
 स् क
 प्र श
ण ी
 स्वा स्थ्य
 ट े
ाम ी
  th
ु क्त
 य दि
 के वल
 क प
च े
्या लय
  :
श्य क
 सम ्
 ख ा
 कु मार
ि ता
ाल ा
स म
i c
 च े
 अला वा
त् त
 र ाम
  A
  P
 उन का
 द ें
 ह ों
ि न्न
 भा ग
ह ित
ष ा
 पू री
 प्र े
व ्य
ं त
 अधिक ार
ाय र
 क ृ
िल े
 ला ख
 इस का
 पि छ
 क र्म
पू र्ण
 इस लिए
 अ भी
ाल य
 स्थ ान
ो ध
े द
ं बर
 इस में
ू ट
 आव श्यक
 अध्य क्ष
 ब ल्
 ग िर
 छ ा
 अ र्
य ी
क्ष ण
 आ र
 स फ
 म त
 स र्व
 आ ने
स्ता न
 रुप ये
का श
्र ा
न् त
 मै च
 सु न
च ी
 द र
प ाल
 दूस रे
 म द
्या न
 कर े
र् क
स ्य
 जा ते
  T
 आ ए
 ध र्म
ास न
  M
 हा थ
 आ गे
 दि खा
 आ धार
 भ र
रा ज
 उप योग
 ल ोक
 ए स
 घ टना
 य ोजना
 कर के
र िक
 या द
 अ म
 ऑ फ
स ल
ृ ष्ट
 ब ड़ी
स भा
 द ा
 मु झे
में ट
त ार
ित ्र
ष ्य
 कर ती
 आरो प
 कर ोड़
ी स
 प ां
इ स
त ों
ू स
 ज हां
 उत् तर
 क भी
 ल ड़
 जा ंच
ाइ न
ोज न
 मा ंग
ां कि
 वि चार
न् तु
 इ ंड
य न
ल् प
ण ्ड
ज्ञ ान
ड े
 म िला
 अल ग
िय न
त ्या
 म ीड
त्र ी
 च ी
 आ म
 प्र धान
 प्र भाव
िय र
 म ंत्र
श् च
ि ज
 ज ्ञ
 च ला
 आ या
 प ानी
 ग ा
 मीड िया
 कर ी
श ल
 उस का
 हाल ांकि
 बना ने
 तैय ार
मु ख
o l
फ ़
 इ ला
1 5
ट े
ी क
 th e
 उस ने
 ब ॉ
 जिस के
रो ना
 ऐ सी
  I
् ला
ै ंड
 बा हर
 श े
द ों
 ध ्यान
स ं
न् ध
 भ ूम
जू द
  ढ
  ?
 प त्र
 स्थित ि
 ब ड़े
 र िप
 पिछ ले
 इ स्
ग ्
ज पा
e d
1 2
 व ीड
 प ता
 दर् ज
 ख े
ता ब
ंग े
क ाल
 प्र ो
 भा व
ब ू
 दिन ों
 ख ेल
स् या
ी र
 हम ारे
 प ढ़
 मिल े
 वि भ
 को रोना
ी य
आ र
 श हर
त म
 ज ाना
 बे ह
 मो दी
ह न
 वाल ा
श ि
 कि सान
ं ज
 जन ता
 स ौ
री र
र् फ
फ ्त
 गां व
i on
 वीड ियो
 रह ने
a s
 मद द
 अधिक ारी
 मुख्य मंत्री
 पर ी
 म ाल
 क ान
 वि ष
ड ा
भ ग
 न जर
स्थ ान
 न िय
 व ृ
द्ध ि
 से वा
 जग ह
 भा जपा
 कर ा
वा स
 अ मे
 सम ाज
  o
 ह जार
 क ेंद्र
 म ज
 ड े
 व ज
 ज िला
 आप के
ता ल
म्म ी
ता न
 म ूल
  D
व री
क ु
 इस की
ृ ति
 ब ड़ा
ज य
  B
  !
वी र
 आ द
 जब कि
 प े
 दे ते
 ड ी
 भ ग
 ज ल
 ज ़
 निर् माण
 सं ख्या
 ब ंद
 दू र
त् ति
 त हत
ाय क
र् मा
 राष्ट ्र
ज ों
इ न
 प ं
 पू रा
 त े
ु न
 प ो
्या ण
 जी त
इ ट
स्थ ित
 न ियम
 द िए
 हो ना
ध्य म
  R
 म ार
 कंप नी
 म ही
 ख ान
ंग ल
 प्र व
र् या
 न ्यू
 दु निया
 छ ोड़
दर् शन
 वि ध
बा द
ें स
 व्या प
 ग ये
 वज ह
त् ता
 रिप ोर्ट
ाय त
 उ म्मी
ु आ
म त
 कल ्याण
 श ब्
 विभ िन्न
ब े
20 0
या स
 सम ्म
 श रीर
म न
 लि ख
 न ौ
 जर ूर
 करी ब
 ल गे
द ्व
 र न
 सुर क्षा
 म ि
an d
 उम्मी द
 न ही
  .
 शिक्ष ा
 स्क ूल
 हू ं
 च ि
 मह त्व
् ले
) 

 कार्य क्रम
 कु ल
 क ौ
 ज िले
- प
 करें गे
त ः
 दे व
 व हां
 ने ता
 श िव
 कह ते
 ब ाल
 पू छ
 ले ने
 हि स्
ंद र
ू र्
 य ही
म ो
 जिस से
 लग भग
 कह ना
प ति
 अ र्थ
  s
 पां च
ब ल
r e
 निर् देश
ब ह
 जा य
ाल न
 न गर
 सम स्या
द य
 न ए
 दे खा
र ु
 ल ॉ
 अ स्प
 विष य
 मे रे
ाइ ल
त्र ों
न् म
 प्र काश
ल् ड
  N
 ब स
 प त्
र् चा
 पा कि
 सि द्ध
 फ ़
 आ ग
  c
 रा त
िश ्
ु ट
ह ि
 बि ना
 आ स
d i
 ध न
 स च
 मिल ी
in g
 न ई
 पह ली
े क
 मौ त
ै ल
 न ्या
ष् ण
 मु ताब
 स् था
 मुताब िक
  w
ह म
 स के
3 0
 राष्ट ्रीय
वा ह
 तु म
 ह में
 म ी
 ड ाल
 मंत्र ालय
 खु द
 वि धान
र ों
 अ स
 अ ति
म ाल
 तर फ
र ि
 ला भ
 मा ध्यम
श त
 o f
क ान
l e
 प्र त्य
 ज ल्
त्म क
 दूस री
 घ ोष
हा स
 कै से
 उत् पा
  H
- अ
 बैठ क
 स् तर
o m
य ुक्त
त् मा
 ग ै
5 0
1 1
 बच्च ों
ग ्री
र् च
या न
ए ल
 व न
 लि खा
 प ुर
रा ब
 ए न
 म ां
ंग ा
  f
 उप ल
 उ सी
ना थ
्य ो
 श ी
 र ोक
हा य
 साम ान
ल् स
 हो कर
 प्र मुख
 म ंद
 व ायर
 व्यव स्था
 वि रो
 सू चना
थ म
 भा षा
 जाए गी
 ज े
 सम ान
ह रा
 को श
 स्था प
 प ृ
1 8
ि टी
र ूप
 ज्ञ ान
 ड ा
 राज नी
  /
 ल क्ष
 ग ुरु
वा सी
य ं
ठ न
भ ार
 अभ ि
 अच्छ ा
 थी ं
िल ी
 देख ने
र् ग
द ्यालय
क र्
 ल ो
 उपल ब्
 प्रधान मंत्री
म ारी
 ब जे
क ट
 र खा
  t
 उ द्
ि स्ट
 पू रे
 शा दी
ा त
 ब र
 ट ्रे
 ज म
a m
ट क
 प ेश
 फै स
ल ता
म् प
िक ्ष
o u
 ठ ीक
 प्र दान
 ग यी
 ख बर
 ख री
 म ाना
 सं घ
ला ह
 रा शि
च ान
 अं तर
 भ ू
ित ्
 व ाप
 ग ेंद
 बढ़ ा
 चु के
वे दन
 जि से
 पी छ
 पाकि स्तान
च र
ष ण
 से ना
िक ल
ति हास
 भग वान
द्य ोग
स् त्र
 गु ण
क् शन
- क
 अ फ
 उठ ा
 मही ने
w s
स्त ु
ला ई
 सो शल
 न र
 अस्प ताल
) ,
प ु
ध न
 ले ख
 द ृष्ट
 छ ोट
 सद स्य
ं का
 हू ँ
्व ी
 त स्
 अनु भव
 श र्मा
 परी क्षा
 बो र्ड
  b
 सि र्फ
 लगा तार
 ए म
 स हाय
 को र्ट
िक ेट
 पि ता
 याद व
 ए क्स
 प्र दर्शन
 गिर फ्त
 यु व
म् ह
  E
 ध ार
ड़ क
 बना या
ॉ ल
 म ध्य
 मौ जूद
 द िव
्र म
ए न
ां त
 मंद िर
 नी ति
 सह ित
 मन ु
1 4
ब ार
 दि ख
 ल ाइ
 त ौर
1 3
ु ड
 हि ंद
 ज न्म
 सम ा
 आ देश
क्ष ि
 कि त
 उपलब् ध
 बै ंक
ें ड
 श ो
ंट े
 सु बह
श ु
न ो
 अ ंग
 सी ट
  p
 त री
 गां धी
 हों गे
ान ्त
क्र िया
व र्
 र ंग
 फ र
 जी व
 म ाह
 कोश िश
ग ल
व रण
 द िल
 ऊ पर
  ऋ
भ र
ट न
प न
 प क्ष
 ल ाल
 च िक
क्ष ित
 प्रति शत
ग ढ़
त क
े ड
 पर िव
 अच्छ ी
 सम ित
 अं त
 बल् कि
 र ु
 रह ते
 इस् ते
 सं च
 सम ु
 राज ा
 इस्ते माल
 च र्चा
ित ्व
 रुप ए
 कि स
ू ब
1 7
 रख ने
 अधिकार ियों
 म िश
 शुर ुआ
 टे स्ट
 य हाँ
 अ र
r a
 सम र्थ
 उ म
श ्म
 मैं ने
 चाह ते
 रा ह
ष ि
ब न्ध
री ज
 या त्रा
 क ्ल
 दे ता
ल िया
  K
 स ै
न्ह ोंने
 प ंच
ण ाम
 म ृत
 स वाल
 त ेज
 श क्ति
च न
 विधान सभा
  G
 पू र्ण
 प क
 ल गी
en t
 क र्
द ाय
 उ च्च
 पीछ े
 य ून
 सी मा
ू ह
 व ाह
च ल
र्थ िक
e t
 शब् द
 ग ति
 प्र यास
 कार ्र
 का ल
 रह ता
 र ि
क ृत
1 6
 चु की
  in
 मौ के
 ग ं
 बच्च े
ंब ई
 उ ल्
 शे यर
ख ंड
वा दी
 महत्व पूर्ण
 अ थ
िक ों
नी य
न र
म ै
2 5
 न व
ड ल
 लगा या
 ए क्ट
, 

 मह ारा
स्त व
 ख ास
 कार्र वाई
 अप ्र
 ब चा
 द क्षि
ू री
 स र्
ार् ड
 बद ल
 भा ई
  F
 ज वा
 र ेल
ो प
 तस् वीर
 वि प
 प स
क ल
 सा ंस
 तु म्ह
वि धा
 आ र्थिक
ल ब
 बना ए
 माम ला
न्ह ें
 दे ना
 च ा
c h
 सं प
 श ि
 प ुरु
द म
ड़ ों
 सरकार ी
ृ ह
ित ्त
 प्र योग
 ब ज
 पो स्ट
  and
 स ैन
 द ल
 वि देश
 इत ना
जे पी
 चु का
 प र्या
 थ ाना
 फ ्र
 प ड़ा
ंद ्र
 र व
स् व
भी र
  m
 मिल ने
 परि ष
 ब ने
 प्र क्रिया
 स ार
 र ोग
 पुरु ष
 इंड िया
 लग ता
व ुड
 थ ो
ज ्
ट ्ट
ाय ल
 क्र िकेट
 देश ों
 श ाह
 ल ौ
 ब ोल
ॉ प
िया ँ
 प्रे म
 स ही
 स्प ष्ट
धिक ार
 त ीस
 व्य क्त
ोज ित
म ता
स ू
 सु ख
ेंद ्रीय
ल र
 द ौ
 ह त्या
 बि ज
 व ही
 अ ने
स ु
 इं टर
 देख ते
 ख ़
य ू
िश ा
u s
 ग ि
उ न
 आ ख
त रा
 विरो ध
ं सा
 सं र
 यु द्ध
ए क
र िका
 कि ये
भ ू
 चल ते
 र ू
 निक ल
ग म
 ब ेट
 क हीं
e l
 उस से
ाज िक
 ह ास
त ंत्र
 ड ्र
 ग ल
 म ना
फ ा
ध र
 आप की
 र िक
 आवश्यक ता
्य ु
प ि
 बि हार
 जिस का
 बी जेपी
व ें
 न ंबर
 उ द
 प्रश ासन
दे व
 ब ्ल
 पत् नी
 हम ारी
ली वुड
 नी चे
 फ े
 अव सर
रा त
 महिला ओं
 र ोज
i l
 पर ेश
2 4
 राज ्यों
 सु विधा
 वि द्य
क् सी
 गिरफ्त ार
 कम ी
 यु वा
 बल् ले
ां स
ग ू
a d
 बा जार
 क ला
 त त्
 मार् ग
 जल् द
 सो म
 सामान ्य
 किसान ों
 भ े
ध े
 दिखा ई
जा ब
 भूम ि
ह ाल
 च ीन
 परि णाम
- सा
 विक ेट
 प श्च
 ब यान
का ब
 जरूर त
वी ं
 पस ंद
 भ ु
म ति
ो स
" 

ंड ी
 शुरुआ त
 उत् प
 मे री
 क ेंद्रीय
 फ ोन
 ब च
ग ार
 साम ाजिक
 आ न
य ह
o d
 वर् ग
 म ंगल
ँ च
 त ्र
म र
ो री
 म ॉ
ल ू
 । ।
्र ो
 बेह तर
ेश ा
 ग ण
 अथ वा
 व ी
 सं क्रम
ति म
 श ्रे
स् कार
ज ें
 अमे रिका
्य ता
 सह योग
 जवा ब
ह री
 खरी द
 कि न्तु
क िल
ले ज
 गं भीर
 सं भाव
 ल ें
 ट ै
2 2
ं ख
वि द्यालय
 मनु ष्य
 वर्ष ों
ं भ
झ ा
 ज य
 पर न्तु
 मार् च
 प ति
i v
 निक ाल
ो ह
र िया
 प्रत्य ेक
 स्व यं
  W
 ज ून
 फ ीस
 आ त्म
ए फ
 अर् था
 आ त
 हास िल
 आरो पी
 रह ती
e ws
 श ान
u r
ए ँ
 ता कि
 कौ न
  h
 प्र भ
 ए ड
ह े
  n
ठ ी
 शिक ायत
 वा स्तव
 दक्षि ण
 मु ंबई
 वे ब
ला इन
 राह ुल
 वि स्त
 बल्ले बा
िय ल
 सा इ
 अने क
 छ ो
हित ्य
 सा ध
त मान
 मु काब
  L
ग ु
य ों
 ह ार
 भ र्
 र स
 माम लों
 उद् देश
े न
 पहुंच े
  a
 इ तिहास
 ज ित
 सा त
 हिस् सा
 विध ायक
 आय ोजित
 फैस ला
प क
 ख ूब
 व स्तु
 प ेट
म् ब
िया न
 सम्म ान
 प ड़े
व ेश
 वाप स
 सो च
 ब ल
ले ख
त ियों
ु ओं
- ब
् ति
  ,
 प ्य
 छोट े
 I n
 स ड़क
ध ानी
रिक ्त
 भ ारी
 शु क्र
 फ ॉ
 हम ेशा
रा व
ट ल
दर् श
 संबंध ित
c t
 फ ल
 ग्र ाम
कि ंग
 क वि
क ुल
 म िन
 डॉ क्टर
ष्ट ्रीय
 त ुल
 निक ाय
 पु त्र
 रा य
 त ेल
 भ ेज
बंध न
ग ो
ां ति
 वाल ों
र् तन
ख ी
 निर् धार
 च रण
 प ्ले
 स ित
 उम्मीद वार
 घ ंटे
 अति रिक्त
वि ड
ू ं
 ज मा
 घोष णा
 दे र
 न ोट
 ना गर
 अ हम
 त म
 व क्त
 हा ई
 ख ो
 प्रति नि
वाल े
द ु
 स लाह
 पा या
 दु र्
र ल
 उस में
 वर् ण
- स
 करे गा
 निर् ण
न् स
 दृष्ट ि
 त ि
 उप स्थित
े त
 मो ह
ान ि
 ब नी
 सं स्क
न् दी
 कान ून
 सा ह
 ध ो
फ े
 पु न
 र ै
 मु द्
 र क्षा
 की मत
श्व र
 न या
 पं जाब
श् न
 पा ए
 जा ये
क त
a y
 मज बू
 सा हित्य
 मा ता
 स्व ी
 चु न
 स प
 आ श
 क्षेत्र ों
  l
 स िर
 व हाँ
 वर् तमान
ानी य
 t o
 ज िम
 नि वासी
 पा ठ
 भूम िका
 अ द
ी ल
 भर् ती
 म श
ंद ा
 च ै
 पड़ ता
ज ु
 पह चान
 आ वेदन
 कृ षि
 अ न्
प् ता
स् वा
 कर वा
10 0
 या नी
 सा फ
 ब्र ह
 सोम वार
i r
व ृ
र् जी
 ग्र ह
! 

 पू जा
ॉ न
 कार ्यालय
 सं युक्त
ङ ्
 म ई
ष्ट ्र
 म र
्व र
च्छ ा
 उ त
 आ ता
र् न
 ब िल
 क ठ
 ज ेल
 व्याप ार
 उद्देश ्य
शन ल
 के न्द्र
 अ ख
 व ार
ल ग
ंग ी
 मे रा
 बु ध
 ला गू
 निय ंत्र
 बार िश
स त
ित ्य
i d
ंड ल
ख न
o v
 पह ला
क री
 क ट
 करा या
ामी ण
अ प
स न
 फ ोट
 डि ज
 सं स्था
 लगा ने
 स्थ ानीय
 विश्व विद्यालय
 पै दा
ने ट
 ए ंड
 सु धार
स्ता व
 राष्ट्र पति
क ़
 दूस रा
at ion
 र ज
 र ण
ै क
 प ट
 तरी के
स ाय
 च ले
िक ्स
 स्थाप ित
िक ी
 ए ल
 अप रा
क् ता
ग्र ह
 अ ंदर
 ग र्म
त ो
ूप ी
ाम ा
 सी एम
 विश्व ास
 स ें
 अ न्त
 वृ द्धि
 ग्र ामीण
 अर्था त्
 राजनी तिक
 जन वरी
 त य
र् श
 गु ज
 प्र ार
द ू
्री म
 प्रभाव ित
वि ध
 आ ते
अ सल
 सहाय ता
  .

 प्रश िक्ष
 T h
 द वा
 अप्र ैल
्म िक
सा इट
 प्र स्ताव
 नि र
 मिल ता
es t
 आद मी
चार ्य
 बद ला
 सम् बन्ध
 मान व
 रहे गा
 ग र्
के ट
 अग ले
ी त
 सम ूह
 बेह द
ृत ्व
 जै सी
 अभ ियान
 जाए ंगे
 स्वी कार
 त ला
 समर्थ न
 सांस द
 द िस
स्ट र
 द िशा
ॉ क
 जै सा
ब ्ल
 संभाव ना
 शुक्र वार
 स त्य
o s
 न ुक
 च ाल
स्त ुत
 श ै
फ र
 प्रव ेश
 उन से
 भाव ना
 निर्ण य
 इला ज
 पृ थ
व ै
 समित ि
म् भ
4 0
 आप का
 अभि ने
 सच िव
 राज स्थान
सा द
 र िली
 श न
वि ष्य
 वि वाद
o t
 जान ते
 हम ने
कार ा
 निर्धार ित
ि री
र् गत
 पद ार्थ
ूर् ति
 मे ड
 ह ॉ
 जर ूरी
सि द्ध
 उम ्र
 देख कर
क र्ष
ड़ ने
क र्म
 ले ते
स् म
 ग ृह
्र ोल
 उत्प न्न
 सी रीज
 ठ ा
ाह रण
 मंगल वार
 संग ठन
 हि न्द
 आय ोजन
 " 

 प्र माण
 प्र ण
 डि ग्री
.. .
2 1
उ स
 रव िवार
 अं तिम
 नुक सान
 क थ
त ृत्व
 ट्रे न
 इन के
मार ्ट
 न ो
 श ासन
द र
 स ल
 कर ाने
 न्या या
 ते जी
 त ी
 दे कर
 क मा
ॉ र्ड
 प्र ती
 र चना
 भ विष्य
द ारी
त री
 युव क
ध ्या
 नियम ों
 जा कर
 च ित्र
 बिज ली
स ित
 जिन में
ित् सा
 चाह िये
 सम ी
ड़ ियों
 उल् लेख
व त
 ब ंग
 चाह ता
स्ट ्रे
 सु ना
उ ट
 ग ौर
 मिन ट
 बुध वार
 उ द्योग
च ीन
प ्त
 ने ताओं
स् ती
स ों
इ ड
 मौ सम
 सार ्व
 अ ंक
स ्यों
 जु लाई
स्वा स्थ्य
 न्या य
 पी एम
 क दम
न् त्र
 न म
 ए यर
रा ने
 जिम ्म
श्म ीर
 जम ीन
 आ ठ
2 3
 शन िवार
ब ि
 वेब साइट
 र ूस
 साम ना
पू र्व
 दर् शन
न ु
 प्य ार
ोल न
 फ ाय
 सम ेत
 ट ाइ
 प ॉ
 उन को
 आय ु
फ ्ट
िक ्
a k
१ ९
 इन में
 वायर ल
 शु भ
 दर असल
 बा व
ं टी
घ ा
ब ्र
 अमे रिक
 ओ वर
 छ ह
ट ने
िक ता
 अग स्त
 म ू
 आ त्मा
 ख त्म
 जु ड़े
 दु कान
उ ंड
 ऑ न
 आ योग
स्ट्रे लिया
 प ौ
 हे तु
ि ष्ट
 हम ला
प् तान
i m
 सद स्यों
ह रे
 इ ंग
 प ्ल
 दे वी
 ने तृत्व
 न दी
 कप ूर
ज ो
 कार ्ड
ॉ य
ं ता
 चिक ित्सा
 बे टी
मै ं
 प्रकाश ित
क्स र
न्द र
 उद ाहरण
 मजबू त
 पर म
 प्र थम
ठ ा
 कि लो
 बॉ लीवुड
 छा त्र
 मह ान
फ ल
 राज धानी
 कॉ लेज
 प ाल
ाय ी
 सफ लता
u n
 फीस दी
 नि वेश
स्त क
 अच्छ े
कर् ता
 रेल वे
 संच ालन
दी प
िव र्स
 लक्ष ्य
  O
 र ी
वाल ा
 फ ी
 स भा
 ध ी
 ड ाय
 जै न
 नर ेंद्र
 वि जय
 हि न्दी
 दा वा
-सा थ
्व ि
 वि न
स् ते
 च र
 प ालन
य ु
ख े
 भ ोजन
 ह टा
 भी तर
 पी ड़
 य ूपी
 मा त्रा
 सू र्य
 क ही
 खिला ड़ी
 घ ा
 बन ने
 दो ष
 स् म
 दे ती
 छा त्रों
 उन में
प े
 गेंद बा
 नि श
 फर वरी
 रख ते
क ृति
a g
 ग ौ
 वायर स
जन िक
 अध्य यन
ज ल
 म ल
न् व
 द श
 श व
ां क
 स ारे
 खा द्य
 ले ना
ू बर
 व्यव हार
 परिष द
 बाव जूद
 मु श्
u t
 ल ंब
च ारी
ची त
ृ दय
ान ों
 वि ज्ञान
 सफ ल
िक ो
 आ वा
 बह ु
ब ाइल
 वै से
 इं स्ट
 प्र य
 ख ाने
 उत्पा दन
 रिली ज
ं थ
2 6
 ग ुप
 शान दार
िय ार
न ल
फ ्
 को विड
00 0
ज ाम
ड ्ड
ं तर
 योग ्य
श िया
री ब
 सु पर
 सम ाप्त
ट ो
 आत ंक
 आ ती
 उप ाय
 ग े
 ल ड़ा
ि फ
 स त
 सं भव
 मान स
खन ऊ
 जिस की
ाय द
 द ्र
 सार्व जनिक
ं तु
 सुर क्षित
 प्र श्न
 बात चीत
- द
 अ त्य
क्ष क
 श्र द्ध
 व ोट
स् ल
 ध ारा
-अ लग
 ट ्वी
चार ियों
 द स
 अ क्ष
 नि जी
 प्र स
 सा ब
 व ाय
 पहुंच ा
ज ित
 रो ड
 के स
ए च
ज री
 सं स
 पह ल
 ज हाँ
्म ण
 अन ुर
ने स
 स न्
 एक्स प
ू क
श ्री
ब ोध
 मिले गा
क ्रे
ज ि
 अ श
 मुश् किल
 बात ें
t er
क म
 घ ायल
 प र्य
 अनु मति
कार ों
 सं स्थान
  d
स ब
 क्ष मता
 यून िवर्स
ले क्ट
 स त्ता
 ट िक
 इ न्
र् जा
म् न
ग्र ाम
 कह ानी
म् बर
 प ारी
 ए फ
2 8
 परेश ान
 नि गम
 विस्त ार
ौ ल
 स्व रूप
र ाम
 त ारी
च ि
ार् क
ाइ ड
 दिस ंबर
 स्व तंत्र
प ास
शी ल
 शी र्ष
 जा ति
प्ता ह
िश् चित
 ख र्च
  U
  V
 श राब
e m
न ियों
 पश्च िम
 प्रशिक्ष ण
ं कर
 न ार
 अ क्सर
 स जा
 ख राब
ल् ल
च् चा
न ई
भार त
 ट्वी ट
य ो
2 7
 मै दान
 प्र तिक
श् चित
 प्र िय
 मु ला
िट ल
l o
 राजनी ति
 त ुर
िय ोजना
थ ि
 इंग ्ल
 पंच ायत
 गै र
 अद ाल
u l
 अपरा ध
 ल ै
 जर िए
 ग ाय
 मो बाइल
 गुज रात
द ्या
 व रि
म् स
 खु श
ू ड
 क प्तान
 नियंत्र ण
 कर्म चारियों
 पू र्
 परिव र्तन
ं श
 आई पी
 इत नी
् न
 लड़ की
द िक
 उप ा
 तुल ना
 प ल
 बेट े
 द बा
 तैय ारी
 श ायद
 इला के
a b
 पर ियोजना
 म गर
 बा इ
 वि रा
 सं त
 अंग ्रे
 ता प
 नि भा
 तक नी
ूर त
 गल त
 क्र म
 दो स्त
 जो र
 स्ट ार
- म
 फ ्ल
 ह ृदय
c e
 विक सित
 बदला व
 त भी
 प्र स्तुत
 हम ारा
 व्याप क
 आ इ
 ब्रह ्म
त् तर
o g
ाय े
 वरि ष्ठ
 ह थ
क्ष ी
ज नों
 संक्रम ण
न् या
 फोट ो
धिक ारी
र् प
 अव धि
 विशेष ज्ञ
 यूनिवर्स िटी
िय ोग
 ल ं
क ृ
त् न
ार् ज
 अ ग्र
 श ास
 च ढ़
 क ्व
ंड ा
मी टर
 इ च्छा
 ब्र िट
u p
य म
 कर नी
्र ाम
 वाह न
ू ँ
व स्था
ह ो
 आ ंद
् प
द ास
 चाह े
 ऑ स्ट्रेलिया
र् त
श े
- सम
ह ान
 आ ंक
 गुरु वार
 नि म्न
िन ियम
 निकाय ों
 प्रतिनि ध
 लॉ न्
ज़ र
 रख ना
ic s
ध ुन
ौ ती
 व िल
ट ्र
ज ब
 महारा ष्ट्र
in di
 कर ो
कर् ताओं
 बढ़ ाने
स्ट म
वा ही
 सू ची
 मूल ्य
 प्रा चीन
 प्र ी
ल् क
 यू रो
 प्र सिद्ध
्या स
 न ै
 टी वी
धार ण
ंद ी
 फै ंस
ले ट
 साम ग्री
 अ ली
b s
 कि न
 घ ु
 नौ करी
भ ाल
; 

ॉ ट
 अदाल त
 त ू
िय त
क्ट ूबर
 लंब े
ह ली
 स्ट ेशन
िया णा
 स्थाप ना
ं व
आ प
 वि मान
 खु ला
 अ सर
 प्र चार
 ब िल्
 दर् श
 फ ा
es s
ध्य क्ष
  J
जें सी
 पहुंच ी
 वि वाह
 कृ ष्ण
 प्र साद
 अमेरिक ी
 स प्ताह
उ ंट
 ) 

 फिल हाल
i g
 उ चित
 मृत ्यु
 बज ट
ाय ण
 करे गी
ख र
ेश ्वर
वाल ी
 ज ता
सि ंह
े क्षा
6 0
ान ु
फ ार
19 9
 द ृ
 उत्पा द
ब द्ध
 मन ो
 मत लब
१ ०
 ड ेट
 प र्व
 बंग ाल
 नि श्चित
त् त्व
 त त्व
 ऑन लाइन
 योग ी
से ना
 सु प
ष्ट ि
 सक ें
 म िट
स ूस
 ख ोल
 साब ित
वं बर
 द िला
 भे जा
 च यन
 अ क्टूबर
् ता
 अध िनियम
 सित ंबर
न् थ
रा ष्ट्रीय
 उस को
 मौ का
 हा द
 ह ित
 स्व ामी
ं घ
 व्यक्ति गत
रा ह
 अ तः
 इं त
त्र ियों
 एक्ट ्रेस
 बु ला
 ख ोज
 भ ेद
 पूछ ा
 छो टी
म ित
t r
 आप ने
ै र
 कार ्यों
 बना ई
- प्र
 विश िष्ट
 प्रा थम
 दिव स
 मा ँ
 मुकाब ले
ष्ट ा
ाप न
 आ ये
 मेड िकल
 लगा ए
a p
 को च
 श्र म
 विक ल्प
 न वंबर
  ?

 र िज
ना म
 पै से
क ुर
 ड र
 फिल्म ों
र ान
 व ीर
 जि न्हें
के श
 च ंद्र
त् ती
 र िश्
्र िया
 मिल ती
्री न
िल ों
द्र ा
 लोक सभा
 वर्ण न
 रिक ॉर्ड
 ह ल्
 सुन िश्चित
 प्रण ाली
सी सी
 ट ्वि
 बना कर
2 9
al l
 जि न्होंने
 द िये
 अध ्या
 माल िक
 मिल कर
 बता ते
 फ ाइन
श िप
 ह वा
रे ट
श् चा
 स िल
 इ न्हें
 धार ्मिक
च िका
न िक
r o
 म ं
 दर् द
a v
 त ्या
 मह सूस
्म ी
 तीन ों
' 

 स ारी
 आख िर
ज़ ा
 च म
फ ्र
म ि
 क्र िया
 ब िक
द ूर
 नि ष्
 दो प
 श्र ा
 घोष ित
 ग ठ
म्म द
 ग्रह ण
 नाम क
 म री
 ल खनऊ
ल ैंड
 आंद ोलन
 स् मार्ट
 से वन
ग तान
 म िस
 श ांति
 प्र ाय
 संग ठ
 रख ी
 इंग्ल ैंड
 वै ज्ञान
 बि ग
व ली
 जो ड़
er s
 क ल्प
 भ ो
 ध र
जी त
 ग ठन
ख ित
्र ह
 R e
 अ का
ंद गी
 पु स्तक
काल ीन
े प
 ट्वि टर
प्र िय
 क ब्
 रा हत
 दू ध
स व
 ह ल
 इ लेक्ट
धुन िक
द िन
 ह ट
औ र
क ू
 अनु मान
 आ उट
 रे ड
 आस पास
 पूछ ता
 स् त्री
 वाय ु
 भु गतान
 H indi
ें ज
लो ड
क् या
 पार ्ट
 सम ार
 सं सार
प द
 घ ट
न ियर
स्ल िम
 या चिका
थ े
 मा त्र
 रख ें
 भ ूल
 ख ड़े
 पा ने
 स त्र
 बी ते
 विदेश ी
 प्र कृति
क ाम
 w e
 क ़
 भ िन्न
 आ कर्ष
स ो
 प ्ला
 सं के
 था ने
 हर ियाणा
 न्याया लय
 ए व
ती श
िस ा
 उप करण
ह ै
 फ ूल
व धान
 व ित्त
 संप र्क
 च ली
- -
 ल ाइन
 हम ले
ग न
त ौर
 क ब
िस र
की य
 द ेंगे
 ॥ 

 चु ना
 तुर ंत
का त
 बैठ े
 नि र्म
h i
न गर
 त ह
 धी रे
 द म
  g
 लौ ट
 ख ाना
 प्र त
 वि वे
 रह ें
ध ु
 आधार ित
न् ना
देश क
 सल मान
 क्ल िक
di a
 तीस रे
 ई श्वर
 पक ड़
 लॉन् च
ाम द
 समार ोह
- ज
श ाली
 हिंद ी
श ोध
 इत ने
3 1
 आन ंद
 तो ड़
 कर्म चारी
रा य
क् कर
 मु क्त
 पर्या वरण
 समझ ा
 मॉ डल
 को हली
१ ६
h ar
 ल क्षण
 गो ली
ब ो
 ब र्
ां श
 ब्र ाह
 उत् तरा
 शु द्ध
 पृथ ्वी
 : 

ल ्ट
 म ित्र
 ताप मान
े य
धिकार िक
 भ वन
 ग्र ाह
 जल् दी
 ची नी
 बा की
 ऊ र्जा
 पुर स्कार
 चि ंता
 क श्मीर
 तला श
 रज िस्ट
 ला ने
3 5
 कै म
 रह ना
 गा ँ
कु मार
प ान
 ज वान
 ज िलों
 ठा कुर
 अर ब
 सि स्टम
 ग ्रे
ग ण
' ,
 पीड़ ित
२ ०
 संस्क ृति
 त थ
-सम य
 आ कर
सं ख्या
ल ाल
 बी मारी
द ो
र ित
 कंप नियों
 पा ई
 ग ुर
 यू क्रे
 भ ्र
्र िय
 सं जय
देश ों
 ल ु
7 0
ध री
 आ ँ
 द ान
 समु दाय
 प्र ाइ
फ ोन
 ट ा
स् वर
भ ि
 ग ोल
 छ ुट
ाप ्ति
 इन की
u m
ञ ्
ाल े
 हथ ियार
वा ं
 पूछता छ
फ ो
 संघ र्ष
 पर्या प्त
 ब ू
it e
 हि ंसा
 हाल त
ड र
 बाइ क
 मु स्लिम
जी व
 आ सान
 अप ेक्षा
 ड िप
 ज ्यो
 छ ि
 आ ंख
पा द
 च ैन
 क था
ण े
थ ी
 आ धिकारिक
 चाह ती
 जिन का
म्म ू
च क
भा षा
 पु राने
 म ास
 रू सी
 बे च
चान क
 इलेक्ट ्र
बी र
 संर क्षण
 मै ने
 उप चार
 पह न
 उ ड़
 n ews
स्ट ्री
 च ोट
 हैं ः
 टिक ट
लि खित
ग ति
 किलो मीटर
 विरा ट
ज् ज
 रह ेंगे
१ ८
 व र
 कह ने
 प ड़ी
 मिश ्र
 पद ों
 को ल
 प्ल ान
 उ क्त
 श्रे णी
 सहाय क
P A
 त ्व
 थो ड़ा
 प शु
्ट र
 सक ्रिय
 घ रे
 रख े
 पै र
 लड़ा ई
 का व्य
 कार ो
 प्र बंधन
ं की
 जा गर
ट िंग
ि नी
व ट
m ent
 हाथ ों
 म ाइ
 क ्ला
बी आई
 प व
 हिस् से
 परि स्थित
 शब् दों
 N ews
 व ्
 अ चानक
 सुन वाई
 गा ड़ी
ेद ारी
 अंत र्गत
 यु ग
 उ न्
 चल ने
वे द
 प्रभ ारी
क ल्प
 तै ना
ं जन
 सं बोध
 प्रा ण
 ट िप
नि र्
ध ारा
 जिन के
 ने ट
या त
 बी मार
ी प
 वि द्यालय
 दु ः
 संग ्रह
 प हा
सा इ
ो ने
ब ु
 दोप हर
 समा धान
 छ ूट
 जिस ने
a i
 टी का
i es
 ध म
 महा मारी
 मिले गी
 आईपी एल
 संर चना
 प्रा कृत
द् दी
 व ित
 आख िरी
 कर ियर
 ए शिया
 चौ धरी
कारा त्मक
वृ त्त
ि मी
 वर्ष ीय
 प्ले ट
 संच ाल
 मुला कात
at e
ग ंज
वि धान
 रोक ने
 प्रतिक ्रिया
 रहे गी
ब ाल
 कम रे
 कि र
श ाला
ार ों
ल िये
क्ष म
8 0
 अव स्था
 मिल ते
्र त
को र
 ना ग
 घरे लू
 भी ड़
 सुप ्रीम
 सु नी
 छोड़ कर
त् कार
ल ोक
 जम कर
 स्थान ों
 बु द्धि
 मरी जों
ोष ण
 चल ता
 कित ने
 मी टर
a c
 कित ना
च ु
 मश ीन
द ियों
क द
 अध्यक्ष ता
 वै क्सी
पु री
 सम स्त
 प्र कट
 सें टर
 ब ौ
फ ॉ
 सी जन
 मैच ों
 ध ा
 समस्या ओं
 ज ू
 चार ों
ौ न
 लड़ क
 माल ूम
 ख ड़ा
 आरोप ियों
 स्थ ल
 पहु ँच
 हो नी
जन क
ेंड र
 संके त
 मान ते
 हि मा
 डॉ लर
 पृ ष्ठ
 च ोरी
द् द
स्वर ूप
 मत दान
स् वी
थ र
प ो
र् ज
 अम ित
 ख ी
 प्र त्या
 ख ुल
ड ेट
 मु झ
िक े
 प्रति ष्ठ
 ब्राह ्मण
सल मान
 ग रीब
 खिला ड़ियों
it y
 क ड़ी
 हों गी
र द
 आस ानी
छ ा
t s
 ब ्रे
 तम ाम
 लॉ क
री न
 अफ ्री
o p
 अ ना
 समु द्र
 परि जनों
 सं कट
 जु ड़ी
 योग दान
 पेट ्रोल
स्क ृत
 अव ै
 दू री
 आ र्ट
 आ धुनिक
 वि वरण
रु द्ध
 हिंद ू
 ज्यो ति
व्य वस्था
 स ारा
 का ट
 डिज ाइन
 सा ं
 सम् प
iv e
 म स
 उ तर
 सी धे
 ब ंध
 विश ाल
 मह ो
 संगठ नों
 लोक प्रिय
ख ों
 ए जेंसी
 भ ौ
 ग ी
ु ष
दर् भ
िल ्म
ंद न
ण ्य
 अप ील
 समा चार
पूर्व क
 सु ंदर
 समित ियों
 प्र जा
 समझ ौ
 स न
 भ क्त
 फैस ले
 प्र भा
रा ग
दार ों
ग् न
ढ़ ी
 अ ल्
 श ूट
 नि रा
 सीट ों
 बल्लेबा ज
 रो हित
 इन का
 परि च
प ट
 हो टल
ॉ जी
 अख िल
 र वि
 ज म्मू
 ला गत
 स दा
 वर् ल्ड
स् त्री
 ज़ र
 र क्त
 क ंट
 प्रति बंध
े क्ट
 ग्र न्थ
बा दी
 च क्र
 अंतर राष्ट्रीय
िक ्र
 देख ें
ित ीय
5 00
 ज हा
 झ ार
 संग ीत
 अ के
ेल न
 c om
 इ न्द्र
 लेख क
 विद्य ार्थ
 घ ूम
 In dia
 संस द
 ट ूट
 पु ष्टि
व ती
त्ती स
 ऊ ंच
डा उन
से ज
 दबा व
 व्यव साय
 चे हरे
 मान ना
4 5
 बढ़ ने
 वि धि
ना क
 नागर िक
 जिम्म ेदारी
h an
i f
  on
 अ सम
म ैन
 पै सा
 नि री
ित् तीय
 समी क्षा
 अवै ध
त ल
 मान ्यता
। "
 वि द्या
 प श्चा
ण ि
4 9
्या ज
म ल
 स वार
 मे ह
ू नी
 खा ते
 महारा ज
म ह
 सू त्रों
 जन संख्या
 रा स्ते
 भगवान ्
 खु शी
 क क्षा
 न ारा
वास ियों
 झ ू
ृष्ट ि
 वि भा
ंड र
 कित नी
 कम ज
ाइ ट
 ट्र ै
 साल ों
 प टना
 बात ों
  v
 म स्
ठ े
वि ंद
मा त्र
क ्य
o k
। "

 त्या ग
 कॉ न्
 अभिने ता
 संस्क ृत
 म कान
ना टक
 फ ुट
स् को
 ने शनल
जू दा
 कि श
 ह रा
ॉ स
 वे द
 पट ेल
 गै स
 कल्प ना
 स ख
ु रा
  re
ली न
्रे ट
धिक रण
ता प
 आ जा
o w
 निर् मा
भ ो
 आ कार
 f or
ज़ ी
l y
 ब हा
 सब ्
 आद ित्य
 ऑफ िस
 स्वा गत
 बर ामद
भ ूम
 शिक ार
 इ ंद
फार िश
 संबंध ी
 मि थ
 एक ा
 वि द्व
 अ य
 आ वास
 दिखा या
 व ित्तीय
  =
 न ष्ट
घ र
प ोर्ट
 रिश् ते
 ज ला
्या दि
 स क्षम
 सि फारिश
-अ प
bs ite
 न्यू ज
 त ृ
पा त
 पा प
तिहास िक
अ ल
 अ त
 कप ड़े
 स का
 भ य
 ड्र ाइ
त लब
 अव श्य
 पर ाम
 फाय दा
i th
 वि ज्ञ
  [
 we bsite
्ल ो
 परी क्षण
ट का
दा ता
 ध ्व
 सैन ्य
मा ने
 ब रा
 मुद् दे
 हिन्द ू
 दे गा
ग री
ह ु
ल िंग
 नाम ांक
 भ ले
 पुर ानी
ट री
 प द्ध
 लग ने
- श
 मौ जूदा
 आ शा
 बिल् कुल
 निर् वा
क् का
 गति विध
od e
 ग्र ुप
ज र्स
) ।
 द ाम
 शिक्ष क
i a
े र
 इ का
 व ॉ
 बो ला
 र म
 संक्रम ित
ब् दी
 इंत जार
 कठ िन
 उत् सा
 परेश ानी
 प्र सार
 बै ं
न् यास
 प्रत ियोग
 गुप ्ता
 व्यक्त ियों
 श ौ
ड ु
h a
 आवा ज
 निम्न लिखित
ट ्यू
 पश्च िमी
 फाइन ल
ज ान
 मज दूर
19 8
 है ः
 र ेट
 वन डे
 Th is
 अश ोक
 ट ू
 साह ब
 सा झा
ड ्
व ो
 सं शोध
 हो म
 ग ंगा
 अनुर ूप
 सं दर्भ
 पराम र्श
 श ोध
p or
 खे ले
 मु सलमान
 मानस िक
ान ्
 स्व भाव
 श ेष
 उ ल
  is
 कर ाई
 गई ं
 यूक्रे न
ज िए
 तस्वीर ें
 लि स्ट
 ख ंड
 त नाव
 घर ों
 ज र्म
न ान
 म ंच
 इस् ल
 प ंड
 जाये गा
 स्ट ेट
 इ न्होंने
 खे ला
ज िट
 सम्म ेलन
 सू त्र
 नव ीन
 मोह म्मद
 भ ोग
 देख ना
त्तीस गढ़
ित ्स
व िक
 प्रतिनिध ित्व
 कह ता
 आ लो
 सि टी
ध र्म
 कार्य कर्ताओं
 बु रा
 पत्र कार
ol lo
 दु ख
 युवा ओं
एस एस
वि श्व
 पढ़ ें
ें शन
 इस को
 म नी
 सा धारण
 सा गर
 झार खंड
 बन ाना
 अनु स
 स्कूल ों
ल ंका
 पढ़ ाई
 व जन
 कवि ता
व ण
 सर्व े
 बो ली
 खूब स
ल् ला
9 0
 बो ले
 हाद से
 संबोध ित
े दार
कृ ष्ण
 पर िसर
 म रीज
 शा स्त्र
 निर् भर
 वैज्ञान िक
त्र ि
s t
 ए च
 सो ने
 नि श्च
 आ दर्श
ल ान
 ले ता
 अधिक ांश
 लगा ई
 प दा
 बह न
 उम्मीदवार ों
 रोज गार
 मह त्त्व
 ह वाई
रा ण
 f ollo
 सं वाद
भू त
ंड े
 बढ़ ती
 हा उस
र् द
घ ु
 हर ि
 खुला सा
 क ्
 ख ाली
राज ्य
 प्राकृत िक
एस पी
१ २
 स व
ल म
 लाइ फ
 सि ने
 प्रा धिकरण
 त्व चा
 बा बा
 बल्लेबा जी
 जान ने
ा फ
 इत ्यादि
 बोर्ड ों
 छोट ा
ंद े
शा स्त्र
व क
 ऐ तिहासिक
ंग ्ला
 देख ता
 S t
 आ बादी
 परिष दों
न् तर
ज्ञ ा
द रा
 प्रो फ
 नामांक न
 समान ता
िश न
 वि रुद्ध
ब ारी
ङ् ग
 लगा कर
 सी ख
 अ ह
 स ूर
 नियम ित
 श ता
 D N
 दी प
 न ये
ं जी
 ग ाने
प्र देश
 स पा
- वि
 पड़े गा
 उ दय
ै या
स्ता नी
ेंट ्स
 अंग्रे जी
 ड ाला
 नी तीश
ग ज
 ल ुक
 न ती
 औ ष
 फै ला
 पहु ँ
 मा ने
 E th
ार् ग
 अफ्री का
 म ंडल
द ल
 फ ें
 इस लिये
 आ र्य
 C ode
ब त
 सं य
 तैना त
 गाँ व
ष्ण ु
 व ार्ड
 ज ्व
 न वा
र्ड र
 विरो धी
ड िंग
7 5
 छा त्रा
 से ट
 जि ंदगी
 वाप सी
 का उ
 त ट
 प्रव ृ
 चुन ौती
 ब्र ां
प ल
 वास्तव िक
 ए ंटी
 भ रो
 वाह नों
 मार् केट
 प्र ौ
 अनु देशों
 थो ड़ी
 द स्ता
r i
सब ुक
 मु ह
ता व
 ज ंग
 ची ज
 जाए ं
 वैक्सी न
 ढ ंग
 सफ ाई
 पहुंच ने
 प्रार ंभ
 त प
 प्र ाप्ति
 इंस्ट ा
 पद्ध ति
स्ट ्र
 इला कों
 अका उंट
मा श
 हिमा चल
 खे ती
्व ा
 तारी ख
 जित ना
 तुम्ह ारे
- च
्रा ष्ट्रीय
 Eth ics
 ट ुक
 क ले
ि ग
 डिज िटल
 र िट
प त्र
 कार्य वृत्त
 लग ती
ou r
१ ५
 ट्र ांस
 तथ ्य
व त्ता
 ए ज
 follo ws
 झ ा
 मुकाब ला
 प्रस न्न
 कर् नाटक
 अ जय
 DN PA
 ह िसा
ही न
 अभ िन
 छ ाप
 ह फ्
 नि देशक
ट ्स
 प ेज
ब ॉ
.. ..
 गर्म ी
 कम े
 कहा ं
द्य पि
क ता
  e
 बु द्ध
ख्या त
 सरकार ों
 द ास
 बचा ने
 कथ ित
वर् ती
 अन् तर
 पव ित्र
क् ल
 अनु क
 सा धन
 निक ाला
 फ िट
19 7
 श्री लंका
प थ
 प्र ार्थ
 दौ रे
व ेट
 शहर ों
 सं विधान
 ज गत
 प्र गति
 बढ़ा वा
ज़ ार
 भ व
or e
 अर् ज
 स् कोर
 संप त्ति
 दुः ख
 म ूर्
 निय ुक्त
श ाह
- ए
 स्प ेश
 वै श्व
क्ष ेप
 स्थ िर
 दा ख
 क व
 प्र दर्श
ोग ्राम
 अभ ्यास
 आ काश
 धार ण
 श ख
 मान क
 किन ारे
 स ड़
न ै
 क ने
 इंड स्ट्री
आ ज
दे न
ग् ध
ि ना
 कार ्या
 कारो बार
 योजना ओं
ट िल
 आ चार्य
 ऐ प
 स्वतंत्र ता
 सु न्दर
 फ ार
 भ क्ति
 इं जन
क ृष्ट
 क ृत
 पूर् वी
 डाय रे
 स्व च्छ
 लॉक डाउन
 प्र ोज
 ग ुल
 अ ट
 तुम्ह ें
 म ारे
 कमे टी
  as
 मिट ्टी
 चिक ित्स
 मिश ्रा
 बा ग
 इं जी
 वे तन
 परिव हन
 हफ् ते
 भ रा
गा ह
 सिद्ध ान्त
 छ त्तीसगढ़
्य वाद
 पा त्र
भा ष
त ला
 स र्ट
प ित
 कै प
री त
म्प रा
 एक त्र
 माह िर
का ता
ण ु
 या त्रियों
रण ा
- व
 ह ां
 ब ध
 सिने मा
 मा या
 अर्थ व्यवस्था
 बौ द्ध
 बा ंग्ला
 प्रिय ंका
 गुण वत्ता
 र ोल
 मु कद
 च न्द्र
ं टर
 वर् मा
 उठा या
प ेट
 स श
 निक ट
 अधिक तम
क ै
 स्ट ूड
- भ
 पर ंतु
 किर दार
घ टना
िको ण
 च ां
त ना
 इंस्टा ग्राम
 अम र
 घ ंट
 फै ल
 चैन ल
 बे हत
कि सी
 ख तरा
 जन रल
 मना या
 क ू
 कमज ोर
 र नों
 दर्श कों
िक ेशन
s s
 प ोल
 इ ंस
 ली ग
 मिश न
 व ्रत
 ज ॉ
 हिसा ब
म ती
 प्रे स
 सुन कर
 ब्रिट िश
अ ब
भूम ि
 मु द्रा
 आर ाम
 प थ
 ए क्टर
 फ ो
 उ तार
फ ोट
 आप ूर्ति
 हे ल्
 पा ँच
 स्व स्थ
ॉ म
ने शनल
3 6
 अन िवार
 गौर तलब
 डा टा
 बिक ्री
 वे स्ट
ंख ला
 टिप ्प
बा जी
ण ्
 तम िल
 च तु
व ह
 ग ीत
ला इ
 प्रभ ु
 ह स्ता
ड ि
रु ण
 ए प
ू ंगा
राव ट
न्व यन
 र िस
जरी वाल
  Y
 र ॉय
 बरा बर
 रे खा
 व्या ख्या
प त
िम िट
श ्र
ब ारा
धी रे
 पुन ः
 प ोर्ट
 आग ामी
 रण नी
 विप क्ष
 फ सल
 दर वा
 उ न्न
 भ ्रम
r om
 व ार्
 अर्ज ुन
उ थ
 स भ
ारी रिक
फॉ र्म
 ! 

 स्ट ्र
 र ानी
 गि रावट
 बाल ों
 अ क
ct ion
ए ंगे
 द लों
स् करण
 व की
 वि विध
 टै क्स
 मे हन
 कि ताब
 श्र ृ
 सर्व ो
 अनुक ूल
 कम ल
व र्क
 विद्य मान
 दस्ता वे
 वैश्व िक
 खेल ने
 ड ो
 ऋ ण
 डेट ा
ला ब
 फ़ िल्म
िए शन
 आ ना
 वि ना
 प्र ि
9 9
 सम्मान ित
 पां डे
 कह े
 कार्य वाही
 टे ली
सा ई
घ ्र
 प्रदेश ों
य ल
ु क्ति
 के जरीवाल
 द्र व्य
्र ाज
 अब ्
 w ith
 विप रीत
 तत् काल
 ग ू
 कौ शल
 गु जर
 प्रो ड
क्र ो
े न्द्र
 ह स्त
 ' 

पी ड
 अभिने त्री
दा बाद
 सक ेंगे
बा ई
 पर ा
 नागर िकों
 ज्यादा तर
 पु ष्
ैन िक
म य
 त िव
 प र्
 उत्तरा खंड
वा ने
 दूस रों
 फाय दे
 विश ्ले
न्न ई
 बा ंध
 फॉ र्म
 प्रत्य क्ष
 राज ी
 गठ बंधन
 य द्यपि
ंस र
- फ
 साथ ी
 कार्य कर्ता
 ख ड़ी
ह िर
 एस पी
 शूट िंग
 जान ता
 महिला एं
 श ारीरिक
-प िता
 अ स्त
ंच ी
 रा स्ता
 ला या
 P r
 ऐ लान
त् सा
 बज ाय
 कि ंग
 द ाय
 मिला कर
 शास ित
 बेहत रीन
 इ धर
 सु झा
क्ष र
 प्रोज ेक्ट
र ू
 बांग्ला देश
 नोट िस
ह ल
 दश क
 ऑ टो
 यूरो प
 इंजी नियर
कु छ
 कि मी
ै क्ट
 सो न
 एक्सप ्रेस
 मं जू
 न ज़र
 इंड ियन
िय स
 रख ता
 स्व ीक
व ्या
 पर म्परा
ष्टा चार
- न
 उ द्ध
 म छ
 - -
्व े
 सर्ट िफ
 य श
 बढ़ ते
ि ड
 नि धन
- आ
स्ट िक
द्योग िक
ो ड
 देख ी
 यु क्त
 अग ्
स्कृत िक
 ग हरा
- बार
 य ो
 निश ाना
 चौ हान
 ट ॉप
से स
को र्ट
ब न
र् निया
 पं जी
ढ़ े
 बी ज
 सं स्कार
 एस ोस
१ ४
ol og
 पे ड़
 दी पक
 प्रा वधान
 प्रार म्भ
 ल िप
र त
 अनिवार ्य
ानि स्तान
 प्रतिनि धि
 इ मर
 माह ौल
 ती र्थ
l d
 कु की
 ब ें
- धीरे
 से ल
 गतिविध ियों
 शु ल्क
  up
 श त्र
 ज ानी
श ेष
 तिव ारी
 क ्रे
 लं बी
 लग ते
 क म्प
पी य
पाल न
 खु ली
१ ३
 रो मा
 शै ली
 सं सा
 प ार्क
 शा खा
 विस्त ृत
 शख ्स
ि रा
  all
a in
ॉ र्ट
ू त
 ग ह
१ ७
 हु ये
 कै लि
 सं देश
 स िव
 भ ट्ट
 दृष्ट िकोण
3 2
व र्ष
 अम ृत
 ल ूट
 प्र बंध
ोल ॉजी
 च ोर
o c
 b e
 धम की
 अक्ष य
 प्रार्थ ना
ब ान
च्च े
 शता ब्दी
स् तर
 दिल च
 उपस्थित ि
 सा व
 अन िल
 जीत ने
व ों
 सड़ कों
त न्त्र
 मां स
 अफ ग
म्म त
 मु ंह
 अ ज
 पढ़ ने
 हा ँ
 मो टर
 अप डेट
 सु ल
 ति थि
न ्य
ूस रे
 हजार ों
ु स्तान
 नारा ज
 सह मति
 सैन िकों
 ग्र ंथ
व ्र
al a
 कहा ँ
 अध ीन
पी ट
त् ते
य त
 बता ने
 आ शी
 दुर् घटना
 पत् थर
 ड ांस
 प ार्
ख ्य
ध ीन
 फ ायर
 उल् ल
ब्ल ्यू
 यू जर
 बढ़ कर
 प्रय त्न
 विचार ों
उ न्होंने
 ची जों
् मा
is t
 चे क
 अ भाव
 कह ला
 सर ल
 घटना ओं
स ंग
 लोग ो
चित ्र
 पर माण
 न्यू न
 हाल ात
ंप रा
 ग र
 पी ने
 चाल क
 बचा व
e p
ष ेक
ब ्यू
 मेहन त
श य
 सौ ं
 प्रय ोजन
थ ाम
र क
रो ज
वर ों
 सी मित
ह ारी
 चला ने
श्च र्य
 आलो चना
 अ श्व
 स्मार्ट फोन
 चै ंप
3 3
 व ास
 बु री
 अ ल्प
 इ म
 निश्च य
 ग्रामीण ों
 त ार
 लाख ों
भ ेद
 यू जर्स
 ए क्
 उ धर
 र िया
 दी वार
 खरीद ने
 प्रव क्ता
 पदार्थ ों
 धो नी
 प्रति भा
घा टन
क्ष ्म
 मृत क
श ्रे
an t
 अग्र वाल
 बद माश
 द्व ार
 खी ंच
 आन न्द
० ०
 स्क ्रीन
िमिट ेड
 श ह
 फर ार
- सी
रु ख
प् शन
ना मेंट
े ड़
 तकनी की
 ट ूर्
च न्द्र
 P ol
 वित रण
 फे सबुक
ड ो
 ट ो
 अध ि
 कमा ई
 विध ाय
 इस् ती
 दर् शा
य क
 अ ंध
 भा षण
 च ाय
 अनु प
 म चा
 दु ष्
 सा उथ
 लिख ी
 ने पाल
 अहम द
 विशेष ता
 व्या व
 कारण ों
्या म
 झ ु
स च
 द या
 प्राथम िक
 उत् तरी
 स ेंट
 सर् वा
 सेवा ओं
 दो नो
 बध ाई
दरा बाद
 लड़क ियों
 साम ्राज
 पा ते
 इंटर नेट
 नि म
 च ार्ज
 पी ठ
 तीस री
 य था
 टूर् नामेंट
 उत् तम
 ग ोर
 ग िल
 ब ढ
ां सी
 जागर ूक
 न ज
 त्र ि
 मुद् दों
व ्यू
 कुकी ज
फ िया
 मुख ्यालय
 ल म्
सी य
 चे न्नई
 समझ ने
 स्ट ेड
 दौ रा
3 4
 जु ड़ा
 कह ती
 त ल
 स दन
 कर ण
ि मा
 अखिल ेश
 कोल काता
 राज्य पाल
 संचाल ित
 Th e
 आवश्यक ताओं
ह ूर
 चर ित्र
ार ्ट
 खूबस ूरत
 लिख े
 एड म
 ना टक
 का ले
 शिक्ष कों
प क्ष
 जिम्म ेदार
in e
 पर ंपरा
भाग ्य
न िय
 र हीं
इ यों
 स्टेड ियम
  ]
 ह नु
 ल हर
 अप लोड
 से क्टर
च रण
मा ग
 ता कत
 त ंत्र
ॉ र्क
का ने
 अत्य न्त
म ेट
 कृ पा
 स िक
 कार ्
रे खा
ंघ न
 बढ़ े
 गु स्
o ok
 लक्ष ्मी
 भ ोज
 प्रत्या शी
 चौ क
 अग् नि
 उ द्य
e w
 ख त
 म मता
il l
 य थ
भू ति
 आतंक वाद
 टे क्
 द्व ितीय
 बढ़ ो
 वि ष्णु
रा सत
 त र्क
3 00
 वि ट
 मंजू री
 खु ले
 विषय ों
 कि रा
 प्रतियोग िता
रो ध
 जिन की
 म न्द
्र ेशन
 गेंदबा ज
 अं जाम
 आ श्चर्य
 स ॉ
 खबर ों
 दि ग्
 बैठ ा
 द शा
 निरी क्षण
 जता ई
 इंटर नेशनल
 बॉ क्स
 कॉ ल
 लड़ के
 निय ुक्ति
्यू टर
 र ुक
 सं कल्प
स ुर
या ं
इस के
 म धु
 प्रभा वी
 पा वर
 भ ि
 बदल ने
सी ल
 बिज नेस
 वृ क्ष
प ूर
 न दार
 रोक थाम
 ख तर
 C h
 घु स
 सी बीआई
 फ ्री
  y
धी श
 श तक
 भ्र ष्टाचार
व त्
 सम र्प
 शी घ्र
 सो ना
ष ्म
 पुरुष ों
 नदार द
 पंड ित
म ेल
 भरो सा
 गौ तम
 वस्तु ओं
 के रल
 डा उन
ष् क
 त िर
 रै ली
 पड़ ती
 क्ष ण
 हि रासत
जि द
 ठ े
 सं भाल
3 7
िव ्य
en d
 बद ले
 भा गी
 घा ट
 स ्रो
िका ओं
ंद ाज
h t
 सां स्कृतिक
 हाई कोर्ट
 उत्पा दों
 देव ता
के शन
 सौ ंप
ए क्स
 स्ट ोर
 प्रती त
 निर्मा ता
 वा ता
 । ।

i k
 ब च्चा
ज ै
 प्रो त्सा
 ची जें
पर ेशन
जा त
 च ू
र् की
प्र दाय
 उत् कृष्ट
द्योग िकी
 फॉ लो
 उद् घाटन
 ब जा
 शाह रुख
न न
 प्र ताप
 सम ्य
 सफ ेद
 मे क
द्दी न
रा इ
 श्रृ ंखला
 f rom
 जी ता
y a
 कंट ्रोल
 बच्च ी
 लाइ स
 उल्ल ंघन
 मही नों
 काम या
 प्रति मा
 श्रद्ध ा
मे र
3 8
ब ूर
 अ सं
मी र
 अ ज्ञ
19 6
 विज्ञ ापन
 ब ेल
 मन ोर
 नेट वर्क
ां तर
 ज ंगल
 मश हूर
 ल क
 इ रा
म ूल
स िक
 अंतर ्राष्ट्रीय
ब्ल िक
म ंद
य ें
 नि प
 कार्या न्वयन
 परमाण ु
 बॉ स
 ज़ ्यादा
 अफ सर
 श ही
 प्राय ः
 व स
 पर्य टन
जी लैंड
 तत् त्व
 दौ ड़
 देख े
 म ूर्ति
 धन ्यवाद
 क्षेत्र ीय
 क न्या
 न्यून तम
 स कारात्मक
गर ानी
 औ सत
 हट ाने
 ग्राह कों
त् प
 जु ट
-क भी
 ख ि
्यू टी
 आ हार
 चुनाव ों
 स की
 मा त
का ं
 र ॉ
 ब्रिट ेन
 ल ेंगे
 सुनी ल
ै ट
 प्रे रित
4 8
 च ंद
 युव ती
 पहल ुओं
स् पर
 उप युक्त
 क ं
 पर मा
 जय पुर
 विन ियम
 मु क्ति
प् ले
 ज ाल
 या त्री
 दृ श्य
 अ दा
 तकनी क
१ १
 नि गरानी
 आइ ए
 का ं
वं त
गु ण
 क ्यो
 म ाय
 ज ड़
olog y
 डि स्
कर े
 सर्व िस
 भो पाल
 मा स्टर
दे ह
 हि म
ड ॉ
 इ श
 च ित्त
 सू क्ष्म
 ओ पन
 नार ायण
ने श
 वाता वरण
 वकी ल
 महा त्मा
 C on
 र द्द
 है दराबाद
e c
 म ंज
 आ श्व
 ए ंट
 उप भो
 बच ने
 ख ून
क् के
 संशोध न
ic e
 ब्ल ॉक
ती त
 सच िन
 समाज वादी
 विधाय कों
 भ री
 आश ंका
 मन ोज
 कथ न
 ह री
u b
 ले न
 चैंप ियन
ंध ान
 ल िमिटेड
 पश्चा त्
 मिल ियन
 बता ई
15 0
S T
 तरी का
वा य
 सके गा
 जा म
 आत ंकी
 प त
 उत ना
 त िल
गा ंव
 इसी लिए
ो द
 सु श
 उल्लेख नीय
 गिरफ्त ारी
 प ेंशन
 सं स्करण
िए ंट
ताव नी
 एसोस िएशन
 मै न
 प्रे रणा
 अ वि
 हिस् सों
 य ज्ञ
 जगह ों
बी सी
 उत्सा ह
 शा स्त्री
 संबंध ों
 दो बारा
 गौर व
 बा ढ़
टे ड
र स
 बेट ा
 ता जा
19 5
 अ स्थ
 प्रौ द्योगिकी
 अभ ्य
टी वी
 सुझा व
 कै ंसर
ar d
 टिप्प णी
 दाख िल
 मार ने
स् स
 सम ृ
 ट्र क
 ब्ल ैक
 फ ंड
 चे तावनी
 साध ु
भार तीय
es h
 स् त
ar t
 फ ाइ
 गेंदबा जी
 ब ट
 उठ ाने
 आंख ों
 लगा ते
 जब रद
 गुप ्त
5 5
 अम री
 परिच य
o od
न्द ्रीय
 ट क्कर
 इ जा
 सप ना
 भ रे
 सै क
I n
 इस्ल ाम
 मज बूर
 आदित्य नाथ
 द िक्
 कान ूनी
 सह ज
 ह र्ष
 लि ंक
 ज्ञ ात
ए आई
 प र्स
 ब ्याज
 वर्ष ा
दी य
 भौ तिक
प ण
ट िव
 व चन
 अस्त ित्व
 ली टर
गी य
 बन कर
ह ्न
 ई रान
 बना ते
ास ा
जिट िव
पु रा
 ल व
्यू ज
 ग ़
 रख कर
 विप क्षी
स्प ति
न् धी
 सम् पूर्ण
 हनु मान
व ानी
 श ांत
 अभ िय
ल न
 हेल् थ
 प्रती क
ट ्
 मो हन
 कर् त
 स्म ृति
 अनु पालन
 अन्त र्गत
 बैं कों
 न्यू जीलैंड
 टीम ों
सी बी
ि द
 श क्त
 अनुस ंधान
मु झे
 राज ेश
a j
 निक ले
 एक ता
रे ज
क्ष ेत्र
ढ़ ा
ाम िन
 का ला
ोध ्या
 अनुर ोध
 साम्राज ्य
u j
 र िल
 परिवार ों
 प्राइ वेट
ar e
 ह ार्
 करवा या
 स िया
 पा ता
ड्ड ा
 संस्था पक
 क्ल ब
हत ्या
 क स
 बुला या
 परिस्थित ियों
ँ स
 फें क
 इ मार
न् हा
 अध ी
द ुर
 मार पीट
ह स
 मे ट
भ ु
 दोस्त ों
 बि ता
 सि ंग
  r
 पर्व त
ली य
रे न्द्र
 चि न्
श्रे ष्ठ
 प्र दू
is s
 तीस रा
्त िक
 बि ंद
ू ली
 चुना वी
 निर् यात
  k
 सैन िक
त् सव
 ज मान
 उ र्फ
सच िव
 ग ले
 विद्य ुत
 ब म
 बना ये
ै व
 ऊ ँ
अ गर
। ।
 ग ेट
at est
से न
 निर्म ित
 स्ट ाइल
वी य
 आ ह
- ग
 भाग ्य
 जा पान
 नि वास
 किश ोर
 डि वा
 चु प
 शत्र ु
 बच्च न
 ब ुल
लि स्ट
 वार् ता
 ऑ परेशन
 राजी व
फ िक
 ऋ ष
प्र ति
फो र्निया
खा ने
-द ूसरे
ध्या य
 सिव िल
म ार्ग
न् दा
ड िट
 अर विंद
ख ़
: 

 आ ग्रह
 मौ ल
 ची ज़
 । "
 जा हिर
 से क
 जो ड़ी
 ट्रेन िंग
वा या
 स ौर
फ ान
 वर् क
मुख ्य
ा ँ
 स्व र
 निकाल ने
ु सार
 स् ना
 का ली
सा गर
 स्ट ाफ
 रिज ल्ट
 रव ाना
 खे त
स्थ ल
 घ ो
 विवे क
 निकल ने
 गु ना
 ग वर्
 उन्ह ोने
ا ل
 आय ुक्त
 अफग ानिस्तान
 छ ु
 निर्वा चन
 प ायल
 ह द
 जित नी
 वि ज
 ध ूम
  am
 जा या
 up d
 स् नान
 बा हरी
 अं श
at ed
19 4
क्सी जन
 सुन ने
 सब को
 से ल्स
 औष ध
िय ंस
 ख ्या
भाव िक
ी करण
 अके ले
उ त्तर
 इंस ान
बि नेट
त ू
 न ॉ
 द्व ीप
र ानी
 गै ंग
सि ड
चल ित
टी न
 स्थ ायी
 विद्यार्थ ियों
ौ ली
 मुकद मा
e v
उ प
 तह सील
  j
 आदेश ों
) ।

 खे ली
 प्री म
 म ानी
 आए ंगे
 परम ेश्वर
े दी
 ती व्र
द ित
 तारी फ
 द ैनिक
स ाम
  +
 ब्र ा
 गे म
 कब् जा
 उपा ध्यक्ष
 इंटर व्यू
ंत्र ित
 गेंद ों
 ख ार
 आम तौर
 सम् भव
 वि जे
श ान
 बु निया
 जा ओ
ब िल
 से हत
 इका ई
द ृ
श क्ति
 देख भाल
 रा ग
 पॉ जिटिव
या ग
 ब लों
is h
 उप न्यास
 ट न
 बाल क
 रूप रेखा
 b y
 सी ता
 लड़ ने
ल क
 पाकि स्तानी
 डायरे क्टर
 लाइस ेंस
 कर्म ियों
 प्रवृ त्ति
 ओ म
 क्ष ति
 मह ज
 विश्ले षण
ू नों
 मु नि
 स्तर ों
" ,
 बढ़ ता
 सख ्त
 म च
 इन कार
ट कों
ो व
 नम क
 उन् हीं
 दि माग
 छा या
 नौ कर
 स च्चा
 गण ेश
- एक
द् भ
 दु श्म
स् कर
p p
पुर ुष
 श ोर
 कैलि फोर्निया
 समझ ते
ारा ण
 को ट
 एक मात्र
 शिव िर
 न्याया धीश
 डॉक्टर ों
 सो चा
 रिस र्च
 एयर पोर्ट
श ः
प ै
 नो डल
 म ध्यम
 प्र करण
 बा धा
 राज पू
 अर् ध
 बढ़ो तरी
दा ताओं
ं पर
त्त ियों
दि ष्ट
 ख़ बर
 बैठ कों
एस सी
 संत ोष
 औ द्योगिक
 चौ थे
 दोष ी
 भ ंड
क्रम ण
 पड़ ने
 उप देश
 अभि षेक
इ ंग
ख िम
 योग ्यता
 छोड़ ने
  &
 पै माने
 ह ंग
ब ै
सर कारी
 भर ने
ें गी
 सु र्
 वि स्
 कप िल
 जा त
ें सी
र ह
 धा तु
 सब के
ाइ म
 कि ंतु
क् की
 श्रे ष्ठ
 ट क
 चम क
 रोग ी
ु ण
 घ े
 ऑ ल
 कै बिनेट
म तों
 ब्रां ड
  #
 सिल स
in d
 क ंग
 आए गा
र ियर
 पर िप
 सीट ें
फ्र ेंस
f f
 हे ड
 गि रा
वा णी
ना डु
ई ओ
 फ र्
 बन ता
 गो द
 बा बू
 मनी ष
l a
 ऋ षि
 नी ंद
 गांव ों
ाराण सी
क्ष ्य
एम सी
 म ृ
 व् हा
दा त
म हा
 सि ंध
 सुना ई
ग ़
 ह ाइ
स्व ामी
न् ट
 खतर नाक
 तुम्ह ारी
 इलेक्ट्र िक
ोट े
 क ष्ट
 आजा दी
ून ्य
 स िक्
 उड़ ान
 श पथ
i al
 जान ना
ल् लाह
. in
 दिल्ली ः
श ्त
 तस्वीर ों
य दि
 विट ामिन
 ए ग्
 सफ र
 ग ार्ड
ou n
4 4
 पाठ ्य
 ठ हरा
 स्वा द
 अभ िव्य
 भर पूर
क् क
विश्व ास
 कै ंप
 लिख ित
 गल ती
 अय ोध्या
 कल र
 फ र्जी
जी वन
 श रण
 प च
 दे गी
इ ंट
 अधिक तर
 इ व
 जो खिम
 फ्र ांस
ब ानी
6 5
 न ित
 उ ज्ज
 सम क्ष
च र्स
 ले ती
 ब न्द
 ह ड़
पर ि
 कैम रा
 सी सी
 श हरी
 क मेंट
 स् किन
 लि हा
 इमर ान
 द ायर
 म ारा
 गुण ों
 संस्थान ों
 अप र
 द ब
 अप मान
 यूरो पीय
 जमान त
 चला या
 स्पेश ल
 मन्द िर
 अधी क्षक
र् ति
 एस डी
 घंट ों
 बी मा
 म ध
id e
 पढ़ ा
र िएंट
 ध ु
 न क्स
 के न्द्रीय
 तुल सी
 मा स्क
 राज स्व
 मध्य प्रदेश
 दा वे
 ज स्ट
 कला कार
 w h
च्छ ेद
4 00
 सर्व श्रेष्ठ
 न ु
a th
 न्यू ज़
फ्त ार
म स
मा वली
 ज िक्र
 महा सचिव
ख ण्ड
 भ ूप
 महो दय
 रा व
 पद क
 कान पुर
 पर िश
i p
वृ त्ति
 दे ह
ic y
ध्या त्म
 दिलच स्प
 हो ली
े स
 मे र
 प्लेट फॉर्म
3 9
 फिल्म ें
तु म
 रु चि
 व ंश
 की मतों
 रा केश
 म जा
 न्यू य
स्ट ार
 स राह
रे न
 झ ग
ंक न
 ना श
 ग्र ा
एस टी
 आकर्ष ित
प या
 म ंडी
m a
 गो ल्ड
-क श्मीर
 श ंकर
बॉ लीवुड
 डाल कर
 एक्ट िव
 ब तला
 मिथ ्या
 इंद ौर
ड ्र
 म रा
 र ूम
 बैठक ें
q u
  X
्य ूल
 न क
े यर
म ंडल
 शुरुआ ती
 द ह
 जु ड़
ग ोल
 मे ल
 है रान
 स्वा भाविक
 प्र ख्यात
को ट
 विस् फोट
 जाय गा
w w
 आंक ड़ों
 टाइ म
 घ ोट
 सुविधा ओं
प्र ा
 मान ्य
 हस्ता क्षर
 रह स्य
ुल र
 कु र्
ढ ा
ंस क
 जल वा
 स्व र्ण
ृत ्य
 शि खर
कर्म ियों
 स् की
 सा क्षा
 क वर
 क्र ोध
 मुझ से
री य
 पे पर
 क ुर
 कर् ज
 कर ार
 डी जल
 अज्ञ ात
 सा ज
 न ाय
व श
 दिग् गज
 सं चार
अ र
 इ ंट
 उ र्
िम ला
ार ण
 l atest
 c on
 पु ण्य
वि भाग
 कब् जे
 सिद्ध ांत
 उपयोग ी
 छ वि
िता भ
 नि च
 म ंड
 प्रदर्श ित
 छाप े
 डाल ने
 पेश े
 जन पद
 कार ्मिक
 धो खा
 निक ला
 मो क्ष
 ल ीड
 मान ने
फे सर
or ld
  ष
on e
प ंच
 जग त्
 ल ोन
क ंप
 कह कर
 यून िट
 शही द
मार्ट म
 अ न्दर
 अत्य धिक
 स त्या
 छ ू
 गी ता
 काउ ंस
 मछ ली
 हॉ स्प
 दल ित
 छुट ्टी
 रणनी ति
 ज रा
 प वन
 इस्ती फा
 जर्म नी
 सी र
 ख िल
 आत्म हत्या
 क्ला स
 क ्यू
त ें
a ch
 खत रे
 अग ली
 ब र्फ
 ब ारी
 S h
 शिव सेना
 प ड
 सम न्व
 पोस्ट मार्टम
ंडी ज
 आश ्र
 तत् कालीन
 p ol
ज िस
ना इ
 आ धा
ं कार
 मेट ्रो
 सूर ज
u c
 बा ँ
 दिखा ने
 अभ्य र्थ
पा दन
 बुनिया दी
 टेक् न
ॉ ड
 आप त्ति
 बन र्जी
 इ च्छ
ज लि
धिकार ियों
 ब न्ध
 प्रदू षण
्ट न
सी पी
 परमा त्मा
 पीड़ िता
 कै सा
 A n
 सैक ड़ों
 सम् ब
ाइ यों
 फ ं
 कार्य काल
द्ध ा
 अ ंदाज
 न ित्य
 अध िव
 प्र ोग्राम
 ऑ क्सीजन
 राज कुमार
 गोर ख
 अ जी
 पिछ ली
 समी प
' s
 कार ्तिक
 रह ित
 मैने ज
- छ
 से मी
 च ोप
वि ज्ञान
न म
an g
 साध ना
 को त
जु र्ग
्र ु
 शान ्ति
 ए क्शन
 मत भेद
ब ंदी
 अस ली
क् ला
 उ ड़ा
 डिवा इस
 प्र मो
ड़ िया
 ज टिल
 य हीं
आई ए
 जीव ित
 राज्य सभा
 जवान ों
ध ारी
वाल ों
 हार् दिक
ग ुरु
 जबरद स्त
4 7
 ओ ल
 चा वल
त्त म
वा स्तव
 तमिल नाडु
ग ्व
ख ार
र्म ी
फ़ ी
 ह ंस
लो नी
 अभ ्या
 सुर् ख
 व ें
 कठ ोर
टी आई
 ना थ
er t
ग्र स्त
 अनु सू
 पाठ क
 कु शल
 बोल ने
 पहुँ चा
 उत्प त्ति
कट ्
 फ ्ला
 आ फ
 बा ह
ता लों
 वि नो
 प्रति दिन
 श ्व
ए डा
g ov
 पुर ाना
 स्व तन्त्र
 समझौ ते
 त ्यो
 दीप िका
ए गा
 हे म
 मान ें
मु ंबई
 महत्त्व पूर्ण
क स
 को य
 न िल
 नि ः
 स्व र्ग
व ाना
 जो ड़ा
 जो शी
 जन्म दिन
ण ं
 कार्यक्रम ों
 th at
 रख ती
 विशेषज्ञ ों
ण्ड ल
4 2
ले किन
िस ू
व ारी
 पदा धिकारी
 गो पाल
 खा ता
 जन जा
 अध्या य
द्व ीप
 मो र्चा
 नी ल
 निर ंतर
ुप ्त
ंग ाई
 टीका करण
 विध ेय
 आज कल
मा ंड
 मिला वट
 ढ ां
 श िल्
निया ं
ड िया
 खार िज
ि ने
वे यर
 बी एस
 स्ट ो
की न
 पायल ट
 र कम
 सि न्हा
 पू ंजी
 प्रो फेसर
 फॉ र
रा ष्ट्र
 बीमार ियों
 ग ्रीन
क ्यू
 का यम
का या
ak ing
ु ति
 सं पाद
 सी धा
सी न
 P M
 आज ्ञ
 ए रिया
 भर त
को ल
 उद्य म
 अ त्या
 तत्व ों
 न रेन्द्र
 केंद्र ित
 ह क
 प्रश ंसा
 Pol icy
 श्रद्ध ाल
- सरकारी
हा बाद
 पाए ंगे
os t
रा क
 सा झे
 नै तिक
 जा ग
- त
 लग ाना
 व्यक्त ित्व
 भे जे
 ग ाना
दि ग्ध
कर्म ी
 खोल ने
 कले क्टर
अप ने
र न
 वार दात
ष े
स मा
 समर्प ित
 निश ान
 जित ने
 अभिन य
 प्रे मी
प्र धान
लो त
 अस्प तालों
ोग े
 ता ल
 बु जुर्ग
 रिज र्व
ह िता
 इ कट्
 ब्रह ्मा
 उपकरण ों
 ब ृह
 पहुंच ाने
 ला पर
 वा ण
 स दी
. gov
ऊ ँ
 सहयोग ी
 र फ्तार
 ऑफ र
 बै टरी
 पत्र कारों
 आर म्भ
 कृ पया
 आर ंभ
 लिख ने
 रिपोर्ट ्स
इ ंड
ो सी
 लक ड़ी
 सा इट
a h
ाय न
- र
 व ाराणसी
 सा ढ़े
व ेल
 प्रोफ ेशन
ौ ज
 न्यूय ॉर्क
नी त
 मी ल
प ्री
ar y
 बह स
 कर्त व्य
। ।

 के श
 खबर ें
 समझौ ता
वा ड़ा
्व ल
 ध ूप
ों के
 आरोप ित
 चोप ड़ा
िम ंडल
ष ्यों
ो म
 शुरू आ
स् ति
ra d
 सप ोर्ट
का य
4 6
 मांग ी
द्भ ुत
श ासन
प् ति
- उ
 निप टने
 को रिया
 इ ंच
 कठ िना
 पार ित
 कंप ्यूटर
ion s
॥ 

 बना ता
आई आर
ष् णा
 घा टी
वि धि
म्म च
 तु र्की
 ब्रे क
 स ृष्टि
ंडी गढ़
 ए ंज
- धारा
 ड ्रेस
डी ए
 उत् स
 धर ती
 मर ने
 आ क्रमण
ू द
 इस ने
 पुन र्
 आर क्षण
 मुद् दा
 अ सल
 सम ्रा
as t
 चे यर
 महा वीर
 को र
 अम िताभ
 ऑ प
ab le
भाव ना
 न र्स
por ts
 मस् जिद
 आ ंध
at es
 भाषा ओं
 अ न्न
 मजदूर ों
 तुम्ह ारा
 जो न
 दु र्ग
 भू त
 m ore
 समझ ना
 ची फ
 दृ ढ़
 इन् हीं
 आ वं
 विनियम ों
ज ारी
 का शी
 म ण
 च म्मच
 देख ो
 गण ना
 जी ते
द ्री
 कि रण
 रम ेश
 गह लोत
 फार ्म
 म ंग
 व स्त्र
 र िश
 विजे ता
ॉ ज
प्र काश
 हॉस्प िटल
 विभाग ों
 संभाव ित
 च क्कर
क् ताओं
 लोक तंत्र
 चे हरा
 प ब्लिक
 अनु वाद
 ठा करे
 बच पन
ज ्य
हा ई
 आप स
 व्याप ारी
 छि पा
 प्र का
 सर्वा धिक
द्र ोह
न मेंट
 मद ों
 अल् लाह
 शुर ु
 आ लिया
 स्रो त
 सर्वो च्च
 दिक् कत
ाय ें
u re
 ग्राह क
ण ्ट
 रा ंची
ag e
 मे घ
क् चर
स्ट े
 इ ति
re e
 डाउन लोड
 चल ती
ंग ों
 । "

 सं दिग्ध
 am ar
is ter
uj ala
 जहा ज
 श ोक
 ठ ंड
 गर् भ
u d
 अंतर िक्ष
 amar ujala
 प्रशासन िक
 म न्त्र
 नियंत्र ित
 सेल्स ियस
 आश ्रम
ार्थ ी
ली ल
ूं कि
 उत् सव
 मान ो
 ब्ल ड
 रा णा
िके टर
 श र्त
 श्री कृष्ण
er n
ड ियो
 लगे गा
 ज ॉन
 च िप
 सा इन
द ुल
 कि स्
 भ व्य
 जु र्म
ग्र ा
 म ुर
ार्ट मेंट
 न ारे
 अख बार
 प्ला ंट
 आप दा
 मु केश
वा ड़
 हि ट
 राजपू त
 ट ्यू
 लाल ू
दाय िक
 जस्ट िस
ँ ह
 स ैल
ड ब्ल्यू
ँ ग
 नज दी
 छ त
ाय तों
 डे ढ़
 उप ास
 s t
 आ ध्यात्म
 या नि
आ इ
 सेवा एं
- ट
 करवा ने
 ऑफ ़
 भेज ने
 सद र
 सह ारा
ज िये
 रोज ाना
िप ्त
 दक्षि णी
का ंत
 सत ह
 प ोषण
ंतर िक
ू र्ण
 जिस मे
 उठा ए
 मु ज
 जब ्त
 श िर
भ ोग
 श क
 म ज़
 तेज स्वी
 मे गा
 प ाये
 गे ह
 भार ती
ग ैर
 प्रयास ों
e ct
 सिद्ध ार्थ
 स्थ िरी
 स प्
 र त्न
 कामया ब
 ध ान
 मुसलमान ों
 क प्ता
 क ंटे
प री
ञ् च
ले स
ोग ्रा
सा इड
 प ठ
 स्थिरी करण
 क्रम शः
्री ट
 ख ण्ड
ध ित
ड ्स
 गाय ब
ो ई
ष ित
 ध मा
  us
e f
 दि नेश
ंच ित
 वा क्य
त ियां
 परियोजना ओं
 वार ्ष
स् की
 ढ ूं
 निर्देश िका
 आदि वासी
श िंग
 पार ्ष
 साज िश
 प्रतिष्ठ ित
 ग ्लो
 जो ड़ने
 जिस को
 बॉ डी
  *
ंप िक
 बढ़ा या
 मह ंगाई
 पक ड़ा
 बेच ने
 बे स्ट
 नो एडा
 आया त
्य ार
 आँ ख
 रु ख
 मे न
ब ंद
 बै क
ट्यू ब
 ड ूब
 गू गल
 रूप ये
 K B
 आज्ञ ा
इ ंडीज
भू षण
 बोल ते
 बढ़ ी
 क ंस
 पु राण
 स्म रण
 ह ानि
 प्राथम िकता
 दि ना
 वै सा
ज ना
िज ्य
 प िट
 प ाइ
5 13
 रह कर
 अभ्या वेदन
 यथ ार्थ
 अ द्भुत
 बार ह
 सुश ांत
 पे य
 कट ौती
h e
 साव धानी
एसएस एआई
ou t
ज िन
ँ ति
 पर स्पर
आई टी
मुख्य मंत्री
 कह ान
स् ड
 प्र वाह
 प्र श्
 मान ता
 आग रा
 ड ्यूटी
 फै शन
क्र ाम
फ िर
 बिल कुल
 प न
 आय ी
हर ण
 विधेय क
 एफ एसएसएआई
 एंट ्री
िल ्स
 चाल ू
 मु फ्त
 इ ट
 दिला ने
 श िश
 मु स्क
 ट्र ॉ
ंच ल
 श ्याम
 आ ंतरिक
 रा त्रि
 सम्म िल
 श र्म
च ंद
 सभ ्यता
P L
 ई मान
सं ख्य
 आए गी
2 50
 लाइ व
 ग ्री
- से
 अ ंडर
 री ति
 पाठ्य क्रम
 सू च
 ब ्ला
ंत्र िक
 दो हरा
शी लता
म िक
एन यू
 चरण ों
 मिश्र ण
 ने हर
 न कारात्मक
 क्र िकेटर
 झू ठ
 ब तौर
्रे म
ब रा
 सा ंप
 क ौर
 मु आ
 ज स
 विशिष्ट ियां
ष्ठ ा
निय मावली
ब ॉल
 पोर्ट ल
वा यर
ss ai
ूह िक
 धार णा
 F ssai
 बु क
 सुर ेश
 वा दा
, "
 ग र्व
 श िमला
 दिव सीय
 डी एम
 ना बाल
 ज्योति ष
पा ई
च ंद्र
 ग ार
 च पेट
 स्प ोर्ट
 ख िता
वि दा
 न यी
र् वाद
 श्री राम
 श्रे य
 रा वत
ें च
स् त्रों
 क ना
 आ रा
कार ियों
 मूल ्या
 हाल ाँ
 ग ्ल
 सी नियर
 पार्ट नर
 स् ने
 सप ने
 मान नीय
 प्र चलित
 बाद ल
 ल ंदन
 लापर वाही
द्व ार
 ए के
 अति थि
 स्टूड ेंट्स
 हालाँ कि
वान ्
क ला
 व ाइ
 दवा ओं
 शु क्ला
आर पी
 ग ढ़
ता यात
ॉ ग
 ज मी
 हाथ ी
 त्यो हार
i b
 विनो द
श नी
्य ौ
ि णी
 विद्यार्थ ी
 ले वल
re aking
 कोत वाली
 सम्ब न्धी
 अ हि
 पोस्ट र
 न ृत्य
as h
दे वी
 अध िसू
व ियत
 ज ौ
 ना क
 चौ की
 बा ई
 कैम रे
 य ौन
 G et
 मिस ाइल
 ड्राइ वर
ी ट्यू
 न ारी
 अधिकार ों
 मंत्र ियों
या म
 द ाल
4 1
 दिव ्या
 ग त
 खास कर
 डि ज़
 प्ला स्टिक
 परिणाम स्वरूप
 पै रों
र्व ेद
 जर िये
ब ीन
 अव तार
श ंकर
न हीं
 गु ट
 p r
द िल्ली
 संस दीय
 साम ूहिक
 व्य स्त
5 6
 शे र
 कने क्शन
 सब ्स
 स्ट ी
 शिव राज
 गो वा
ल ोग
 वै दिक
 मिल ना
 न ायक
 से न
 क् लीन
ब ली
 क च
 कप्ता नी
न् नी
 आ चार
 पड़ ोसी
 ए टी
) :
न्द े
 आश्व ासन
 खेल ते
 चढ़ ा
 का लेज
 s p
 ख र
चार िक
 l ive
l i
 ग ्व
 भावना ओं
 ब ख
 च ूंकि
 तला क
 खु राक
 एज ेंस
म ीन
 ड िली
ul t
 हथियार ों
ु द्ध
 आंक ड़ा
 प ंत
 पौ धे
 स्प िन
 बैठ कर
 म द्
 त न
 गिर ने
घ ात
 स् पी
 हुई ं
4 3
द त्त
 श नि
 बा य
 सं वेदन
२ ५
ट्ट ा
ध ों
े क्टर
गण ना
 सम्मिल ित
 पुष् प
 टा टा
 तुम ने
ां तों
वं श
 या तायात
 कु श
 चे तना
 र थ
 ब ्यू
ब ता
 संस्था ओं
it ics
 केंद्र ों
 जाये गी
 संसा धन
- ख
िप ्र
 वेस्ट इंडीज
ो त्तर
 म थ
 अन न्त
 ल घु
 निर्देश क
 वार्ष िक
 इंजीनियर िंग
ल ु
 जाए ंगी
 ड ु
 ता लि
 ग हरी
 फायदे मंद
 न ाना
स ैन
 श ून्य
 ब ला
ए व
ला इट
 सर् जरी
 कंग ना
 नी र
प्री त
 सर्टिफ ाइड
 मल िक
 दुर् गा
 निर् द
 फ्र ंट
 सं हिता
 आतंक वादी
फ् फर
िक ार
वि ंग
 अ रुण
e ar
ic al
as e
 नाबाल िग
ंपर िक
an k
ल् ले
 श री
 पहुंच कर
 झ टका
 ऊंच ाई
ट के
ड ू
 प्र याग
 मु ँह
िव ी
न िस
 स्थान ांतर
ल पुर
 दस्तावे ज
ष् कार
ग ित
 काम ना
 पा उ
 डिप ्टी
 संत ुल
 अन्य था
er e
an s
 ब िन
 प ाय
 शि ष्य
 यू ट्यूब
्रम ण
 ब चे
 स्ट ैंड
 भू ख
३ ०
 मो ड़
 मै सेज
 साझे दारी
के ज
 मो र
 स्की म
u al
 बे स
 नेहर ू
 र च
 निल ंब
द् दा
 ग ंग
 भाग ों
 डे स्क
 आशी र्वाद
 जाय ेंगे
्त र
 पू जन
क श
 ध वन
 पा कर
 पह ना
 व ां
 एक दम
 आ न्द
ोज क
 अल र्ट
 किंग ्स
ड् डी
ड कर
 आज म
 प वार
 स्ना तक
 परि चित
 ख्या ल
 आंक ड़े
 पीछ ा
 व सू
क ई
कि स्तान
 वाण िज्य
 बदमाश ों
 आरोप ों
 फ ूड
 स् त्र
 को र्स
 मेह मान
 पै न
 प ेंट
आ उट
 छापे मारी
er m
 स्ट ोरी
- इ
 सा हि
 सू चित
 स्व प्
 कोच िंग
 जलवा यु
 न गरी
 घ ात
 अपराध ियों
द ायक
मु ना
  ال
a w
्र ल
 पद ्म
 देश भर
 ता लाब
 इलेक्ट्र ॉन
 प्रारंभ िक
ल् फ
या ल
 b reaking
ले श
 शक्ति शाली
 क्यो कि
r u
 फ ु
जा ने
 करोड़ ों
 स न्त
 पक्ष ों
 मनोर ंजन
या य
ले शन
e e
उंड र
 स सुर
 भ ेंट
ित ि
र् में
 मिल ेंगे
 ब लि
 बर सा
 इ ज
 ज़र ूरत
 सं देह
मा या
के दार
is c
 आ धे
 फ्र ां
म िली
प ता
 व्य य
5 2
 प्रतिष्ठ ा
प ंथ
 आजा द
स्ट ेंट
२ ६
पा ठी
 डा क्टर
 गुस् सा
 देख िए
 ड िट
च ाल
 W orld
 सराह ना
 रो का
 दर्शा ता
 बे रोज
 रा इ
 जा ँच
 बें गल
 आम ंत्रित
 अनुसू चित
 त ेंद
 डे ब्यू
 दे री
िव ृ
 ल ैंड
 ह रे
 न शे
 गंभीर ता
 मस् ति
ड़ की
 पी ढ़ी
 फिट नेस
 ठ ोस
 उन्न ति
 ग ाज
ap p
 चर म
 सो निया
h at
 सीसी टीवी
कल न
 सौं पा
1 20
एन एस
 ड्र ग
 स्वीक ृति
न्द न
 जा प
5 1
यं ती
स्प र्
 विक ्रम
 युव कों
 हाद सा
 ए सिड
ou s
ंप ल
 पह ने
d it
 निम ित्त
 बै ग
 साथ ियों
 कु मारी
 मद् देन
 फै क्ट
 लाइ ट
बा ज
 पहा ड़ी
 गोरख पुर
 प्रोफेशन ल
 पार ंपरिक
 ग ड़
कर ार
 फी चर
 s ports
 बा ंट
 डिज़ ाइन
म् मा
 भोज पुरी
 डाल ें
 सं भ
 शुरूआ त
क न
ic k
 मूल्या ंकन
 ज ज
 थो ड़े
 सब् ज
 आध्यात्म िक
न्द ु
 प्रो टीन
 रा शन
स्व ती
स नीय
 शु क्ल
 इंस्ट ीट्यू
 खेल ों
ती न
 मना ने
 करें गी
ां च
 ई मेल
 आम िर
मो हन
 मह ेंद्र
 सी ईओ
 फ ीड
 अ शु
 नि धि
 ह ज़ार
 ई डी
 ख़ ु
 को ड
 बो ध
धान िक
 आप से
 वा णी
। '
 प्रोफ ाइल
 बन ना
 ध ाम
 स द्
 बहा दुर
 पक ड़ने
 आकर्ष क
 स ना
 भागी दारी
ान ्य
 खिता ब
्य ोर
 दुश्म न
 क्रे डिट
 विन य
ानु सार
 से क्स
सं घ
 सि ख
 सो वियत
 चु ने
वर् धन
ार ू
 लं बा
 ब्यू रो
डि ़
ंच ाई
 पै दल
 ना ट
त् स
 बस पा
दा ई
िस िन
 परिव र्त
ै त
 मो ड
 ब ेश
 करा ए
av e
 इं स्प
5 8
 सु ग
 पु स्त
 दुकान ों
 समझ ता
 मि र्च
व िन
ोग ा
 च ो
 द ंड
 प ोष
 संप न्न
 मध ुर
 चिकित्स क
 म ्यूज
 बहु मत
 अ रु
  or
 भू कंप
 प्रका शन
 चुन ौ
g e
 ट्र ैक
चु नाव
 मस्ति ष्क
ार्थ ियों
 ब ड़
ड िशा
 श्री वास्तव
ंध न
 प्र खंड
 अना ज
 न ाइट
 सम ग्र
 टी में
 ही रो
 बी स
का ंग
 वी ं
२ ४
 रण बीर
रे ली
 v s
भव ती
 प्र था
प ार
 हंग ामा
र् घ
 ज यंती
 समस्या एं
 कान ूनों
 पूछ े
 श रद
रा ई
 मी टिंग
 प ॉल
नै तिक
 टुक ड़े
 इव ेंट
िवार िक
 कम ाल
 स्क ू
घा ट
 मैनेज मेंट
भ ास
ग्रह ण
द ून
ला श
 दिख े
 रा धा
 फ ेल
 a b
5 7
 समूह ों
त या
 रुप या
ar i
 अ सा
 रजिस्ट ्रेशन
मा इ
र िस
' t
 समु द्री
 pol itics
 जू झ
 जीत कर
 बी त
ब ्स
ट्र िक
ध ना
 पूर् ति
 निर्देश ित
ध ाम
 सुविधा एं
श ियों
 गु म
 निर्देश न
 परि जन
 वा द
 तरी कों
 ल ायक
 परिस्थित ि
 आ ल
 अपरा धी
 कि ल
 पहुंचा या
क् ख
 सब् जी
 श्री मती
 ध्व नि
 र ेंज
 वि हार
 जुर्म ाना
ि थ
द मी
ब र्ग
 का य
 राय पुर
 रिश् ता
 हम े
 ह ॉल
िट ्
 का बू
 ग िन
सी आर
ज़ न
 इ क
 ज न्
रा त्रि
 क्व ार
 सर दार
 ड ाली
 ट्रे लर
शु ल्क
काम ना
 सो नी
प् प
 रेड ियो
 मनो हर
 भ िक्ष
 करने वाले
वा हा
 आतंक ियों
फ ाइन
ऊ दी
 घ न
ति न
 जान वरों
 अत्य ंत
 म य
 एंड ्र
 पर्स नल
ार् स
 वैज्ञान िकों
श िव
 क ंध
 आखिर कार
 गठ ित
 आ यर
 कंप नियां
 स ृ
ल ित
 ए थ
सी म
 पक ड़े
 मनु ष्यों
ल ै
 मेक अप
 आ र्
 आई ं
का ंक
 अनु राग
 - 

 M iss
ग ्रे
 बता ए
 मे ले
पे क्ष
ड ोर
 कार्य रत
ड म
 ट्रै फिक
म ूर्ति
 लै स
च्च ी
मा ही
 भ ला
 झ ेल
 स्प र्श
न ार
िप ्ट
 उत नी
्व ान
 ट्र ंप
 दिना ंक
 पार िवारिक
च ुर
 द त्त
 बढ़ त
 जागरूक ता
 त्रि पाठी
- पा
 साइ ड
an ce
ंग न
 पा क
 हे यर
 स्थ लों
 दर् जन
 भा ँति
हरा दून
 पल ट
e ch
 ला ई
 स्वीक ृत
 माध्यम िक
 साह स
प् पा
 ह ाइड
 चेयर मैन
 ल ाह
न् ड
 द ुर
 सूच कांक
 सो ल
 चि न्ह
 गो प
 सि म
ाल ियर
 घ ाय
 शौ च
 । '
 a g
ह ू
 रजिस्ट र्ड
 श ृ
 महो त्सव
 ल ू
 सं योग
 च ंडीगढ़
 चले गा
 बाद शाह
 दिव ्य
 ट ॉ
 दुष् कर्म
 ली ला
 की जिए
ां जलि
स्ट ल
 परि ण
पाल िका
मैं ने
  an
न स
S C
ं बा
 ता ज
 स् तरी
 आन्द ोलन
 हड़ ताल
u e
बह ुत
 र वी
 सर्वे क्षण
p r
त्त ों
म्ब ई
 विना श
 मेर ठ
 उ दार
 सं दीप
 व रुण
 डाल े
 निष् कर्ष
 फायर िंग
 सि खा
ड्ड े
 रो टी
 एफ आईआर
ट र्स
 का टने
 O n
 व य
 पां ड
 प्रस्ताव ित
भा ई
 सप् लाई
 इंस्टीट्यू ट
ल ियों
 ) ,
 स्वच्छ ता
 हो श
 पार्ट ियों
 तालि बान
ल भ
ि स्तान
ोज ़
 कै द
 बिग ड़
 स टी
 सत र्क
 छ िप
 ग ज
ट्ट र
 A g
 फ ांसी
लि टी
 सा वधान
बी एस
 द ीन
् ती
- सं
 का ग
 रिक ्त
हार िक
 हस्त क्षेप
 अक्ष र
u ch
 र िव
 लक्ष ्मण
्यु नि
 बिंद ु
 संवाद दाता
 र ूट
 प ्याज
 लॉ स
6 7
 प्र ोट
 दु बे
 ज्ञ ापन
 लक्ष ित
A N
ट िक
 ब ोर
 लिख ते
I I
वि शेष
 मद्देन जर
 अभिव्य क्ति
 गर् भवती
 प्रा णी
ंग ाना
रे टर
 U n
in ess
 प ित
 हॉ ट
ाइ क
ं सी
 सु भाष
en s
िप ुर
ड नी
 कला कारों
 मि ठ
 यून ियन
el l
 कि स्म
 प्र ांत
por t
ब स
 मह ेश
्ल ोक
 ऋ तु
 अजी ब
 जान ें
19 3
ध व
 न ग
 साइ किल
 स त्
 स्थ गित
ब ड़
ना मा
ों का
 राज नैतिक
 वे रिएंट
 सै म
 भे जी
 उपलब् धि
 कर ाना
 स र्च
 निक ली
 र घु
शिंग टन
 च क
 फ स
 पु णे
 ई साई
 कना डा
 व्याव साय
च ्य
 अर्था त
 हिंद ुस्तान
 स्तरी य
ूँ गा
सीसी आई
 मुआ व
 अग ्न
 हैं ड
 बैठ ी
 दरवा जे
 पा ती
 ढ ेर
 क्र िस
  it
 माइ क्रो
 ओल ंपिक
 ढूं ढ
 कॉन् फ्रेंस
 जर्म न
 पर्य टकों
 अन् तिम
  Z
 म ाला
 निभा ई
 साम ु
 अंध े
 भी षण
 राज कीय
 मैने जर
 छुट कारा
 घूम ने
ंद ्रा
 चि ह्न
ाल ों
 श िल
 ड ू
 पा ण्ड
 व् ही
 अ ंस
स् पी
 भी म
िव ेदी
 सं पूर्ण
 समन्व य
ol ly
न् ति
 ओ डिशा
 अ रे
6 8
ब िन
 श र्
 सुर्ख ियों
 पाउ डर
6 4
 साइ बर
 मेड िसिन
 इकट् ठा
 आई टी
 देव ताओं
फार ्म
 ग ाइड
 ब ुर
 समृ द्ध
 माँ ग
 सम्प न्न
 मा फी
 रोज ़
 स्पोर्ट ्स
 एक्सप र्ट
 टै ंक
 अ द्व
 स् त्रियों
w ood
 पहा ड़
 इन को
 शुभ कामना
 सर्व था
 ई ंधन
ि डी
c om
 बन ती
 मु है
प ुट
इ सी
 पै केज
 इला हाबाद
 फ्ल ोर
e al
 सश स्त्र
 ट्र स्ट
 क ड़ा
 रो शनी
ंड ों
t t
का व्य
 डे विड
 पांडे य
 शिक्ष ण
 फ र्म
 अमरी का
 अल्प संख्य
 साक्षा त्कार
 सब ूत
ल खनऊ
न व
p ur
ुत ्व
7 2
 रा वण
 नि देश
 स्व य
 जता या
 साहि ब
आई पी
 व्यापार ियों
झ ी
 गु र्
हि ं
 ऐ श्व
क्राम क
 पंजी करण
 विचार धारा
 फी चर्स
 प्र बन्ध
 उपभो क्ता
 ल िंग
 बा ज
 फी ट
 तथा पि
िल् ला
 ब घ
 च ट
 छ ेड़
  i
म क
un d
 मे जब
डी पी
 घाय लों
 वि द्रोह
द नी
 नौ सेना
म् बे
 n ot
 स ऊदी
 डे वल
 रोग ों
 साह ू
 करी बी
 ह ान
 मार कर
 शो भा
im e
िप ल
रे पी
 अव ार्ड
 गेह ूं
 स र्क
ोग ी
ation al
 स िस
न ्यू
 स्वप् न
ाय ती
 पर े
 मुहै या
 प्रोत्सा हित
 उठा कर
 अहम दाबाद
 बो ल्ड
प्रधान मंत्री
 कने क्ट
 चौ रा
 हल् के
 सर स्वती
  are
 मुख िया
िश ियल
 लेख न
 श ू
 अ फ़
 स्टार ्ट
काल िक
का ंड
 ते रे
 बृह स्पति
 रे प
olly wood
वे स्ट
5 9
-अप ने
ूर् त
स् सी
er v
en ce
च ाप
 सब का
 प्रतिनिध ियों
 समर्थ क
 मह ल
 प्रोड क्ट
२ ३
 हल् की
र ेशन
ज त
 आँ खों
or m
 आद त
- पी
 आप ात
 फ िज
 कार्य कारी
 उस मे
ं जर
 शि वा
ार् शन
 टेक्न ोलॉजी
 पाल िका
 आकर्ष ण
 दिख ने
a il
 सलाह कार
 प्रमाण ित
 फ ंस
मे रे
p s
 सॉ फ्ट
 द ण्ड
ब ड़ी
ाप ुर
 अव गत
 फ ुल
 मर म्मत
-प ास
us iness
ing h
 घ ेर
 ध र्मा
 अधिसू चना
 इच्छ ुक
 आर्ट िकल
क् व
as s
 ज ियो
 कम िश्
णी य
 प ंक
 चिन् ता
 सश क्त
 मथ ुरा
ख ु
 प ान
 जी वा
 प ाना
 रोग ियों
 ग ायक
कार ्य
िटी ज
ग मन
 भ ंग
ल् हा
 नि पट
 अत एव
स्थित ि
ac k
 ह वाले
 लड़ का
सू त्र
 श ेट
 चैंपियन शिप
B I
 प्रति स्पर्
ट ित
 प्रि ंस
 हैं डल
 टे क
 प्रति बद्ध
 C om
 मुज फ्फर
रा धिक
 आह ्वान
 ज ुल
बा ग
 इ ंद्र
वाद ियों
म् बा
 छ ीन
 व ंचित
 निक ाली
 नी तियों
 कै सी
 व ान
ट िया
 प्र ैक्ट
 से व
ड़ का
शे खर
 उ छ
 मे ला
 कम ान
 सम्रा ट
 पार्ष द
ध ्व
 प्र ान्त
 पौ धों
 क बीर
 प ॉप
ै ं
 मॉ ड
एम एक्स
s h
 ह ेल
 धर ना
 व ाम
 राज मार्ग
 प्रीम ियर
दा द
क ्यों
 ट्रॉ फी
की पर
 आ चरण
 एग् जाम
 महान ्
 बढ़ा कर
 कृ ष्णा
 हिन्द ुस्तान
 स् पीड
 कि शन
 विभा जन
 जिला धिकारी
 इमार त
 सी रिया
 दे नी
 प्रश ांत
च ौ
 ल ड
 जान िए
 ए जु
5 3
क्षण िक
 साइ ंस
 ब िर
एस आई
 च िर
-ब ड़े
 रण वीर
 हरा या
 वर्ग ों
 स्व ाम
0 1
 E n
ज ुट
 लौ टने
 अ ंदा
 गण ित
व िर
निर् माण
 काम का
 प्र दीप
6 6
 व्यावसाय िक
वै ज्ञान
 क च्चे
 प्र युक्त
 th is
ब ुल
 हिम ालय
 कर्म ों
 झ ील
 पै ट
 उ भर
िव ि
 सि ंचाई
प रा
 दो स्ती
 कम र
 प ढ
 हे ली
ित ु
 अ मीर
 भक्त ों
 ह िल
फ्र ेंड
 अर् पित
 तेल ंगाना
 द ार्शन
it ies
िव ेश
 अर्ध शत
 कर वाई
 चे तन
 घ ी
 हार ्ट
 सं जीव
 रो शन
 खरी दा
 सवाल ों
 चौ था
G B
 सदस्य ता
 शे ख
र् चे
 आस मान
ना ल
 राम ायण
प ह
 औ प
 जान कर
 क न
 दुर् भाग्य
दु निया
ु ख
म री
 करी ना
 ज़ ि
 बन ते
r am
 काम ों
 कु त्ते
 फ ि
 बो झ
 जीव ों
 उ दा
 जा वे
 बैठ ने
२० ०
र् भ
 स्ट ॉक
C C
5 4
 एजेंस ियों
 ह िर
 C r
 स घ
 मानस ून
च ार्ज
 जागर ण
 अ ड
 हर कत
 कॉ लोनी
 नि र्व
 मुला यम
 दाय ित्व
 दी र्घ
तु ष्ट
व ्यों
 स् मार
 बे ड
 खो ला
ध नों
या त्रा
 क्व ाल
 पदा धिकारियों
 से ठ
टे स्ट
 उच्च तम
 पॉ लि
 गति विधि
 ध ्रु
 घ ुट
ाम े
 मह ानि
 P ro
 श ्लोक
ाम ें
म ण
ो ली
 सू जन
ल् लू
 क स्
 आंध ्र
त्व ा
ोट ा
 ल ाना
 जो ड़े
प ने
 ब ाला
 पेश कश
 व स्तुत
 निरा शा
पी ड़
an a
 झ लक
 कै लाश
 र ौ
 बाह ्य
पा ही
 क क्ष
 छ ान
िस ोड
ंब ुल
ब्र ह
 सेंट ्रल
 सह मत
 बै ल
नि ष
ना श
e y
 लगा एं
ब् बत
प ्ट
 राज न
 जी एसटी
 ध ीर
 च ित
द्व ारा
 घ टा
 समर्थ कों
 एक जुट
 प्र को
 श ोषण
 उर् दू
 M o
 मल ्टी
el hi
 गुर ू
 इंस्प ेक्टर
 y ou
 अफसर ों
6 00
एनयू एमएक्स
 फै मिली
 छो ड़ा
 माम ूली
त्प र्य
 ब ृ
 हु सैन
 व्याव हारिक
स ूर
 उपाय ों
 उठ े
 लिख कर
 A r
 E x
 मास िक
 पहन ने
क िक
ज् जा
 नजदी क
मो ह
 मजा क
 क दा
  @
ण ियों
 शास क
 आश्र य
le ction
 सच्चा ई
ंग िक
 शेट ्टी
- ह
 न मा
 तो ड़ने
 एक ड़
 एप िसोड
 ध ूल
 A l
 कुल दीप
 सौ ंद
य िक
 कृ ति
 अप हरण
 क्र ांति
 छ क्के
 हि म्मत
२ २
ान ्ति
 क ्रीम
मार े
 गरीब ों
 भारतीय ों
 दु ब
व र्ड
मे न
 नि ज
ो श
7 8
 अहि ंसा
 श त
 उपाय ुक्त
 ल िव
 च र्च
मा द
अ न
 मह ार
 गहरा ई
 चौ थी
 उ ग्र
 स ्या
 आप राधिक
 अग ु
 व्य र्थ
र िय
 सद ैव
 वसू ली
 म जे
 ट्रे नों
 आ लू
 आई सीसी
 A d
 ग्व ालियर
 एक ल
 सोच ने
 सिया सी
धार णा
 प्रस ंग
 जि ंदा
 बर करार
ै स
 ना व
 विक ार
 सम् प्रदाय
 आप सी
u k
 उप चुनाव
 टे बल
 पर् दे
 ख ाल
 जोर दार
ै ली
 स ूरत
अ नु
र् जन
रो क्त
 कै श
 मेह ता
 महा भारत
 बस ों
 ग्लो बल
ै श
क्ष िक
 दु ल्
 Re ad
 नती जे
 य मुना
प ेश
गे ट
ना ई
ब री
 मु ठ
A R
 न्याय िक
री बी
 अनु भ
 सर् दी
 क्र ू
 श ान्त
I D
 संय ंत्र
- मु
द श
 ख नन
 सह न
 ब ारा
 प्रसार ण
ंब ू
y le
न्द र्य
 डा क
 चल कर
 अंक ित
 बी ए
 इन से
 सीर ियल
 गो ला
 मत दाता
 विभा जित
ल् तान
us t
 अनु बंध
 सि पाही
ov ern
 शक्त ियों
 उप र
वा ड़ी
 K han
 जून ियर
मे ज
 प्रोत्सा हन
 नि वार
 कर ूंगा
ती क
च् चार
 मान वीय
 कम्प नी
से ट
दर् शी
ब् ब
वा इ
 व्या स
र्य ुक्त
8 5
 उद्ध व
ष् का
 अमेरिक न
द ूरी
 उठ ता
 अ रो
ंट िक
 तू फान
टे क
 डि फ
 पर्या य
 सि द्धि
 the y
 दा दा
 त ौ
 महा विद्यालय
प्र थम
 उपास ना
 व हा
 श्रद्ध ांजलि
म ानी
 सं ल
 ज ेट
 गार ंटी
 वि र
र् टी
 नर ेश
or d
 अनु च्छेद
 गो यल
 घ ोर
 रॉय ल
स वाल
 श र
प् पी
 पड़ ते
 र क्
 सुन ते
 चां दी
 ट ोक
-द ो
 तल वार
व र्ण
 शु भार
 सम्प त्ति
 स नी
 र िए
 स्ने ह
 दिस म्बर
ों क
 प्रति रोध
म िन
 आ स्था
 व क़
 मे यर
 उ र्व
 इट ली
 जु टी
 घटना स्थल
त ृ
आई सी
 द फ्त
 आशी ष
 ड ाइ
 ठ ंडा
 सी न
 दर बार
 एक्ट िंग
 सिद्ध ू
 जिन से
स िस
 बू थ
डे न
ों ग
 बा घ
 इंद िरा
 फ र्क
 भ ाइयों
 अंस ारी
 ली जिए
त् थ
 द ाह
 S ingh
 ऊ परी
 एसडी एम
 मजबू ती
 निर्धार ण
 न िया
 कॉ मे
द री
a z
 फूल ों
 ऋष भ
् ली
  al
 e x
 फे स
 ठ हर
जा बी
 निवेश कों
 गेंदबा जों
 अस ाम
 रस ोई
 स् क्र
 घ ास
 कहला ता
के ल
 त व
 ला श
 R es
 आयु र्वेद
 दरवा जा
जा गर
 फै न
 वा ई
भ ेड़
 ने त्र
 म कर
 प्ल स
 बच त
 न हर
 म न्
 मु ना
 फ्र ेंच
 शि ंदे
 कार ों
फे क्ट
 पॉलि सी
 रा खी
 अ तिक
 ऑ प्शन
 मुख र्जी
प ं
 उन्न त
 द ही
 प ंप
 कव ियों
A T
 विद्व ानों
 बु खार
 नि वासियों
 पंक ज
r it
५ ०
व ने
मा टर
 दाय रे
 दे हरादून
 प्र बल
 उन्ह े
 पशु ओं
ना धिकार
 तृ तीय
 आ लम
म पुर
 डिली वरी
 ab out
 सा ड़ी
 उ भ
म ंड
कि ट
 दर् जा
 स्थानांतर ित
 कमा ंड
rad esh
 हित ों
 काउंस िल
9 5
 निलंब ित
 सुपर स्टार
ने शन
 सीख ने
 मात ृ
 जा तियों
 गर् ल
 वि फल
 फं से
 पहल वान
 ट्र ेंड
7 7
 फ ोर
  •
 अ टल
 कह ें
 आई ए
 ट्रै क्टर
 पु त्री
6 2
 प्रयाग राज
 क्ष मा
 पाइ प
ु ली
वे ज
 बि हारी
 स्व ार्थ
 बल्लेबा जों
 चौ के
 ड्र ोन
व हीं
 सी धी
 ए डी
 लं बाई
 ता त्पर्य
फ ाई
 टाइ गर
फाइन ल
 ट्र ां
 बंद र
 व श
 ह सन
 कार ा
 घोट ाले
िफ िकेशन
कां क्षा
नि ज
a ce
को ई
 बी सीसीआई
 क्र ाइम
जु ए
 ति माही
 पठ ान
- सु
 पेशे वर
 आ वेद
 गि री
 न दियों
 अव काश
यान क
J P
वै धानिक
। '

 ली क
 महा सागर
 प्रश ंस
 जाए ँ
ध क
 ट्रांस फर
e x
वि ष
 इ र
फ िट
 कमिश् नर
च न्द
भ द्र
ो ऽ
स ें
 सह कारी
 किल ोग्राम
झ ाने
रा ं
 अम ल
 बला त्कार
 पा पा
 राज ू
 घ ड़ी
 मि ड
 वृ द्ध
 आ इस
म र्श
 फो र्स
 चतु र्थ
 शै क्षणिक
 त ारा
 फ ोक
I ST
गी र
 ढां चे
 शिश ु
i z
 संचाल क
 अं कों
ं ठ
डे जा
 कप ड़ों
 वक़ ्त
 जो ध
 अव ॉर्ड
ण ों
ब ास
 सा क्षी
or k
ार स
 स्थित ियों
 नम ू
 ऑ र्डर
 आग मन
ook ies
 अश्व िन
 डिस् प्ले
 सौंद र्य
 निच ले
 कि ले
 सं यम
 डेवल प
 उत रे
 सामु दायिक
 परि भाषा
 द िली
हा द
ढ े
म ्र
 ड बल
ब ैक
 भू षण
चु अल
 फस लों
 चा कू
 पश्चा त
 अत्या चार
 जान वर
व िल
 बह ाल
स्टे बल
देश ी
 अनु पात
 मौ र्य
19 2
तन ्य
ब िया
 मंदिर ों
क्ष त्र
 कमी शन
 बघ ेल
ig ht
 विद्व ान
 जान कार
 ला ए
 वै ष्ण
 अर् जित
 Re g
न्दे ह
 च ैल
पी ठ
थ ल
 घटना एं
 अव धारणा
ति र
 हो य
 ग म्
 उम ेश
ग ारी
 मूल ्यों
 श्रद्धाल ुओं
 बॉ र्डर
 मौजूद गी
आप को
 सोन ू
ण्ड ित
 सप ्त
  at
 अ सि
् की
 आ धी
 नि ंदा
ग या
 उपा धि
 मै थ
 मंत्र िमंडल
ान्त र
द शी
 ह वाला
 कम ्युनि
ले न
 अ मी
 एक्सप ोर्ट
वैज्ञान िक
 तृ ण
 से लि
 वर्ण ित
 म र्या
 अ ड्डे
 राज ेंद्र
 कारो बारी
 उत् ते
 रा उ
 मत दाताओं
 न ंद
ॉप ्टर
ला ंग
 ट माटर
फ ्ल
 कै ल
छा ड़
 त्र िप
 उपा ध्याय
 जॉ र्ज
 प्र वासी
 संसा धनों
 मांग ा
क्ष िप्त
 श्र ो
 मा फिया
 व्हा इट
 ज र्
प ुल
 चोर ों
 अन ंत
 आर्य न
दे ख
द ह
शा ही
ष ी
 स तीश
 सक ल
घ रों
 पि च
 कॉ पी
 पर ाज
ै म
 पत्र िका
 संवेदन शील
वा हित
 पूर् वा
 अक बर
- बा
 ट ेल
पी एस
 के यर
 बाजार ों
 निरा श
 स्प ेन
 श ाल
द िव
D on
 श्रम िकों
 उपभो क्ताओं
 मै क्स
 फे र
 भ यानक
ड़ प
 सा धा
 पूर्व क
 पा गल
 म्यूज िक
नी श
 नाम ों
पि छ
 फ्ल ैट
 पढ़ े
 निर न्तर
 ज डेजा
सी ना
 पोष क
्त ों
 साहित्य िक
दू त
 विवे चन
 नती जा
 ए ंटर
 खे तों
ला व
 मौल िक
 मह ि
 बा प
ब् ध
b er
ड़ ियां
 भ गत
ौ त
वि जन
 स ार्थ
 अभ य
 ट्रे ड
 मार्ग दर्शन
२ ७
 डाल ते
ी दा
 ढ ाई
 नि षे
 राज द
 मुठ भेड़
 रा उंड
 अभि भाव
 लड़ कों
न् ने
 शी त
 फी ल्ड
 ग्रा उंड
 सें सर
 ह ौ
 हल् का
 आतंकवाद ियों
 अभ्यर्थ ियों
भ क्ति
overn ment
  ;
ic h
ु म
आर सी
 र ियल
श िक
 सम्बन्ध ित
 दु खी
 अनुभ वी
 प्र ॉ
 आ वि
 ट ूर
 बढ़ िया
प िंग
 विरा सत
 नाराज गी
 जवा हर
 सौ न्दर्य
नि ष्ठ
 बेंगल ुरु
-प ु
 चौ ंका
ज ेशन
ग ुप्त
 मांग ों
 पह िले
मह ारा
 गवर् नर
 दर्श क
 उद्योग ों
 रिल ेशन
 चि ंत
 वित रित
आ म
रा शि
 कुर् सी
  و
 न ाल
 च ाइ
 जोध पुर
 g et
ला द
 M in
 अ ज्ञान
गा ई
 आ र्मी
िए ट
 गु लाब
 ढ ा
 र ेज
 लड़क ियां
 M ar
 भग व
 न ान
 अ नाव
 आ लोक
 टाइ म्स
A S
 उप ज
 ड ोज
 प श
 घ ृ
 ब्र ज
 पर िस
 का गज
 स् तन
ध ू
ं किंग
िया बाद
 आ ला
ड ेंट
 मो ती
 ब्ल ू
 मान कर
 पी ड़ा
 बना ती
 जू ते
 आवा ज़
 ए सी
चा ई
 कमा ंडर
 ज श्न
- ल
 को ने
 विशेष ताओं
्त ार
 भाग ने
ेश र
en g
 वे ल
 परिश ्रम
 कू द
 इका इयों
श्च िम
 रोमा ंच
 आ भार
 पै नल
 विविध ता
 वै ध
ॉज िस्ट
स नी
 रिक ार्ड
 ? "

 दुर् लभ
 को ष
 म कस
ो भ
ब् बे
 एम पी
 l if
 गुल ाम
 नि हित
6 9
 अ ंडे
ुल कर
 इ ले
i i
ac y
साइ किल
 सु शील
 इंत जाम
क थ
 ग रीबी
 प्रबंध क
 ट ाल
व ्
 सै फ
la im
 अफ वाह
 मण िपुर
 हॉ लीवुड
 शा ही
P h
 स ज
 ओ टी
 ना बाद
ह िया
२ १
 पसंद ीदा
 शह द
 बह ू
 ना ज
 पं जाबी
 तैयार ियों
 रूप ों
 सिलस िले
 मकस द
 सिल ेंडर
 h app
 र ंजन
वि न्द
न्ह े
 बेश क
 फुट बॉल
 एस एसपी
 सिलस िला
 ब स्ती
च ेंज
 दार्शन िक
ह मारे
 बर त
 भ्रम ण
 इजा जत
 सं तान
ंग त
 कैप ्टन
W E
ग ृह
 फ ट
 सौ भाग्य
 वि स
 य ौ
उंड ेशन
 ग हरे
 उठा ते
 सोच ते
 जा दू
 पड़ ोस
 कले क्शन
 शुभकामना एं
 अ तीत
 रचना त्मक
 गम् भीर
 फ्ला इट
 गिर ोह
भा जपा
२ ८
 से वान
ु री
 फ ाइल
 दिली प
 मुह म्मद
 उठ ाना
 एस टी
 मू वी
मु च
ां तिक
 प्रभाव शाली
 पक्ष ी
 व ेश
 फ ू
 जान ती
6 3
 चक्र वर्ती
 ले नी
 अब् दुल
 क न्
 चे ष्टा
 अधिव क्ता
ोर ेशन
 अका दमी
 एज ेंट
0 5
 जै क
 ल लित
 आर ती
ाय ंस
E T
 जन स
 व ्र
न्द गी
 चल ना
 परिणाम ों
 कु ंड
 निरी क्षक
च ारा
 ई द
प ना
ट्ट े
 रंग ों
म ्य
 भ ांति
तु म्ह
 ग हन
 j o
 श ॉट
 इजा फा
शि ष्ट
 ट ॉस
 मानव ता
 दी क्षित
 दिव ाली
 बह ि
 प्र कृत
 रो म
ई डी
श्य प
 महा देव
 दश कों
8 00
 प्री ति
 घात क
 उप हार
जे क्शन
 स च्चे
 श ॉप
य ून
 कोय ला
 अस फल
 ले टेस्ट
ख ्त
 सम ापन
ir it
 पी स
 गृह स्थ
 ग ला
 अर्धशत क
श र
 बि स्तर
 हम लों
 छ न्द
ण िक
 वृ त्ति
 कप ल
 चला ई
साइ टी
 असं भव
 सेक ेंड
 फ़ र
 सेमी फाइनल
ब ाह
 सा फ़
 सित म्बर
 कर्म ी
 कु ंभ
 बंध न
क तों
रा ंत
 बता ना
 फ ते
 ई रानी
0 9
 सल ामी
 पिट ाई
 ग ली
न् ग
 गा ड़ियों
 ससुर ाल
 को टा
 ला कर
N D
 प्रती क्षा
 शे ड
 अतिक ्रमण
 पी टीआई
क ने
 खा ड़ी
 जौ हर
 किरा ए
 शुभार ंभ
बि हार
 सी तार
 द ां
 क न्न
ास पुर
 सांस दों
or y
छ ित
 बु किंग
 कठिना ई
e g
साय निक
जी पी
 द क्ष
भ ्य
ल त
 साध क
 नीर ज
 सेक ंड
  ...
I C
ed ia
 लौ टे
 स क्
त् नी
 चल ो
 मान द
 इस पर
पे यी
 पुलिस कर्मियों
 A ss
 चुनौ तियों
यू वी
बू झ
 म दन
 ला पता
र क्षा
वी ण
0 8
मा व
 पै क
 पुस्तक ालय
 रा ठ
est yle
 ठ िक
 स्म िथ
 ख ाम
 सा स
 उठ ी
 ब र्तन
 विवाद ित
 विक ्र
 विद्यालय ों
स्क री
 मांस पेश
 प ार्थ
नी र
- निर्
 h ave
ती स
 शौच ालय
 गर म
 र ेश
 समा वेश
सी ए
ू र्व
 रा क्ष
 तह रीर
 सटी क
 हाई वे
 दुनिया भर
वा ज
 बिल् डिंग
यु द्ध
 सके गी
p t
ली म
 कॉ म
एम एस
ँ व
 अके ला
 मास ूम
 बैं किंग
ाम ्
 चैल ेंज
 पार् किंग
 माया वती
ig h
 टी चर
is tr
 जु टा
 क ्री
 दिखा ते
  ण
 रिट र्न
 सो साइटी
 बै न
ै र्य
ौ प
 समृ द्धि
on g
 एजु केशन
 मांग े
ो दय
 स त्त
 चि ं
8 8
 खा द
 जा तक
 आ कलन
 म ारी
 महान गर
 न्याय मूर्ति
ज वान
 उ ज
 इंड ियंस
 विश्व सनीय
 भंड ार
कांग ्रेस
स्ट न
 आद र
 लिहा ज
वि च
 निर्म ल
 बर् बाद
ह ेल
 सि ंगल
 दुल् हन
 छ ः
क्रो श
 रूप ए
 से वक
 पृथ क्
 प्रि ंट
 शै क्षिक
 टू ल्स
 आ ंगन
 फोक स
ाम ु
िकार क
र्ष ि
 उप रोक्त
ष्ठ ान
 सह ारे
 ट र्म
 मज दूरी
 मे डल
 ट्र ोल
m an
ना ग
ाइ ंट
 जी ने
 केश व
 ब टन
 गिन ती
िक्स ल
 नागर िकता
 नी ंबू
 लौ टा
 म ले
 बें च
पीड़ न
 मार्केट िंग
 ग्र ो
 happ en
म ौ
v er
ल िन
 पृष्ठ भूमि
o h
िस्ट ्रेट
ै से
 का फ़ी
 कामका ज
ना ल्ड
 शि फ्ट
 फैला ने
वा ँ
 अपना या
पंथ ी
 अनु दान
iv acy
 कल क
ार ाम
 आ टा
ट ू
 पढ़ें ः
 कै च
 जमा ने
 नव म्बर
 छात्रा ओं
 निदेश ालय
 परिवर्त ित
 ब ंट
 पर्य टक
 मि मी
 मोटर साइकिल
 महारा जा
 च र्
प्र ो
 रा इट
th er
 फा उंडेशन
 अं बानी
 बने गा
 स्ट ील
 बुर े
म ध्य
 ख ैर
 म ीन
 अनु चित
 बिल ियन
 एशिया ई
 लो हे
भ ौ
िप्र ाय
 इं टी
् डी
 मार् क
0 7
 स्पी कर
 ज्ञ ानी
च्चार ण
 पु तिन
 क र्ण
 ब सा
 मांग ने
 श ॉर्ट
 आय कर
 गुस् से
रे ख
 चला ते
 दिख ता
्यार ह
 क्षेत्र फल
 विद्व ान्
 न ास
 जर ुर
 भारत वर्ष
छ े
 m uch
िम ्म
 अंग्रे जों
 क् ली
 खो ले
 खरी दी
 वस्तुत ः
 ब र्थ
 कॉ ले
 ग वाह
ता ंत्रिक
 य हा
 इश ारा
 d o
ु श
 उत्सा हित
 s h
 जो कि
 T ra
ू ण
 अ क्त
 ख़ िला
ह ाना
प् पल
 डी ल
 क ट्टर
 तला शी
an c
राष्ट्र पति
 वि द
जै से
 कॉ र्प
 पंच ायतों
 भ जन
 तिल क
ोद िया
 पु री
 अनु ष्का
ोग ु
 झ टके
श ियल
 घो ड़े
iv ers
 तैयार ियां
 ना काम
19 1
 सीमा ओं
isc laim
को ण
 पंजी कृत
 बता ता
ने ता
ली फ
 टै ग
 प्रतिबंध ित
 एम एस
 सिक ्योर
 छुट ्ट
 त स्करी
ग ें
्य े
 श ्वे
क्ष ीय
 फ ेड
 द्व िवेदी
 कै फ
 सा य
 सू ख
 देखें ः
 क ्ले
 परीक्षा ओं
 पा चन
 ल ता
 से ले
वेद ना
isclaim er
S E
 राशि फल
मान ्य
 फ लों
वायर स
 पर त
 स्ट डी
 व्या याम
\ /
 अ श्
os s
 एकत्र ित
 च ूक
 य कीन
u g
ौ ड़
दृ श्य
 श मी
 स्वा दिष्ट
 चाह ें
त्र िम
 सि रे
क िया
 ई सा
 upd ates
ल् ली
तर ह
व ित
 सौं पी
इ या
ा ब
नी ति
 पेय जल
 साल ाना
 सह स
 मु र्
गा व
टी सी
6 1
 असम र्थ
त ुर
 करने के
 स ज्
 ट ोल
7 1
 कार क
 मह िमा
 हिस्से दारी
 दफ्त र
 राजा ओं
 अस ह
7 00
 रा घ
 ह ँस
 चां द
 संशोध ित
 बा धित
 मह तो
 संतुल न
di an
 हत्या कांड
 कप ड़ा
 यूक्रे नी
बू त
ों को
वा कर
irit ual
 पास वान
िक रण
 खोज ने
 आत्म विश्वास
 सच मुच
 स्प ेस
 वर् गी
ष क
 वा ज
c c
0 2
 फाइ बर
 फोट ोज
 ई यर
 गा था
 के क
 चित्र ित
 देख ेंगे
न िर
-- --
 कार् बन
 लोकप्रिय ता
ुप योग
 चा चा
 पड़े गी
 स्ट े
 ट ि
प िता
श ब्
 खु फिया
मु क्त
ग ठ
 तैना ती
म ू
फ़ ा
त िया
 शर् तों
३ ६
 अन ो
p h
 ऑफ िसर
 b usiness
द ृष्टि
 ठहरा या
 ड ाइट
 व ीक
 लक्षण ों
 शु गर
ech n
 क टा
रा ती
 सम्य ग्
 सख ्ती
 सी पी
 पूछ ने
आ न
 प्रैक्ट िस
 तृण मूल
 एटी एम
 प ग
 द ार
 प्रसन्न ता
 फुट ेज
 इ को
ो ही
 चित्र ण
 निभा ने
 रेट िंग
प्र साद
 पै सों
 पूर्ण िमा
 सी ओ
दाय ी
 बरसा त
 अक्त ूबर
क् टी
 स्मार क
 प्र वीण
 रो मन
 हम से
 खेल ना
 थे रेपी
 रा सायनिक
 आई डी
 यू एस
 A m
o y
 तर ल
 बा यो
 तु झे
 बहा ने
 फल स्वरूप
- पर
 फर् स्ट
 साध नों
स्था पित
ब र्ट
 सम् बंध
 चै तन्य
 ते री
C h
 आ क्रोश
 वि चित्र
े क्षित
ान न्द
at a
 बे न
ोष ित
 अनु मो
 भ यं
- ऑ
 रै ंकिंग
9 8
्व त
 ब डी
 परिच ालन
ख ल
 खुल कर
ै ग
से ल
रे गा
dit ions
-स ाम
 बॉ य
 बो तल
 आवं टित
 अनु भूति
 श ैल
 पु कार
ुक ता
 प्रशिक्ष ित
 स्थिर ता
 माल िकों
्या ं
 क्ष त्र
n a
भ ्र
 अपना ने
को रोना
प्र त्य
 पच ास
फ ्टी
प ाली
२० १
 सु ल्तान
 आई सी
 प ारा
 विदेश ों
च िक
 समझ े
 बॉ ल
 प तन
 S p
 च िल्ला
 व्यव स्थित
 क ूट
 ने हा
 कर ु
 गाँ धी
 मंज िल
 संग्रह ालय
 स रो
 नक ली
 सं ज्ञान
 उप न
 धारा ओं
क ॉ
 ऑ यल
18 0
 शेयर ों
 निकाल कर
 और त
पु त्र
 फ ूट
 बता ती
 झु का
 लम् बे
 ल ह
 भ ली
 सेवान िवृ
मा स
 ड ब्ल्यू
 विमान ों
ट ों
 ते रा
erm s
 वा त
tr ology
 ड्राइ व
 गौ री
 पुलिस कर्मी
 मिठ ाई
व र्ग
 उत ारा
मे री
 सिस ोदिया
 सृ जन
ीक ृत
 गण राज्य
 सिंग र
 सर् दियों
सम य
 सुख द
 sp iritual
 के दार
धी र
ंग ार
7 4
 पहुँ चे
 ध ैर्य
ट ु
M S
स्ट ेट
 ख़िला फ़
 उ धार
 इस मे
 मूर् ख
 बंद ूक
 व्य तीत
ब ्रे
क्ट र्स
19 0
 निः शुल्क
 प्रीम ियम
अ मे
 कर ि
 प्र ग
 उ जागर
 गण तंत्र
 ले गा
 मु न
 सू खे
R A
 ना च
 प्रतिक ूल
 हान िकारक
 दी जिए
 रो चक
 मी रा
an i
 एक्स चेंज
 गर् दन
 ब्र ि
 व्याप ्त
 जो श
 बै ंड
 सिंध िया
्य र
 धी मी
 को मल
 इलेक्ट्रॉन िक
 दर ों
 दस्तावे जों
 अ ष्ट
 हरा कर
 मो टी
 उदय पुर
 दिला ई
 ग ाल
 अट ैक
ध ियों
इस से
निर् भर
 व्हा ट्स
0 3
म ाला
 अभ िप्राय
 निय त
प्र कार
 अस्थ ायी
 पे मेंट
 ख न्ना
 वा शिंगटन
 फोट ोग्रा
 स्ट्र ाइक
र् वा
सि स्को
ध ड़ी
 ब ंजर
7 6
 भेद भाव
सा थ
 भ टक
 जे पी
ग ह
 हल् दी
 पत् ते
 न क्षत्र
 वि राज
 Reg ister
 दुब ई
 प्र ता
 झग ड़ा
 म ल्
 संग ्राम
 फै न्स
 ग ्यारह
फ लता
 से ल्
 रजिस्ट र
 शीर्ष क
 प्रति द्व
 वा स्तु
ेश नों
ज़ े
चर ित
 नोट िफिकेशन
 जग दी
 प्रार ूप
 मु सी
 ह ज
 A M
uc ation
पिछ ले
 दे हा
 मर्या दा
 इं कार
 के एल
 ज़ मीन
बु द्ध
 अस ुर
 नि दान
 ऑफ िशियल
 अल्पसंख्य क
 ह िला
राण िक
 र ग
 सब्ज ियों
स्तु ति
सर त
em ent
 चंद्र मा
 पी एच
 मही ना
 मित्र ों
 । '

 पड़ ताल
 व ॉल
 लड़ा कू
 गर्म ियों
 ड्रग ्स
 P h
 गिर ि
 जब लपुर
क प
 सं वैधानिक
हर ि
ुर ू
 प्रमो शन
a x
 जे ब
 सम ाय
 w ill
 श्वे ता
 अ न्ध
f orm
 न ल
 ? "
7 3
रीब न
 ब जर
ide o
 ना ते
 चल िए
 कि ट
ध ाना
 सा ई
ण ो
१९ ४
श ्रम
 भयं कर
  $
 फ ाल
 सं बद्ध
 स्टो रेज
 c ities
 घ टक
 उप र्युक्त
ज़र त
साइ ज
 शा स्त्रों
इ ए
ठ ीक
 h as
 फैक्ट ्री
 दी ं
ानु भूति
रे प
ज न्म
ां ट
नाइ टेड
 jo bs
0 6
 उत् पीड़न
 आस न
 अरो ड़ा
 महा प
 य ों
 रिली ज़
कर ों
 पह लू
 एस यूवी
 नार ियल
 क श्यप
ख ाना
 निवार ण
क वि
 अज मेर
 हेम ंत
 जनजा ति
 जिन को
ो का
 का लि
 बना एं
व हार
ँ सी
घ ्न
 b ollywood
 बृ ज
 म ग
 विवाद ों
 क्र िस्ट
 मद र
 अब् दु
 शी तल
 व्या करण
िए टर
 ख ां
 आ ब
 उद ्यान
 डि मांड
 य ूर
 रे त
 वोट िंग
0 4
 अ तीक
i o
ंड न
ग िर
ध ो
 वस ूल
 त ीर
 Pr ivacy
 शाह िद
 C ookies
 समा धि
 Con ditions
 पूर्व ोत्तर
 व सु
 मह ंगा
 आ सार
 टे क्स
 डॉ ग
 ब गैर
 सम्प र्क
वने श्वर
 नाग पुर
 lif estyle
 ऑस्ट्रेलिया ई
 प ण्डित
 की र्ति
 T erms
M P
द्दा ख
 गो विंद
 P l
 जु टे
i re
 Ag ree
 पत्र ों
 राज नाथ
 as trology
ै ः
 गु ड़
ंट न
 न सी
 रि ज़
भ वन
 ला ठी
 सॉफ्ट वेयर
 spiritual ity
 आ क्रामक
स िया
द िया
 वि ंड
 ई स्ट
पीड िया
 न हा
हाल ांकि
 प िला
 स् क्
ूर ती
 अन् याय
म राह
 ब काया
 जिला ध्यक्ष
 पू ज्य
 नील ामी
 अ स्वी
 W WE
 मज िस्ट्रेट
ंश िक
 कॉले जों
यु ग
 ब गल
भ क्त
 चम त्कार
 प्रा तः
 न वी
कि म
 ग्रन्थ ों
ig n
E D
 टै ब
 T able
 सफलता पूर्वक
 क्ल िन
ओ ल
 समझ ाने
 सिनेमा घरों
न्द्र िय
 चिकित्स कों
ाइ ज
 अर् चना
 बा ज़ार
 o ur
 प्रसार ित
 प्र ास
श्म ी
 लिहा जा
 अंदा जा
r y
 अव ्य
ंध ा
िन ि
 सना तन
६ ०
 स्ट ेज
 जित ेंद्र
 मु रा
 लक्ष ्यों
 समझा या
 गाज ियाबाद
 नक्स लियों
 तेंद ुलकर
 उम र
 चल ें
 धोखा धड़ी
कु मारी
 जा वेद
r ic
 कै ंड
 रे स
 सब की
 अग ला
 लम् बी
 मजे दार
ak e
 चिंत ित
ो हित
 टेली विजन
 त दन
मे रा
 अध्या पक
 कोश िकाओं
 सू बे
 ज ना
 उप ेक्षा
 अन ि
 भाग वत
गोल िक
 मुआव जा
 द ोगु
 सर्व त्र
 ब से
 स्वतन्त्र ता
गे टिव
व ्रत
 कै प्शन
 स्वाम ित्व
 औप चारिक
 मै क
 डाय ब
 नित िन
 पा दु
 रिश्ते दार
 सर् वि
 का ंड
 ज़र ूरी
 निकाल े
 देव ेंद्र
इ ल
 श्रम िक
स र्व
 देश ी
 मो हित
 नी ंव
 प्र ेशर
ए प
 द िश
श ो
 ज ख
 टक रा
 ए म्स
न्न त
 अग्र णी
 रूप ी
 विभा गीय
 जब रन
 आंख ें
ौल त
 पार ि
 पट ्टी
 आँख ें
 तर फ़
स भी
४ ०
 नर क
 अब तक
 य म
 आ ज़ा
 किरा या
 कर् ता
 प का
 लगा ये
 F or
 रिल ायंस
 दी क्षा
 वृ ष
 एडम िट
 शिक्ष ित
 द ै
 ग ाली
 किस् मत
टरी ना
 ब या
ट ेल
 ज़र ूर
 क्ष य
 र तन
 प्राथम िकी
ह द
 स रा
 क्र ॉस
्व ती
ज हां
 व्य ंज
 च ार्
 महानि देशक
 ग म
 ट ्व
 सि ं
-भ िन्न
ो के
 स्कू टर
 पैट र्न
 स सार
ठ ों
 संपाद ित
 जन सभा
 टी के
 सं तुष्ट
 बच ें
 उत री
 ब रेली
 ग्रे जुए
 प्रक्रिया ओं
 बज कर
 रेड ्डी
 च हल
 दम दार
 प्रको प
eal th
 च ाली
 वै ल
 रणनी तिक
1 10
 अगु वाई
 सर्टिफ िकेट
 बर स
 एन डीए
ण् डी
 असा धारण
 उपलब्ध ता
 ग ंध
 खूबस ूरती
 जोड़ कर
श हर
 बि छ
 जॉ ब
फ री
 मिथ ुन
 ह की
 न म्बर
 तथ ्यों
 अभिय ुक्त
 ह ्यू
 लगी ं
- चार
 पुस्त कों
 च िट्
ब ाला
 उ च्चारण
 काट कर
अ र्थ
 अप ितु
 शिल् प
 पौ राणिक
प्र भाव
 कंट ेंट
 ख पत
स ाल
 न ाइ
 सम ाप्ति
 पी ट
 मौ न
 एंज िल्स
 घंट ा
वाह िक
योग ्य
 रे स्ट
 पहन कर
 लंब ित
 सै ंपल
म ंत्र
 शौ क
 सित ारों
 ल टका
en c
मा ता
दा श्त
 अ जीत
ड़ के
 बु मराह
म िल
r ess
 राम पुर
 ख निज
 re l
खा व
 रोमा ंटिक
 यू ज
 कि डनी
 ag o
 से ब
 म त्
 चौ ड़ा
 प्रा चार्य
 लिप ि
शी ट
 रा ख
बो र्ड
 अनु शासन
 प्रतिस्पर् धा
िन ल
 लेख कों
 यू ं
क्र िय
वी स
फ ुल
 निश ाने
 चयन ित
 श्रेणी ः
 अनु श
 फ ंसा
 चंद्र शेखर
श ियन
 पु रा
 प ्व
 स्पिन र
ब्रह ्म
 बा ध्य
 नि वेदन
 कृ त्रिम
 ग ्ला
 च ट्ट
 सै नी
वासी य
 स्वयं से
ौ दा
् ज
 खा तों
ो टी
o b
- नि
 जाप ानी
 सी ल
मान ्
 वै द्य
 निर्मा ताओं
 टाइ प
 अमरी की
 दुकान ें
मे व
रि टी
ष ु
 म ्यू
 रज त
 सं ज्ञा
ंब ल
- तीन
 ब वाल
वि द्या
 मान कों
 तत् पर
 ले खा
 सं क्षिप्त
 कह र
 पे स्ट
 पाठ कों
 भ या
 अंग ों
 सं ध्या
 जी ती
 स्ट ेप
 रो ह
I R
 अशु भ
 सी एस
 सि ंघ
7 9
ब ेल
ं वर
A P
 ए ल्
 भौ गोलिक
अ ंग
 अनुप म
ए ड
ति थि
S h
पुल िस
.. .

 ड ें
 प्रशंस कों
 लाह ौर
क्ट ेयर
र िज
 घ बरा
 ख ट
 परेशान ियों
 बेट ियों
or on
 योजना एं
 गृह मंत्री
 ब ग
 निक लता
 ऊंच ी
 सब्स िडी
 फ िन
k s
 रख ेंगे
थ ान
ad h
 नम स्कार
य हां
 अधि ग्रहण
 स्ट ेशनों
 ग ड्
हस ास
धार ित
 हरि द्वार
 ख ाई
 ख़ ास
थ ो
स ह
घ न्य
 न ॉन
र्प ण
 श ार
ै ण्ड
 चिन् तन
 चार ित्र
 ज गा
 प्र ाप
िया ना
 कमल नाथ
 डी सी
 व ोल
 श्र वण
 ह ड्ड
 बे व
 प्रव र्तन
 आ ड
मुख ी
v i
 ल द्दाख
 वा टर
 रिलेशन शिप
 देव गन
ह िट
 समझ कर
ष्म ान
अ र्
 दा ग
 लै ब
 बृहस्पति वार
 क छ
 प्रोट ोक
 सा वन
  le
 पं क्ति
 गुण ांक
वा त
 क्षति ग्रस्त
पी एफ
 शरी फ
 खरीद ारी
 ले फ्ट
 गो स्वामी
 ड ायल
रो ल
 अनुस रण
 च ंदन
 म क्
 संभव तः
 प्र िया
 मिश्र ित
 मुकद मे
 त्या गी
 ट्र ायल
 बिल ासपुर
 भ ै
 उप निष
 रिश ्तों
 हेली क
 सौर भ
 हम को
- बी
 य ंत्र
  Q
क िस
आईए एनएस
 ज हर
 बेरोज गारी
र्थ ्य
 बना म
 ई वी
 पत्रकार िता
 प्र भार
 D isclaimer
 तक रीबन
 वि रू
 कॉ फी
ऊ ंगा
 उन पर
रि फ
 फीस द
 एका दशी
ंतर ण
टी य
 न य
ें शियल
द क
 अय ्यर
र्म ल
 ज ्यों
 उप वास
 हटा या
 इ ष्ट
च र्य
 U p
 सन सनी
 मा धु
 रा इड
8 3
 प्रयोग शाला
 विश्वविद्यालय ों
 निष् पक्ष
 श्री नगर
सि द्धि
 ह ड़क
 मार् क्स
 किश ोरी
ww w
ि ं
 स्थ ूल
 हि ंसक
 ए हसास
 कॉमे डी
फ िल्म
 छा ती
 प्र च
 ब्रां च
व्या पी
 सदस्य ीय
 चुन ने
 चन्द्र मा
 कीमत ें
 मिस ्र
 के म
 प्रोड क्शन
 गु णा
 क ्वि
 गु फा
भाष ित
 उप रांत
  م
- छा
प ों
ation s
 न ृ
ड मी
 परम्परा गत
 रु का
 सुख ी
 मु गल
चित ्
 इ नाम
आई एम
 S c
 धन ु
- भाषा
 संय ोजन
 संय ोजक
रो न
े ली
रा जा
 ग ों
र्में द्र
 संल ग्न
 निषे ध
 ते ज़
" ।
 ख रा
 पश ुप
 ऐश्व र्या
 लोक तांत्रिक
 सार्थ क
C B
 सर पंच
 प्राण ियों
 निकल ते
 न िका
 क्र ूर
 जा तीय
 स ता
or s
 नि रूप
 डिप ार्टमेंट
 विश ्राम
 जी बी
 उप मुख्यमंत्री
 छ े
अ म
हस ुन
 न ाह
 अ टक
व ला
I T
d er
 सं न्यास
I M
ली टर
 जाय गी
l ic
ख िल
 प ला
पाद ित
 संबोध न
 आ वासीय
क्सी डेंट
 प्रमो द
 धर्म ों
 रिश ्वत
 दु ष्ट
मा ंक
र् फ़
 पेंट िंग
 मृत कों
- रो
 गवर् नमेंट
 पादु कोण
मु क
 पै रा
T he
 जगदी श
a ct
 शास कीय
 ईमान दारी
 म ल्ल
 रि हा
ter n
3 50
त ोड़
 उज्ज ्वल
स्प द
 ] 

i e
िला ई
श िक्ष
 कै टरीना
 छ ेद
 ठे केदार
 वोट ों
 तक लीफ
 समु चित
S A
 अन ू
 प ाली
 क ब्र
 दीवार ों
रण ीय
टे न
ो रा
ई स
 स् तु
 मनो वैज्ञानिक
 अद्व ितीय
e ction
 बह नों
 रे फर
 से क्शन
 पांच वें
 जाय ें
 व ध
 बढ़ ाना
ंस ू
 दे वर
 आत्म निर्भर
म िया
प्र भु
 सहयोग ियों
 स्प ॉट
 आए ंगी
 हॉ की
 गा ंग
 अल ्ट
 इन्द्र िय
 युव राज
इ यां
ौ री
य ता
 म रण
पी एम
 गोली बारी
 व सा
 ट ार
 सी ए
is e
 क ड़े
 बे कार
 क्वाल िटी
8 4
 नि गाह
 छान बीन
ना मी
न् ती
 फ्रां सिस्को
 लो भ
 ल ियो
योग ी
च र्चा
 मांसपेश ियों
 छ ोर
 उत ने
 अभ्यर्थ ी
ियम ित
 म िक्स
स्त रां
 चढ़ ाई
वं शी
 Table t
ली ला
ि च
्व ित
 न ड्डा
 उ ल्ट
 वै सी
 शिवा जी
 रस ायन
 अड ानी
 रह ो
 प्रश् नों
 पांड ्या
 म र्
 आवं टन
 र िंग
w ay
 ल ख
 करने वाला
 बलि दान
 भाव ों
 सं वेदना
पा किस्तान
 दिला या
 पर वाह
 ध्रु व
  ed
 ब ँ
 द्व िप
 कहान ियों
 प्र म
३ ३
 उस पर
न पुर
 निर्देश ों
ान ंद
ाल ियों
 मो टे
 माय ने
 मरा ठी
ो त
ार ोप
ास ित
 जे डी
इंड िया
 उज्ज ैन
 स न्देह
 दिलच स्पी
A n
 गं वा
्रे सी
 सौ दा
 उत्पाद क
 हिन्द ुओं
 तीव्र ता
 ध र्मेंद्र
- पू
 छेड़ छाड़
 M an
 प्लान िंग
8 2
र् नर
 D r
 डाल ना
 त ्वर
 आर क्षित
 उतर ने
 ब डे
 प्रति भाग
रा उंडर
ृ ता
भी त
 त्र ुट
 अख ्तर
समा ज
 मा फ
 वो टर
 र ियर
 जन क
 ब चना
 आ क
 वि गत
 सिक्योर िटी
ग् नि
यून ियन
 जरूर तों
 सम र
 एडम िशन
 अप ार्टमेंट
 कंस ल्ट
  et
 के के
 ले ट
 छो ड
 कंध े
 भा स्कर
 विक ्रे
 पु जारी
 मान वा
श ॉर्ट
 छ ठ
ऐ से
 जंग ली
 सि वा
 करा ते
 असि स्टेंट
-छ ोटे
 त िन
् शा
 सो साय
 कामया बी
 त्रिप ुरा
क्ष कों
कल्प िक
 प्रत्या शियों
 व्यापार िक
 फ़ िल
 जाय सवाल
 व्याख्या न
 स च्ची
 लै पट
फो र्ड
 क स्ट
 सह ानुभूति
 बद ौलत
om e
 विध वा
 एन र्जी
 इ मो
 बन ारस
 संर क्षित
 श्र ुति
 ज ं
 श ्म
१९ ३
 पास पोर्ट
 चिक न
 अग्र िम
पह ले
 दिख ला
 त त्र
 ओ पी
 पाए गा
 गोल ियां
 स्क ूली
व ारा
8 9
 एस सी
 B S
 दी पा
 इस्ल ामी
अप नी
 बह र
प् ला
 उठ ने
 पढ़ ते
 सफ ़
 त बी
स ौ
I A
 Un ivers
 उठ कर
 सुना या
 वै कल्पिक
 म ण्डल
 म स्ती
ए सी
 लेन देन
प्र श्न
 फैल ने
सु ख
 स स्ता
 प िक
 श्र ुत
 पी ले
कार ण
 क़ ान
 इ ल
 मी ना
 ख ुर
 E lection
 जा ट
 सा क्ष्य
स म्म
 चा हा
 टाइ ट
 ओटी टी
ब्र ाह
 सव ारी
क्र ाइ
 मेक र्स
 गु न
 पहुंच ते
 एक्स एनयूएमएक्स
 सु क
िव िटी
नो ई
ु ए
 स्व तः
 दे न
 सु मन
 विरू द्ध
 दू ंगा
 घृ णा
एच ओ
 बढ़े गी
द ूस
m e
 व च
 भूप ेश
 अन िश्चित
 पर् दा
 विशेष कर
ॉय ड
 ग्र ैंड
 ज़ िम्म
 भ ती
द्व ाज
 बतला या
 जात कों
ंत्र ण
 लिख ना
 सर्व प्रथम
 कि से
 तेल ु
 मनो विज्ञान
यर ाम
10 8
 नवा ब
 बे सिक
क ॉम
 बी ती
्ट ा
 अभिय ंता
 ग्रे ड
 म च्छ
 प ट्ट
 बै ंगल
 पर ो
कार िणी
 मि नी
 मी णा
 प ोट
 ग ड
 ता इ
 खि ड़की
 डि स्ट
 आ कांक्षा
 छु पा
-प त्र
 अम न
मा ं
  di
 मत गणना
ष्ठ ी
फ़ ो
 दे वा
 दिव्या ंग
वि ष्ट
 हे क्टेयर
 ही रा
प्रति नि
 रे ग
श् ती
 चुप चाप
 बुल ंद
 प्रदर्श नी
 न र्म
ol d
ou ld
 कर न
 तो मर
 गांग ुली
 हड़क ंप
 को ठ
द् मा
 ना श्
 बढ़े गा
 न मी
ज ली
श्मी री
 हे ल्प
if ic
 स्पेश लिस्ट
 पु द्
 तप स्या
 शिल् पा
 इले वन
ो कर
 कह ो
 स ल्ल
गे ड
ग मेंट
ंग र
 व ु
 सचिव ालय
दय ू
 ज प
 पी जी
 रे स्तरां
 स स्ते
भाव स्था
त्त री
ह ारा
 सु ष
फ ु
 को ले
 कै रियर
जन न
ot o
 आ स्ट्रेलिया
 द मन
स ला
स्ट िव
 मो न
od ay
. )
 A pp
 वाज पेयी
 सा कार
लाइ का
 हो स्ट
 छ ठे
 राउ त
 बदल ते
 कुल पति
ामद ायक
1 30
 Mo di
ए गी
र् टर
ै नी
 ए ंबुल
 ता ला
 विश्व नाथ
 सात वें
 भु वनेश्वर
मान स
 तु ला
 रिट ायर
 सु साइड
 रहें गी
 स्तु ति
 महा मंत्री
ो को
्ला ई
 पू ल
 जे म्स
शॉर्ट कट
 त ले
 ह ार्ड
ो धी
 मदद गार
 जै विक
 प्र ामा
िय र्स
उ ड
ना त्मक
का स्ट
 बाँ ध
 करें ः
ंट ा
 ग ृ
स्त रीय
द शा
 ज घन्य
राज स्थान
 विशेषज्ञ ता
 म स्क
 भा ष
 तुर न्त
 ह ड्डी
शॉर्टकट ः
प ृ
 अव लोक
 निर्म ला
12 5
p er
 पृथ क
 पर फॉ
 मेहमान ों
 कोट ि
 हाल िया
यूनियन पीडिया
र थ
 सिद्ध ांतों
 रु द्र
क प्तान
 ल हसुन
 व्य ंजन
 वै भव
 फ री
 संभाल ने
 बंदर गाह
 आयु ष्मान
 झ ड़प
 इंग्ल िश
 स्ट ्रीट
कथ ित
 वैक्सी नेशन
म् भव
 गु ला
जी ल
िम य
 सेल् फी
 न शा
 विकेट कीपर
 निर् दिष्ट
on d
 पार ्वती
 एक ीकृत
 प्र धाना
 क्ष ु
 निका सी
 तबी यत
 एंबुल ेंस
 U P
फ ै
 सुर ेंद्र
िट ल्स
डे ड
 संपाद क
ar a
पुर म
ौ रा
 प्रोटोक ॉल
मे ह
 यू ए
 अव शेष
 फा स्ट
 समुदाय ों
बा ड़ी
 सित ारे
 अपेक्षा कृत
 तुम से
 होने से
ढ़ ियों
16 0
e le
े ण
 कां स्टेबल
 बचा या
 उल झ
 पू ँ
क ह
ॉ फ
 सु स
 मंज ूर
 सोसाय टी
 सि र्फ़
 मिल न
फ ्रा
ि टर
 विक ्की
- जा
 S har
 इ मेज
 श्रद्धाल ु
ज़ ों
 कह ेंगे
का उंट
 आर ामदायक
 सब कुछ
 अवसर ों
 म म
 मो र्चे
 आ भूषण
र ियल
 आ ंशिक
्यू शन
व ियर
 I PL
 आईए एस
 ह ज़रत
पाद क
 प्रग ट
 डायब िटीज
 रह मान
 सि ग
 द स्त
 वैष्ण व
 यो द्धा
ं शी
 इ क्
. ,
ग िन
िज य
 गड़ बड़ी
 पे रिस
 बाल िका
 यह ू
 त्वर ित
ल् हे
ोने शिया
क ेंद्रीय
सब से
 अन दे
ऐ सा
ut e
 जाय जा
पा ट
on s
al i
 साइ कोल
 टे निस
 ग ंदगी
ों की
 खा या
् ठ
 वास्तव िकता
जी न
 फ ौज
e h
 जा व
प िक्सल
रूप ी
 रॉ केट
 व ल
त ब
 फै ली
 परि भाषित
 सत त
 ह त्य
 म ठ
चे त
 C O
फ ोड़
 मानवा धिकार
 प टा
 पद ो
 श म
 वर् जन
 पॉप ुलर
 बे बी
ै ंक
 मा स्को
न् ते
 बै नर
 ओवर ों
 ध क्का
 मो ट
 हिंद ुओं
 ल की
 त ंज
 गा या
 हार ्म
 मुसी बत
ल् चर
  ad
 होने पर
 सं वत्
 लैपट ॉप
 दोष ियों
य र्स
य हाँ
स्क ूल
ना ज
 डि स्क
 सो रेन
9 1
 अभिन व
गठ बंधन
 आ वे
 : -
राव ती
मे क
 स्टार्ट अप
पू र्ति
ले क्
E R
 क र्क
 स ान
फ िल
ीर पुर
k h
 निर स्त
 धर्म शाला
 ब ्यूटी
 हिन्द ु
 डें गू
 रो ने
 की ं
 वन ्य
म ार्
 फे मस
 स्व े
 गु हार
 पीड़ित ों
 स् ल
 रचना ओं
 कार ी
 झ ां
 न फर
 आग म
 ठ ग
 खास तौर
 एम डी
ू ंगी
 वायु सेना
8 1
ाह े
- वे
 बोल ना
 G overnment
 रै म
 इन कम
प ोल
- ड
 क्र मांक
 ट्र ि
 स्प र्
 ड िवी
 सम ता
 गार्ड न
N A
शु दा
स ां
 धन राशि
ऊ ं
 र त्
ग ौर
 ठ गी
 बन वा
echn ology
 आम ने
जे क्ट
 मो टा
 अरु णा
 सर्वि सेज
 गुर् जर
U P
 मू व
पी सी
द ित्य
 द्व ेष
 कि म
 श ंका
 प्लेट फार्म
 दे ओल
 आश य
-ज ैसे
an ch
 दि ग्व
 जि ज्ञ
- पूर्व
 कुश वाहा
 प ायी
 ब्र िज
एन जी
 पे न
 मू ड
ौ नी
 आ गा
9 2
- ध
 क्षत्र िय
 प्रवृ त्त
 हमला वर
3 70
 कार्य शाला
 अंग ू
 चौरा हे
ज् जित
 अह ंकार
वि चार
 पक्ष ियों
 बै क्टी
 सुधार ने
 अव ध
 ल य
दी न
 झ ुक
 ब्रि गेड
 ला ज
 ज हरी
इंट ्स
 प्र हार
क ित
ल् थ
 विल ास
 न क्
े क्स
 विल ियम
ड ार
 ओ बीसी
श म
 र ित
बि ग
I S
 खुल ने
ि डेट
 डे म
 द वाई
 कु त्तों
गी त
 सं क्षेप
स मु
 जंग लों
 सू ट
 प नीर
 ग न
जे डी
 नम ः
स ेंट
ा त्मक
न्न ति
 सु दृ
 प्रति ज्ञा
 चे न
 स स्प
 अप न
 एक्स र
 अन ियमित
' ।
 नक दी
 गा व
 वर ना
 स वा
 धन ुष
 के न
 आद म
 करा कर
 भ्र ष्ट
 मार ुति
 c h
 सम् भावना
 म लाइका
 र श्म
 सो चना
 भ गा
 आरा धना
 स स्ती
 डेवलप मेंट
 क ूल
ल्ड र
 गि फ्ट
 ग द्य
 निभा या
 देख ती
 सै य
स ंच
 आ ओ
 उन मे
ार् ता
 वीर ेंद्र
 द्विप क्षीय
 सैल री
 नवीन तम
 Univers ity
ह में
ार्ज ुन
य ः
ाम ि
ब लों
िस ार
 दी ख
व ियों
१९ २
 गिल ास
द ोष
 एड िट
 हेलीक ॉप्टर
 उप द्र
वा ट
t ra
 फिल्म ी
 ड्राइ विंग
 सुपर हिट
 जै व
an n
is m
 भिक्ष ु
 डायरे क्ट
 सोन म
 बा ंस
द्र व्य
-छा त्रा
 सु प्र
 रिश्ते दारों
 परी क्ष
रे स्ट
 डी एसपी
 परिश िष्ट
 ट िका
 साम र्थ्य
 भि ड़
स् मा
ग ना
 न कल
य ूपी
 श शि
 अप ार
 यू नाइटेड
at ch
 C l
8 6
 त ंग
ज रा
 है रानी
 शिक ायतों
 रज नी
 किस ने
 इ ज़
ू ष
 सड़क ें
 मे जर
 कलक त्ता
 सं धि
 उछ ाल
 ह नी
 थ िएटर
ing s
 कमा ने
 बजर ंग
 पकड़ कर
 पराज ित
 संगठ ित
अ व
 वे ग
 ज दयू
 रै ंक
 Re c
ोन िक
 सिंग ापुर
 वास ना
ब ाय
स ास
डी ओ
र ाल
 वन स्पति
 दा दी
s y
 चौ दह
 मह र्षि
स्त िक
 अल ै
 इमर जेंसी
 चै म्प
 कार गर
 छोड़ ना
क ड़
 आम दनी
 स्टूड ेंट
 बा बर
 ज यराम
 नारे बाजी
a id
 हो ल
 ट ु
 अश् लील
- दु
िक ल्प
३ ५
 ता ना
 औष धि
 अप ेक्षित
 प्र ॉप
 शे फ
ग ान
ित ्री
म ाना
ड न
 सर् किट
धार कों
 सि वाय
 नक्स ली
 ग्रंथ ों
१९ ५
 भ ैया
जन ्य
 इ ण्ड
 मत ों
 न बी
  ent
 टिप ्स
  ع
 कम ला
 अत ुल
 ध नी
 दु आ
शा स्त्री
नार ायण
 Com m
 एम एल
 अ णु
 अभ िम
 कॉ र
 दर्ज नों
 मन मोहन
 श्री म
सर कार
 प्रदर्शन कारियों
 पे ड़ों
 सुविधा जनक
 नौ जवान
 रॉय ल्स
 पहुँच ने
 अपराध ों
 लाभ दायक
 वाणिज्य िक
की र्ण
 उप भोग
 एम बी
 संघ ीय
ha h
 नाम ित
 कमज ोरी
 ल ांच
it al
 थ क
L A
ic t
 ल िट
 डिस् काउंट
ain ment
 ऑ स्ट
ण् ण
 आर बीआई
 सम ू
 नफर त
o x
 ए जें
 वि वश
 प्रावधान ों
ु द्दीन
ता वास
 बु लेट
  `
 स्ट ार्स
 निकल कर
 N ew
 क ुरु
 सोल ह
 श्रा व
ारू ढ़
 घटना क्रम
च य
 चा ँ
ा व
शा क
 रिए क्शन
 मै ग
9 6
ब ेट
तिक े
्व री
 ऑल राउंडर
 न कद
ोग ्य
 शास्त्री य
 चाल ान
द ं
 भ ड़क
 लो हा
 दिल ों
o or
 आ त्
 अर्थ शास्त्र
 In st
 नर म
 भर कर
- तरह
 माम ा
 त ्यौ
काने र
a f
 गु ड
 इरा दा
िल ्ल
 इम ाम
 अप रि
स् फ
डी एफ
ला स
 बा एं
 ए एन
e b
ख ्ता
 चौंका ने
 त बाद
 सभा पति
 जहा जों
 बेरोज गार
 प्र णाम
 ख ड़
 जन गणना
 टूट ने
शब् द
 डो नाल्ड
 महा गठबंधन
 दुर ुपयोग
वि ड़
क् ले
 डिफ ेंस
 ई ंट
ल् श
 नमा ज
 प्रति पक्ष
 तहसील दार
p l
 न ं
 हास ्य
 प्रोड ्यू
- इन
म नी
 अ जित
 पू नम
 क श्मीरी
 पी सी
ण्ड ा
 पित ृ
प ्रेम
um b
 ह ता
क्त ियों
 ड ोर
 टी एमसी
 Min ister
 फे स्टिव
िल ो
कार िता
 का ज
जो त
 अमृत सर
 ब ान
 मु हर
 p ro
का ई
 तै र
 नॉ र्थ
िन ेंट
 मौल ाना
 अन् ना
िज ्म
 जुल ूस
क ूट
 प्रो सेस
 कि य
 P radesh
 सा ँ
 स्टूड ियो
 अंतर ाल
स् फी
ीड ी
पु राण
B C
 प काने
 छ त्र
राग ्य
 द ांत
 बता ओ
 S ch
 वर् चुअल
 रोमांच क
िप ्
 चार्ज िंग
र्में स
क क्ष
 आ ंसू
 कु चल
 अध्या त्म
 पी यू
 सज् जन
 लोक ल
 अंत तः
 बदल कर
ब िज
प कों
 बैंगल ोर
 फे फ
 पहा ड़ों
ोज र
 लाइ क
 दुकान दार
ड्ड ू
 प्र स्तुति
१० ०
 सु हा
 पी ना
 समी करण
 की जिये
 छ ी
 अवलोक न
द गी
ow n
 हो गे
ंद ों
 चर् चित
 कम्युनि स्ट
 मह ंगी
 हल चल
 बर्फ बारी
 दिग्व िजय
 पढ़ ना
 इं जेक्शन
 उपयोग कर्ता
 भविष्य वाणी
से सर
 ई शान
 संग म
am e
 गर् भावस्था
 सी आरपी
 ज़ ोर
हास न
प तियों
मा ई
 ने क
 भरो से
 प डे
ट की
 वि ंग
 श स्त्र
 कैप िटल्स
ग्र न्थ
 कैंड िडेट
य री
 दू तावास
 मार्ग ों
 एल ान
 सर् जन
 बा हु
 K a
 पट री
ान ्यास
न् ता
 प्र ह
 नी च
ग्व ेद
 चु क
 आर्ट िस्ट
 ज र्न
 व रीय
 प्र प
त्त व्य
 ड िस
ा फ्ट
 समर्प ण
 धो ने
 ड ेल
 इन्द्र ियों
 बे सब
द क्षि
 रे ख
२ ९
P S
 स्पष्ट ीकरण
 स् फ
 नु स्
३ ४
 गांधी जी
 ब क
 मि र्जा
 पस न्द
 द स्तक
 C o
श ोर
त ियाँ
 हम ीरपुर
 उप ग्रह
 निर्वा चित
 द लील
 हा फ
 m e
 क द
 सु धा
 rel ated
प ्रे
ष ाय
 निर्द ोष
 सेलि ब्र
 सभ ्य
र्फ ्यू
 सांप ्र
वै सी
थ न
end ra
कार ्प
 हरी श
 इन पुट
ेंस िंग
द ानी
b ook
सा थी
 निर्द लीय
 राघ व
 जो ड़ों
 पा टिल
 D ay
t a
 प्व ाइंट
 p l
 आवि ष्कार
 एल र्जी
 बु लाई
 चै ट
re at
 सर सों
डी सी
 बता एंगे
क्त ्व
 फ़ ोन
 एक्सर साइज
ंख ्य
 उद्देश ्यों
 दह शत
िन ो
इस लिए
मह ल
 एका ग्र
 क ंक
हा उस
 तोड़ कर
 अनु करण
ज नी
 न ोक
 घुट ने
 जला ने
 शांति पूर्ण
 प्रॉप र्टी
 रु के
 मान्य ताओं
 क्र िप्ट
 ग रि
 ड्र ामा
 चिट् ठी
 ज ूस
 गोप नीय
 दिखा कर
 सू द
 द ंप
र् गे
 म द्र
लो री
 बहर हाल
टे नमेंट
 धर ने
िंग ्स
 दुष् प्रभाव
 वे दों
 प ोज
 B JP
  un
जा ही
दान ्त
 मा प
 स्वा धीन
 सु मित
 बा जी
ों से
 उ बाल
 उ ग
 स िले
 का ठ
 दू ँ
 अन ूप
in a
 श ॉ
 का फ
०० ०
 भाव ुक
14 0
 ऑ डियो
ना ं
 ले गी
 नर्स िंग
/ /
 प ों
 भार द्वाज
 किताब ें
 दर्द नाक
 बता एं
 शोर ूम
 हेल् दी
जी पुर
 क ंड
एन ए
 बया नों
 फ़ ैस
 थ म
वा ंस
 उ क
 सत्या पन
क्क ड़
 प ्या
 क र्फ्यू
ृ त्ति
 थ कान
 त र्ज
 बुरा ई
म ताओं
व ॉ
 ग न्ना
क् म
 प्रति पादन
 शिल ान्यास
 डे न
 ग्र ाफ
दर असल
ज द
 वै न
ही त
 फते ह
से क्स
 दिख ी
वर् तमान
 अंधे रे
 ल टक
 प्र जनन
 सी ने
 ढ ी
 et c
िक ्ट
 ट्यू ब
 अस्थ िर
 उल ट
 ब डा
v el
पा क
 आयु ष
 अली गढ़
um ar
 मुजफ्फर नगर
न् नाथ
 सब क
 क्वार ्टर
 कस् बे
 वि षा
 प्य ारी
 एन एच
राब री
 वी जा
 ब म्बई
 पुस्तक ें
फे क्शन
 डिजाइन र
 र िम
 ष ड
 दि ग
 तथा कथित
िने शन
 का स्ट
 मशीन ों
पं जाब
 उपयोग िता
 भा भी
भो पाल
 कै दियों
 भा वी
 ज ोग
 दे वे
 शॉप िंग
 विश ुद्ध
श ंस
 जी न
8 7
 नाट ्य
- घ
9 7
 बहि ष्कार
 प्रण ालियों
 त िस
् ह
 ऋ तिक
 खा कर
मन ु
 मेजब ानी
 ट्र ाई
 ब्राह्मण ों
 मह ंगे
हो त्रा
 कार्य कारिणी
वि ंदर
ज़ ल
 बजा ए
३ १
 म ाइन
व ड़ा
 आवा जाही
 मुख्य तः
ग ाम
 ही न
 अन्त ः
 प्रे ग्न
वि ता
 क ण
 D elhi
 शिर कत
 त द
वन ि
i har
अ रे
 स्व देशी
 पुर ोहित
स क
प ्य
 टेस्ट िंग
 विस्फोट क
बूझ कर
 व नाधिकार
को च
 ग ्ले
 तिर ंगा
र चना
 सम ीर
 हाइड ्र
 म ंथ
ov e
ब ूल
 अनाव श्यक
 बर् दाश्त
 असाम ान्य
 फ ्ले
 स्व र्
 घे रे
 खरीद ना
 वि धा
 प्रा धिकारी
I PL
ब िट
 लोक मत
ृ श्य
 St ay
 य ार
 C M
- क्या
 पर्य वे
 पर ेड
 G o
 R aj
 लो केशन
 मिला एं
ग ि
दे य
em b
 त्यौ हार
दर् द
 कोरोना वायरस
रा इट
 सि ग्
T h
 स् ला
 यु क्ति
 फिर ोज
 आर एसएस
 शिकायत ें
 पां व
चल न
ज क
ली ट
 चले गी
आर आर
 आया म
i le
्य ुन
 दह ेज
 स ड
 सेवानिवृ त्त
 ला ते
 ज़ िले
 उदा सीन
 ए लि
 ल त
 शव ों
 प्रति बि
 रन ौत
 h e
 मे ष
थ ियों
 भ ां
 से शन
री ज़
क्राइ ब
 जन प्रतिनि
 मुह ूर्त
 ढ ाल
9 3
 स्रो तों
 के अ
 अस ंत
 मू त्र
व नी
 एन सीपी
ग ोर
 स्ट ्रीम
 सोच ता
 बा उ
 गोद ाम
 रू बल
तान ुसार
 upd ated
 विभ ू
 पिता जी
क्ष ु
  x
 प्र सं
 वस ंत
 रोमा ंस
 ऊंच ा
श िला
 प्र थ
 बुला कर
क्यू मेंट
ना यक
 टार गेट
व र्स
 बो स
अ भी
 प्रतिनिध िमंडल
ऐ प
er y
प टना
 प्रतिभाग ियों
- स्
 एके डमी
 च ारा
 कनेक्ट िविटी
 महा द्वीप
ऑ फ
ल्लाह ु
 अन ल
 मा ग
 दे सी
स मी
 निया मक
) .
us h
 बा पू
३ २
ान न
रल ैंड
 झू ठे
 मस ले
 इंस्ट ्र
प्र द
 नी म
 गुज राती
 ओपन िंग
 देख िये
 कार कों
बीएस ई
 स न्द
र् वी
 राज ेन्द्र
 न द
 व ्ला
 करु णा
ण न
ॉ क्स
 रख र
 कार्यालय ों
 प्रकार के
क भी
क था
 प्ले यर
ो वा
-ज गह
स ंह
 स्त ंभ
 वां छित
 राज्य मंत्री
 श्र ाप
 अ नी
 गतिविध ियां
 ग र्ग
्यू म
 मेगा पिक्सल
 प्रतिद्व ंद
 शिव लिंग
 सर् प
 कॉ म्प
 सिया सत
 गे म्स
 कै थ
 वै रिएंट
 वा दे
 स ई
 रोक ना
 सत्त ारूढ़
 प क्का
ंध र
 कर् नल
ar k
 रि च
 अधिक ा
 फ़ े
हि णी
id ent
स त्य
ना द
 उ मा
 सा ंख्य
 सू खा
 विराज मान
 महाप ौर
र्न िंग
 प्रतिबंध ों
 दर ि
िक र
 च तुर
 ए न्
 पु ष्ट
पी एल
 w as
 गी तों
 नि ष्ठा
 संक्रमित ों
 मत् स्य
e am
्यू ट
 मना ई
 टक राव
 चु रा
 ब राबरी
 बै च
ार सी
 की व
 चल ाना
 इंड ोनेशिया
 प्य ारे
ौ ं
 Up d
 पू रक
r ou
प ोषण
 देख रेख
ar n
 लीड र
 ख़ त्म
 प्रिंस िपल
 रखर खाव
 कर िश्
 छ ल
 फ ्रेम
V ID
 ग न्ध
 सत्या ग्रह
थ िल
 अनु ज
रे ल
जीव िका
ौ फ
 तो प
 विज यी
ल्श ियम
 राज दूत
 बौद्ध िक
ेट िक
 निर्ण ायक
 दिव ंगत
 सो या
 मु क़
ई टी
से वा
 पार स्पर
 स्टाइल िश
 टैब लेट
P M
ाह िर
 है क
ंगा बाद
 फ्रां सीसी
 बि गा
 प्रत्य य
हर ियाणा
 सु ध
स्त ों
or t
 फै ले
 रा ध
 ट्रे नर
 मस ाले
 मेजब ान
og le
 ब िल्ली
ख ड़
 ऑप रेटर
 मा धव
 जीवन साथी
 आ कृति
 इज राय
 ड ै
 तर क्की
 प्राइ स
जा ज
ण ाल
 प द्य
 लाल च
 ज या
ानि र्
 रहा णे
नी तिक
- घर
ो रेट
 उत् थान
 फ्र ेंड
दे ही
 प्रजा पति
 r es
के न
 सप नों
व चन
श ैली
पै ठ
 क न्ह
 स ती
 सु चार
 न ज़
 इ फेक्ट
 क्र ांतिक
9 4
c l
ग ामी
 ए बी
 बढ़ा ते
 अधिक ृत
 आ दान
 कर त
 ट ायर
 सह ार
 ओ वैसी
 स्क ॉ
 लो ड
 आइस ो
 कुंड ली
 आपत्ति जनक
ह ं
 टुक ड़ों
 किस के
ौप दी
 कॉ मन
 कु ल्लू
 से गमेंट
 सीतार मण
 श्रे णियों
 आ इट
 जता ते
बु द्धि
श ूट
भ ारी
 झग ड़े
ेल ियन
ि डा
 उठ ाई
 कै लोरी
 महा सभा
op e
 एम सी
 बारी क
 प ञ्च
 का े
िक ेश
m i
 दां व
 पी रिय
्रे ड
 घा व
 स्व ाय
ण् ठ
 शेड ्यूल
 म क
च क्र
 आर सीबी
: //
 जोड़ ो
 नव रात्रि
 ल ीन
आर एस
गो पाल
िव े
 अल गाव
 आयर न
 उ गा
 टुक ड़ा
ड िय
 चतु र्व
 कम रा
 अनुमान ित
 com p
 छु ड़ा
18 8
 ख ल
ग ुन
 श्व ास
 धन ्य
 मन् त्री
 गो चर
 रवी ंद्र
 व्य ंग
9 00
- लि
H O
 स्त म्भ
 भु ला
 मल् होत्रा
 व गैर
प ्स
स न्
 प्रेम िका
 दिख ती
चे तन
फोट ो
 का या
 पा त्रों
 अभ िले
 फाइन ेंस
ढ ी
 भ ोर
 अन िय
 टा स्क
 था ई
 ध्व स्त
 का ंस
म् पा
स ुप
 जन हित
घ ट
 हु ड्डा
 स्क ैन
 त टीय
ل ه
या यी
जी र
ोर ेंट
 सल ाम
 सहस ्र
 सी खा
 झ ंडा
 आई आईटी
-प्र ति
 संग ी
 चैम्प ियन
ऩ े
 बन ेंगे
 आवा गमन
ऊँ गा
 ठ ंडे
स्फी ति
 upd ate
 करने का
 पु ज
न ोट
 परिष द्
? "
न क
ाइ जी
 जल न
 पुष् कर
बे र
 द त्ता
 बर्थ डे
 इम ्यू
 प ुत
ामा बाद
हम ने
 सर्वो त्तम
नी चर
 प्रो सेसर
क ेंद्र
िस्ट ्री
 डिप ्लो
 हकी कत
 ट्र म्प
 गि ना
 अभिभाव कों
a ir
 घ ने
 प ब्ल
जी ने
 उ र
वा ग
n ow
 सं भाग
 व्यंज नों
ो क्त
 केन्द्र ों
द्र ता
 विल य
 चाह ेंगे
 बेल ्ट
 C ol
 श ार्
 सं प्रदाय
 आ ंत
वा दा
बी स
 डी जीपी
 सू र्या
 घुस पैठ
 इस्लाम िक
 फ र्श
 s o
 उपलब्ध ियों
ो च
 कै ल्शियम
 किरा ये
 आ एं
 ह ्र
कि ता
क ं
 टेक्स ास
 अरुणा चल
 बी बीसी
 अनु प्र
 र चा
 आयर लैंड
 घट ाने
स्ट ाइल
बे न
ू ला
ग िल
 दक्ष ता
 महि ंद्रा
व य
 विन िमय
 राक्ष स
ar h
 र िय
राइ ल
 महत्व ा
ंट ल
 प्र स्थान
त ुल
 न ाले
 अध ू
 बदल ना
 ज ार
 पुद् गल
e ep
 सिल ्वर
ma z
 अफ्री की
 आड वाणी
 दृढ़ ता
 भावना त्मक
 अव य
 डिवी जन
  ₹
 ड्र ाई
 सन राइ
 सन् तान
का शी
 ट ेंडर
 कॉ स्म
 डे यरी
our n
 पढ़ कर
-उ धर
H A
 उ न्म
दर्श िता
 बढ़ ाई
 लाभ ार्थियों
 प्रता ड़
 वर्गी करण
 स न्न
 wh ich
- डी
 पारस्पर िक
 क्रिस मस
 कै टे
कम िंग
 ग्रह ों
 ग्र स्त
स ारी
 सम् बोध
 फ िस
 क ड़
 रवि ंद्र
 खिल ौ
 उपर ान्त
 म ॉल
 श िप
 जु ड़ने
 बै ड
फ ेल
 महा पुरुष
adh ya
S t
श् ले
 हा ज
 संर क्षक
99 9
P C
oc i
 विकल्प ों
 पला यन
 जग न्नाथ
दु र्
इ से
- व्य
ि रे
 गे स्ट
ज ेंडर
 जख ्मी
द िल
र ूम
 न ाप
 संतुल ित
 नर्म दा
 अब्दु ल्ला
 प्रतिबद्ध ता
 सम्म ुख
 सुंदर ता
 ता ज़ा
 विक ्ष
 वाप िस
लाइ ंस
 अप वाद
व टी
 ड ां
 हार्म ोन
 नि स्त
 मह ंत
 झू ठी
 लाभ कारी
 जे न
 अर् जी
ण वीस
 ब्ल ॉग
  ب
 अ खंड
स् त्रा
 सरकार ें
S S
 रि मांड
 ed ucation
 दिख ाना
 ना ख
 ब्रह्म चर्य
ध िप
 ना ई
 B h
 परिप ूर्ण
 अभ िन्न
ोर िया
 ए ट
 बेह ोश
 संभ ाला
क्ष ्मी
 गुरु ग्राम
 गर्ल फ्रेंड
 फेस्टिव ल
 राष्ट्र ों
 वै राग्य
वार े
 अल विदा
१९ ९
C T
 आ इड
 इंटी रियर
 मद्र ास
प ानी
 निय ोजन
 खि ंच
at er
 पिछ ड़ा
 क ंडी
 मु स्त
 ह ंसी
 वे डिंग
 ता दाद
 नवा चार
ार ह
ुरु स्त
 द्र ौपदी
फ न
 फ ड
श्च िक
ड् ढा
खा स्त
ू बी
 ऑप रेट
 ग्ला स
 सुरक्षा बलों
 चाल कों
 ठिक ानों
 आब कारी
 आ र्म
 फ ार्
 इर फान
ं झ
 बन्ध न
ace book
 c an
oun d
 आ ति
 टेली ग्राम
 बी कानेर
 आई जी
U V
 घ ण्ट
ह ब
 नव जात
 अन्तर ्राष्ट्रीय
 ची ख
 I m
im es
In dia
 रा स
प य
 नी ले
लोग ों
४ ६
 दिखा ए
 सूची बद्ध
 वेद ना
 दिश ानिर्
ो ला
 उतार ने
 त ब्दी
  ॐ
 पार ियों
व स
 सुग ंध
 सिक् के
 भ ान
oc ial
 नान क
जा ता
क़ े
 मुर ली
 अ ठ
 पन डु
 ब ची
 न ूर
 खास ा
ru it
 बैक्टी रिया
 श ंक
 चला ए
 ठे के
 जोड़ ें
 इंड ेक्स
 न ू
अंग ्रे
 क्ष मताओं
 मु र्म
 छा पा
ed it
 श्व ेत
 सु धीर
 पार स
 वीर ता
 पाठ शाला
 वि राम
P ost
18 5
३ ८
al e
 अब ू
I N
 रिप ब्लिक
 बि ज़
ar m
 आइ ये
 टा उन
 अंक ुश
ं जा
 वृ त्त
 घ ब
 सेना ओं
 ट ्रीट
 वय स्क
 रक् खा
 ल ड़े
 क्व ाली
 र स्सी
ित ्या
 परि दृश्य
R aj
्मी कि
या नी
 क्र ान्ति
िस्ट र
का उ
 नाय डू
 अप कमिंग
 घट कर
ाइ लों
रा चार्य
 अंग्रे ज़ी
 गैंग स्टर
 वा कई
 म ति
त ह
 कार खाने
जी वी
 निरा करण
 आर टी
 ल ां
ौ ला
ड़ ो
िल र
कार ो
 कांग ्रेसी
 म ीर
 सुल भ
 आ जीविका
 उपयोग कर्ताओं
 प्र वास
ाप े
 तुम को
 अलै हि
था त्
 माइ कल
्री मो
ाह ियों
-प त्नी
 चित्र ों
 श िला
 पत ली
 अह सास
 परफॉ र्मेंस
ख िक
ख ेज
 व्यव धान
 पृथ िवी
 बि ख
बे स
 स् नै
 भ ड़
 दवा एं
 न ैन
श्य ोर
 सु ने
 कर् त्तव्य
व स्तु
 म ता
 चतुर्व ेदी
ंस िल
 जुट ाने
प्ताह िक
अ भ
 व्ही ल
 भ लाई
न्ह ोने
 फ़ ॉ
ौ किक
 च ॉक
 इमार तों
 कि ला
 स्था ई
 ब गी
 आई एम
 काउ ंटर
 पूँ जी
 द्व ि
हि मा
 T r
 र मन
ूल न
वै से
 दीपा वली
 खा सी
क़ ी
 वे ट
 निकाल ना
 पीयू ष
 पी टा
 भ ाल
 C ent
 मिथ्या त्व
 भु गत
 बस ें
स्था पन
भि षेक
 बने गी
 चैन लों
 कन्ह ैया
ज ूर
र्म न
 भेज कर
 S am
 व्हाट्स एप
 उ बर
 डे रा
द या
 गिरा या
वाह क
स ै
 बाल ू
 न ट
 बढ़ ना
 A s
 पव ेलियन
 M e
 इसी लिये
हे ब
संग त
 राज े
र्या प्त
 मै नु
आर एफ
 प द्मा
म्ब न
 द्र विड़
च ाना
राह ट
 V ideo
in t
ंद्र ह
 एम ए
न ें
प् पू
 घ िरा
ाइ श
 लगे गी
 नमू ने
 सांप्र दायिक
 S u
 अनु ष्ठान
 उद्ध ार
 चर ित
 परि माण
 हर िया
-आ धारित
 ल हरा
 गोल्ड न
 पिछ ड़े
श ित
 व्य ू
क् साइड
 एक ान्त
बिल िटी
स ोस
 एंड्र ॉ
 कै दी
विक ास
ौर न
 खोल कर
 सुन ना
नि टी
स्क ्यू
14 4
 मुना फा
 इंट ेल
म यी
आई एस
 करो ड
ह ों
 कौ शिक
os e
 इस्ती फे
 भंड ारण
  ف
 थी म
 योग ा
कां क्षी
 ल पेट
 चार ्ट
 बद नाम
 ब ्ले
 स्टी व
O S
 कु टु
ाय ु
 t echnology
hat t
ओ सी
३ ७
ल ें
 डिट ेल
 वज ्र
 बह ने
c on
 पा द
 ल ाला
 पि घ
 गरि मा
 डे ली
 स गाई
 मा ओ
 हटा कर
 ढां चा
 नोट बंदी
म ोर
 मेघ ालय
गा ड़ी
 का टा
ज्ज त
ंग ली
 सि न्ध
ड ान
 ना टकों
 बे चा
सि टी
 पो शाक
 पा वन
ले वा
 सद ियों
 मार ्ट
ृ श
 खुद रा
 बा बत
च र्या
कार ्
c k
 व ॉट
as hi
 सूर्य कुमार
 पढ़ ी
द याल
 गड करी
ड़ कर
 ह ाय
 निर् वाह
मु न
ख्या न
 याद गार
 दाम ों
 श्रा वक
लर ाम
 आदि वासियों
 तो ह
ुर ाम
 अस ु
 प्राइ मरी
उस के
या ँ
प ्ल
ानु मान
ज ैन
 सिग रेट
 ते ज़ी
 अधिव ेशन
 अन ार
क िर
ल्ल भ
 न न्द
 उद्ध ृत
 बरत ने
त ूस
 वि दा
मूल ्य
 g ov
 आईपी एस
 घोट ाला
 मुद्रा स्फीति
D A
 जनजा तीय
र् ता
फे यर
o ard
 निरूप ण
 ऊंच े
म ं
 परीक्षा एं
वा ड
ध ्यान
 घट ित
 क तार
 फर् नीचर
 सम्बंध ित
श्चा त्य
दि मीर
 अंतर िम
 निर् भ
अ ग
 प्रास ंगिक
 अ ड़
 W e
 ते रह
- कर
नी ज
 रै ना
चाल ित
त्व िक
पा ठ
 प्रमाण पत्र
 मै ग्
 ख ांसी
 र ीड
चित ्त
ब ुक
 गयी ं
 बता कर
 त ारों
नि वास
 अनुप मा
 सिंध ु
 ब्र ॉड
स्ट्र ॉल
ो त्तम
 निवेश क
ि ताओं
 टो पी
 वकी लों
हा इड
 सक् सेना
राज्य पाल
 चार ो
म् पर
 आश्व स्त
 छो ड़ी
 सनराइ जर्स
 प्रश ास
 इंग ित
टर िंग
 ब्ला क
 का ँ
 गाय त्री
कु ट
 हड्ड ियों
मित ि
श ेद
 सी बीएसई
 पी ते
ग र्
 पी टर
S P
 मै री
 सार्व भौ
मान ुसार
ज ाल
 सजा वट
ं छ
 मह म
 रु झ
ब ों
 मुस्क ान
y s
 शे खर
 रेस्ट ोरेंट
वि द
 पात्र ता
 I I
 मु द्र
 खुला से
 सैय द
 म सी
संच ार
. .

प् ली
 क च्चा
 ख याल
िश ्र
 कै री
 महा काव्य
 ख दान
ुप ्र
 कै म्प
 चिह्न ित
 पार् श्व
 इन् वेस्ट
 द यान
 प्र चुर
 डेट िंग
 आश्र ित
 पे र
ोध न
 प्ले इंग
 लो कार्प
 त बा
 टी जर
 रूप से
 म रे
 रिज़ र्व
maz on
व ्व
 तो ड़ा
 ऊँ चा
 ताल िका
ज हाँ
 ग ियर
 अव स्थ
-च ढ़ा
 मौ तों
 एड वांस
 क स्टम
 ब्रा जील
ला भ
 चाह ने
ंध े
े बल
व िस
 म ाली
 मु ल्क
 वि ख्यात
 एंटर टेनमेंट
 मुजफ्फर पुर
 R s
 र ोट
 प्रजा तियों
 सजा या
ि ंक
 विक ृत
 अनु भाग
ंस ल
 बैठ ते
m it
 जु न
 कार तूस
को व
 शुभ मन
 बेसब ्री
 बिज़ नेस
 अ म्
 अल ंकार
 चा दर
 अंग्रे ज
कान ्त
 दर्शा या
 कच रा
 पार्ट ियां
 a pp
 मुह िम
ों में
 कार्य क्षेत्र
ले क्स
मह िला
ख ला
ए जेंसी
, ,
 चिकित्स ालय
 महा काल
 अभि मान
 ना टो
 वर दान
व िया
 वगैर ह
 सीआरपी एफ
 बे स्ड
िश ियन
 एन एस
 m in
 जरुर त
 चिं तन
 राशि द
त्म ्य
न्व ित
 y our
 गुला बी
ज िंग
 नाज ुक
 दिखा ता
-साम ने
 चे किंग
 डॉ ट
18 9
 स्वर् गीय
श्योर ेंस
 ज्व ेल
 निकल ती
 निष् क्रिय
 उत्स ुक
 सम् बद्ध
मान व
 पा ट
 मिट ा
 सर लता
 गा ड़ियां
 जेडी यू
o ol
फ ना
 स्ट ्रे
 चि राग
un g
 प छ
 अद रक
 पुज ारा
  أ
 स टे
 दुकान दारों
 द बो
 का बुल
 ऑ ड
 नी द
अ च्छा
 देश मुख
१९ ६
 आन न
 आगा ज
ांक ित
ार ायण
 आ धुन
 निभा ते
 मुर्म ू
 प्र ज्ञा
 का स
है ं
ब ोट
 झा ड़
 सि राज
 संभावना ओं
 विवे चना
 अ ँ
इ ये
 च न्द
 प्रगति शील
 दी वान
री ना
 करने से
 H ealth
 सा ध्य
 कोय ले
 चोट िल
च्छ े
 शु ष्क
 खरी दे
 गि रे
s o
 प्र ां
 जेट ली
 जमी नी
 पढ़ ाने
 प्रोडक्ट ्स
 सम कक्ष
ंब े
 नि जात
-प श्चिम
 ताइ वान
 लग ्
य ्या
 ब लराम
 रे स्क्यू
 अभ िला
त्त ियां
 उत्स र्जन
 नि रोध
 के सर
 मु क
 मै ट
 नौ का
 उल्ट ा
श ांत
ो र्टर
. अ
दो नों
 प्राइ म
 प्र ज
 पि स्टल
 ता बड़
 ent ert
 एक नाथ
 र ंज
हि न्दी
 बंद ी
 पेट्रोल ियम
 मिस ाल
 लोकार्प ण
चार े
 भो ले
 प्रस व
. com
महारा ष्ट्र
 मान ती
डी ह
व ामा
टी म
 ह फ्त
 सतर्क ता
 डॉ क्यूमेंट
जै सा
 एन टी
 म सा
वि टी
वि जय
 ट च
ंट ्स
 म णि
 कर ुण
 I ST
 पट िया
 चल न
वाहा टी
 सा प्ताहिक
 साम ्य
 हु क्म
राय पुर
 र क्षक
 चु प्पी
 अब् बास
 प त्तियों
सु म
 एन डी
 दम कल
 धमा केदार
 उक सा
 नि न्दा
 अनुमो दन
 पू र
 मज़ बूत
 र ं
डि़ यों
 छ ठी
 मार् शल
 लौ किक
 य ी
 आरोपित ों
ज िला
 मान ों
 उठ ते
 ग्रे ट
 त मा
क मान
४ ५
 बह ाली
  ra
 कां फ्रेंस
 entert ainment
 केदार नाथ
 पहलवान ों
 फॉर्म ेट
 ज ्या
 An d
 मन रेगा
 उल ्टी
 उपन िवेश
 वर न्
 डॉ क्टर्स
 मु म्बई
 मंद ी
 भा प
ोल ॉजिस्ट
 फड णवीस
  im
थर ूम
17 0
oc k
 श्म शान
i x
न री
 पह नी
 कंटे नर
 ख़ु द
 म र्डर
स रे
 मह क
 स ँ
 नोट ों
 हा श
 स्क्रीन िंग
 सी मेंट
ठ ान
 चिन्ह ित
ir us
 मुरा दाबाद
 कंडी शन
 पौ धा
 तब्दी ल
- ना
 दुख द
ज ाना
ला प
ता जा
 आइट म
D elhi
ग ंगा
ती र्ण
 अप ूर्व
ग रा
 पी पी
 सम कालीन
 सो ते
 खु दाई
tt ar
 विमान न
 मस ाला
 अ च
 ट्रांस पोर्ट
 बर् खास्त
 पृथ्वी राज
 मा थे
 न स्ल
 राज नेता
 कैंप स
ट िन
 गुण स्थान
 प धार
 थ ्र
ज़ ोर
 खा दी
 पूछ ते
 व ेंट
 रि हाई
 मानस िकता
 हु क
 बता ये
 वि स्म
 अस त्य
 ति ब्बत
 भ त्ता
धी य
 महार ानी
 जे ई
 चैलेंज र्स
च िंग
 मुख ्तार
- व्यवस्था
ू फ
 डी पी
 ताबड़ तोड़
os c
ब ्वे
 पत् थ
ाल ैंड
 स्वाय त्त
 अं बे
 ए त
सा धारण
 सुधार ों
 ऋ ग्वेद
जा ति
 सु म
 थाना ध्यक्ष
 ग्रो थ
 चॉक लेट
? "

ज तन
स र्ग
 प ंद्रह
ाय िक
 जिस पर
 ड ्रा
 अ राज
ष कों
द ूसरे
 अं किता
ान्त िक
 क सा
 उ ब
 क्र ो
 ईमान दार
 खु दा
 ज ह
 अ खा
 लग वा
 ख ेद
 जी ना
 व क्ता
 बा ण
r on
 श र्ट
12 8
 वा स्ते
 मूल भूत
 टै क्सी
सि फ
 ए म्ब
us tr
ग ार्ड
 स्ट ाइ
 कि चन
हि ंद
व ार्ता
 माधु री
 फ हरा
ख लन
 तबा ही
व धि
गु ज
 थ ानों
 विन म्र
 उर् फी
 दू त
 चो टी
 क्ष ी
 जानकार ियां
20 3
s k
 क्वि ंटल
दि रा
 बुला ने
 भा टिया
 सुस ज्जित
 फ ौ
 B A
कार ्ड
 अ मान
 क़ान ून
 सक ने
 सं जू
 प्र पत्र
 अप ्लाई
उ द
१९ १
 प क्की
 कव च
 पथ राव
्र ाह
 यौ ग
 ग्ल ै
ड ियन
 ब्रा उन
 घर वालों
 राम चन्द्र
 तोड़ फोड़
 बंध क
- को
 नाय िका
 जरूर तम
 कांस ्य
एफ आई
 कठिना इयों
 हफ्त ों
 सुल झाने
] 

 कोले स्ट्रॉल
 ब ्या
 ज्ञ ा
 कैटे गरी
 स ग
 उद ास
 के बल
 पि ंक
 विरोध ियों
 अनिय ंत्रित
 खे र
 K ap
 भा गे
 छिप े
in k
A l
त नी
 इला का
द्र िक
 बाद ाम
 अदा कारा
उन के
 उत्तरा धिकारी
 दलित ों
 हो न
 साम ्
 मुश्किल ें
 नती जों
 ध ामी
 ग्रे टर
 मधु मेह
 उ ष्ण
 ले टर
 जाय ँ
 उ खा
ाल ियन
 भूप ेंद्र
 पाल तू
 महा जन
 ग ेल
 आय ोज
जी के
ची नी
 पुरुष ार्थ
 पीएच डी
ist an
हि न्द
ेश ्वरी
U S
 औ स
 अन् वे
 झ ांसी
 यू के
 I t
 क्ल िप
 लिव र
 प्रभा त
- देन
 संग त
 पहन ना
 लेफ्ट िनेंट
ब रेली
भग वान
et t
 कृत ्य
 सुष मा
 जान लेवा
 कान ों
-छात्रा ओं
ै प
साम ान्य
श रीर
 मा ई
 करने की
स्ट ्रा
 जस प्रीत
 पाण्ड ेय
य ोजना
 धूम धाम
 पी ला
A r
 कि न्न
an j
 अ कृ
 ध्व ज
en er
 अ सीम
 फ़ ्र
 हॉ स्टल
 मुस्क ुरा
 प्रश स्त
 सन्द र्भ
 जय शंकर
 नार द
म ृत
 कल श
 पॉ ली
 प्रश ंसक
 गू ंज
 स् ली
 अर बी
 इरा दे
 करिश् मा
 पे टी
 शो भ
 ह टने
 म ज़ा
 मां झी
 सहार नपुर
4 50
ान ्वित
 वि दित
 आवेद क
 बट ोर
 कर ूँ
 राइ फल
 दुर् बल
स्ट्र क्चर
 श्रेय स
 च ड्ढा
ik e
 मोह ल्ले
 घ टी
 क्रिया न्वयन
 अके ली
षा द
 पूर्व ानुमान
 फ्रेंच ाइजी
 भव नों
 आर जेडी
 शिव म
से फ
स म्
 वाइ स
 कि फ
 डेम ोक
 न शी
th an
ruit ment
आ ला
 छो ड़े
वो केट
 मय ंक
लि ता
माण ्ड
 फ्लोर िडा
f er
प ोरेशन
णा त्मक
ि ंट
 पुनर् वास
 क यास
 घूम ते
 मक् खन
 एन जी
 चाली स
 भ ट
 पक वान
 वास ु
 ध माल
 ह र्
से प्ट
 बा थरूम
न यी
. प्र
 उप कार
 दा वों
 अमे जन
 गह ने
 दस वीं
 प िक्
ज्ञ ानी
 रिय लिटी
 नमू ना
ग्रे ड
नी स
 अस मान
प्ले क्स
- भा
 ह ृ
ले क्सी
M C
 गर् भा
स् कों
 नि बंध
 कंटे स्टेंट
 को ण
 बन ें
R I
 वृ श्चिक
अ ंदाज
प्रत्य ेक
 छ क्का
 व ंद
 ऊँ ची
चा ने
 अनुभव ों
 प टक
 दें गी
ग् ग
 हवा ओं
 विप णन
रे क्टर
 वे दान्त
pr ess
 देश वासियों
ब म
 वि निर्माण
 खा ँ
 बुद्धि मान
 जब तक
 बारा त
ां ड
 शाखा ओं
 पार्थ िव
गी ता
 सि द्दी
C oron
 पा श्चात्य
 रिक वरी
" ।

 न िस
 शिव पाल
 थ र
 एस एस
 सब्ज ियां
 भा ष्य
िव र
 नै नी
 त स
 पंच ायती
 ख ्
o o
le ct
 राम देव
B A
 सिद्धान्त ों
 रो हत
 हि ना
 फिज िकल
 नजदी की
 कर ाये
गु ना
 F acebook
 सा वंत
 be en
ह ानि
 क्र य
 स लीम
 विवे कान
 औ ऱ
 से टिंग
 सो लर
अ न्य
 ए ग्री
 प िन
 साध ते
 प्र क्षेप
श्र य
 तुम्ह े
 भय भीत
चुर ल
 द खल
 स ूप
 ने पाली
 नौकर ियों
 शु क्रिया
1 12
 रंग ीन
प श्चा
 भग वंत
 अशु द्ध
 सुनी ता
 सिं हासन
र म
 झू ठा
Post ed
 डी ए
 पा व
श ाल
 प सीना
 ब करी
 दिख ायी
 बंग ला
 ट ंडन
 सम ेट
 प्रसं स्करण
्य ूर
 प्रति वर्ष
 रू ढ़
 बढ ा
ेल ो
 साइ ज
 छुट्ट ियों
 एल ईडी
ान गर
रा त्र
म ौर
 लग ेंगे
गौर तलब
 ज िया
 चि द
 तकनी कों
 मु काम
 व ियोग
ॉ इन
ा दि
 मा पद
 सैम संग
 द ुरुस्त
 रस ूल
 कै ंट
 किय ारा
 त ं
 क्लीन िकल
 भ ड़का
 बा ते
रेट िव
 पारि स्थित
 चू र्ण
 स लाद
खी मपुर
 सेना पति
 स्टार र
r al
 शब् दा
 स ॉल
ते श्वर
 पर ख
 अंक ुर
 बन वाया
 कांग ड़ा
 शी ल
 स्ट ाल
 बढ़ा ता
 है स
 अश्व िनी
 आंध ी
 अंबे डकर
 धन बाद
 फेड रेशन
 कर वाना
ार् ध
 वि वि
 T oday
व श्यक
. "
 च टका
 K umar
 वि दाई
 को षा
 फ्ल ू
 इं श्योरेंस
६ ६
 भव ति
ग ै
स्ट ी
 सम्य क्त्व
कार ्ट
 मि स्टर
 बे ग
- एन
 बी बी
 नगर पालिका
 से फ्टी
 जान बूझकर
 पी डि़
 शिल ाले
 नैतिक ता
ब ामा
 कोल ंब
 S m
 घट कों
ुल न
 वर्ष ो
 प्रति रक्षा
बॉ क्स
 आज़ा दी
डी एस
फ़ो र्निया
 आ हत
 आपात कालीन
र र
 द ंगों
 ल ाये
 अभ ूत
 प्रौ द्योगिक
" :
 कैल ेंडर
 बी वी
 वक्त व्य
ला ने
 कु श्ती
 अस म्भव
ंज य
 हाइड्र ोजन
 सम्य क्
 कारा वास
 नती जतन
स त्ता
 ग ानों
 विशेष ण
ub lic
 द ांतों
 फेंक ने
ुत ोष
 ध ्य
 वि व
 एस बीआई
 बह ुल
 लि फ्ट
 रिप ोर्टर
U R
 का लोनी
 कक्षा ओं
 ह जारी
 जी रो
न्न ू
 डाल ता
 व ंदे
 या न
it s
 विध िव
 भ िज
 मा घ
 अ रि
ले टर
 जवाहर लाल
 फं क्शन
 पुर ूष
 कार्य ो
उस ने
-वि मर्श
क् कत
 विद्य ु
 अनु यायी
 बा गी
 गो पी
 प्रभाव ों
 मी ठा
 निक ो
िन र
 ट्रि ब्यू
 काउंस लिंग
 चार्ज शीट
 सा पेक्ष
 Shar ma
ें ग
ॉ रिटी
 h r
 ब ाली
 मॉ नि
 व काल
 एल न
ह ट
 रो ष
 बोल ती
 मा दक
 झ र
 ड कै
 याचिका कर्ता
 रि फ
ख ान
ह ार्
 डे ड
 c l
 शोध कर्ताओं
 गुजर ने
 फ़े सबुक
 लु टे
्र ार
 क वाय
भ े
 मैनु अल
 अ माव
 ए लो
 फ ेक
स् सा
िश नल
 पॉ वर
r at
 ए पी
्व ाह
 अ ंडा
 दब ंग
म णि
 उप क्रम
 पार दर्शी
 सॉ न्ग
 प िप
 ध ड़क
 भाग लपुर
 डि स्ट्र
f t
य ार
 स ों
 औस तन
 सा हेब
 आख ़
हर ों
 नाम ी
 अ विश्वास
 कर ै
 री वा
 जान कारियों
 वि चारा
ब् बा
 रि स्प
 भ ास
 हो ट
 मू ंग
 द ्रो
 लो को
 किताब ों
र िट
 रिट ेल
शेद पुर
 कप ास
 ख़ ान
 अग्र सर
l es
 प ्यास
 बुजुर्ग ों
 एन आईए
 भ स्म
रि ंदर
 फ िक्स
मी डिया
त्य क्ष
 यूए ई
 संभावना एं
 मो ल
में स
पा त्र
 न्यू ट्र
 पाल क
 प्ले स
 अम ूल
 म स्तक
िक्र मा
 ग्रेजुए ट
k ar
 प्रजा ति
 तुलसी दास
त त्त्व
म िट
म ंच
 साक्षा त्
 बंग ाली
 मध्य स्थ
 महारा णा
 दू षित
-अप नी
 अ ँग
िए टिव
 स्व राज
 निकल ना
 आश्चर्य जनक
 ख ंग
 पी ली
 प िया
स्म िक
 समझ ी
जर त
 झ ुल
 प त्तों
प श्चिम
 से क्रे
 झ ंडी
 शू द्र
 मो म
 भ ण्ड
 मु ंडा
 ता लम
 परिव ेश
 इंटेल िज
ओ वर
 प्रती ति
धि ष्ठ
काय दा
ick et
ा ा
 म सू
ग्रा उंड
शा द
 धार क
ोल ो
 कॉर्प ोरेट
स्थ ानी
 देहा त
 क षाय
p le
 उप राष्ट्रपति
 ए नी
ंक ू
४ ७
 बि ठा
 एड वोकेट
जे ब
िंग र
 ऊँ चे
 महा प्र
 अभ िया
 र चित
 त ड़के
 हो ग
 मले शिया
 घ ों
 स भाग
 रा शियों
ag ram
 न ाला
प र्स
 हा वी
 इ ंप
 ई शा
द ृष्ट
 अप्र त्या
प ्टर
- भाव
स िन
 कार ्ट
 शिव पुरी
 वाल ो
 सं क्र
 पी एस
ाल ो
 बि छा
 एक् सेस
 मे ज
 अ छ
श्व त
झ ार
 व्ला दिमीर
ो रे
 क लेक्ट
 ड रा
च्च ि
िड ेंट
ट ाइ
 मे टा
 च ंप
 आ घात
 बिता ने
 जिम्म े
Ph one
 क त
 बद ली
 पे ड
 रूप में
ार िक
द्र ोही
 यु गल
 क्रू ज
 सर्व ज्ञ
 अ चल
ब् बी
न्त्र ण
 लैंड िंग
ण क्य
-प्र दान
सं युक्त
- '
ाय ो
एच सी
 एक्स ट
 अप्र िय
 बीमार ियां
 O ff
 वै वाहिक
 रही म
 अक ाली
e op
 वै शाली
 तालम ेल
 त आला
स्ट ो
 वकाल त
सा त
 उठ ती
 अश र
ज िक
 तर ुण
 हस्त ियों
 अनदे खी
 कब ूल
10 1
 मं शा
स ंत
- का
 प्रारम्भ िक
 मु बार
ग ्रेस
11 7
 सा ंग
ए ब
 प्रव चन
 कैलि फ़ोर्निया
 सन्त ोष
ज़ ारों
स्क ्रीन
ष् कृत
E O
मे ड
 स चेत
 शु मार
 माइ क्र
 रव ैया
 समर्थ ित
ार् पण
- जन
 सं विदा
र्म ित
 वाह क
त् तन
 ध रो
 दर ार
ht t
 हि जाब
 S erv
 श कु
 वि घ
 सिक् किम
इस में
 चु नी
 पाय दान
 चुन ें
 ढ ूँ
 मूर् तियों
न् त्री
 h tt
 ब स्त
 विभ क्त
 गो विन्द
l and
 बा ड़
 अव साद
बी टी
 स्तन पान
 हि द
 के ले
ब ां
 नजर अंदाज
 अ ंप
स् ला
 क्ला सिक
च ू
 सौ दे
 डिप्लो मा
हा उ
us s
 यून ानी
 श ंख
 क्लीन िंग
त्त रा
 पल क
 शह नाज
 ग न्ने
 भ ैर
 प्रेम ियों
 क दर
 तीर्थ ंकर
लग भग
 ए आई
 रे सल
 सर स
 डि ब्बे
 पर मार
 बिंद ुओं
 सि प
आ दि
 उ ड़ी
 कल म
 म म्मी
 अव श
 म िज
 चीज़ ों
 अना दि
 मा थ
( ख
काउ ंटर
iss ion
 रख नी
क पा
 पूछ ना
  ar
-निर् देश
 भ द्र
 कवाय द
 कम रों
ज ्यो
 मिस ाइलों
 पुराण ों
 गो बर
 भग वती
ह ुआ
 स्व ीड
 वर् दी
टी ना
il d
फ्रा स्ट्रक्चर
 किफ ायती
 वीक ेंड
ं ती
 दिख ते
वर् त
ियोग ्रा
 स ैंड
 साब ुन
 शादी शुदा
 बोल ता
 कै ट
र ेंस
 सिग् नल
 पॉ इंट
.... ....
 ऐश्व र्य
10 5
 की मती
 मश रूम
ज ेट
 त ारे
 प्रतिभा शाली
le ase
पी र
 फट कार
 सी क्
 सर् ज
क ौ
 घ ोल
स्ट र्स
it ion
ज ाय
 साम ग्र
एन एन
 च ूह
 फार् मा
 दी जिये
 पु रात
४ ८
ग ता
व कों
-चढ़ा व
 ब िश्
 ऊ ना
 फाल ्
 ग ान
 व्य ु
बा त
 दृ ढ
 चौड़ा ई
हत िया
 राइड र्स
 यू थ
 प्रश् ना
 त लब
 छा ए
 मुकाब लों
 हि स्ट्री
 ध ुन
 क्रिया ओं
 एसटी एफ
ण ित
 देश भक्ति
भि ः
 का ंच
रो प
 वाल ्मीकि
 प्रो मो
 माय के
 म ण्ड
क र्मा
 प्रभ ास
 परंपरा गत
स्ट ा
 पा एं
 दु र्व
-ए क्स
ौ टी
 अ म्ब
वा ब
 A mazon
 शत्र ुओं
 ज्व ाल
t en
j ect
 क्रांतिक ारी
 द ाने
 निर्वा ण
 समाय ोजित
 चाइ ल्ड
e ed
 मश क्कत
j ab
 की ट
our t
 आई फोन
 सद् भाव
े गा
 पुल वामा
 ट्रां सम
ॉ न्स
आर आई
w ard
 पूर्व वर्ती
 एडम िन
चित ्य
 स्व चालित
 अने कों
ारोप ण
 सं शय
ज ्म
ग ों
 को स
घ न
 अस्वी कार
 त ग
 त नु
 सं ब
 कि स्त
 महा संघ
 ऑ र
ब िर
 अर् द्ध
ट् ठी
 नम ्र
अ भि
 बना यी
स ंद
 भर ना
 ग ोक
 बे र
 गो ले
 जर ुरी
म ोल
 ल ंका
 अ काल
 दर् जे
 वि फलता
वे ली
िय ोज
 अभूत पूर्व
 क फ
भ ्यास
 सेले ब्स
 फ ्यू
को ष
 दूर संचार
 नि वृत्ति
 नि षाद
u ct
 दे साई
 आश ुतोष
 जॉन सन
 द्व ा
 कालि दास
 धमा का
 रा वल
 डि जी
 आव रण
रो धी
 अनुप स्थिति
स् के
परि णाम
. जन
 यहू दी
द्व ेष
 ठ ंडी
 डॉ न
 आ न्तर
 पह चाना
ई सी
 लो का
 सम ाह
क्र ाफ्ट
ंटी न
म ित्र
 विक लांग
 सुर्ख ियां
l ish
 रुक ने
 सामान्य तः
न िंग
 कोश िका
 स्पर् धा
 सि ंड
म ंगल
 ख िस
 पै केट
 थ ाम
ंज स्य
अ धिक
 आ जीवन
 फेल ो
 मॉ स्को
व नाधिकार
 आ ड़
म िस
 कहला ते
 ग द्दी
 कुशल ता
 ल ची
 बह ती
ब ड़ा
 गाज र
 ह सीना
 क्षी ण
g arh
- काल
वा ण
 वी र्य
 कट ि
शोध न
 रिव ्यू
 होने वाले
L C
 भ ूट
 इजराय ल
स ंस
 ग गन
 सह वाग
 मान्य त्
 दया ल
वनाधिकार ों
 मान्यत् ाा
 अ मुक
 ली जिये
 जीव नी
 भया वह
our ce
िर ाम
 कम लेश
 अ ड्डा
 व्यवसाय ी
 ढ े
 व्या कुल
 प्रतियोग ी
 वृष भ
 उज ाला
 य ोजन
 राज कुमारी
ता ई
ent s
 यो नि
 प्र विष्ट
 य ंग
 राठ ौर
 वा ट
 सा ग
 घे रा
िट न
 p er
अमे रिका
-छ ोटी
 ग्लै मर
 डिट े
 का जल
 मह ेन्द्र
 अप्र त्यक्ष
 एड िटर
ोर म
 सुर ंग
 जाग ृत
्र िक
 ल ार
 लाइ ब्रे
 खो द
 रिया सत
 सू चक
 फ्ल ॉप
 श्रा द्ध
रि डोर
 नगरी य
 Res ult
स् का
 द हन
ना य
P F
 दिन भर
ध ियाना
- देव
 मना ते
दूस री
 L e
कि शोर
 स्टो क्स
 स्कू टी
 ज ्ये
 प डा
 wh o
 दी दी
 स र्ग
ोड़ ों
 स रोज
 इको न
म्बा ब्वे
- मा
 क ों
पो रेट
 ए स्टेट
 तत् पश्चा
 बू ंद
 राज भवन
 दर् पण
 कम्प ्यूटर
 होने के
 भ ानु
ad e
त्प त्ति
ो ब
ता ना
ि न्
 का ल्प
बे री
 झ ंडे
 सुन ो
ab ad
 र क्ष
 उत् तीर्ण
 मौ खिक
 आ टे
 ले ग
 भ ई
द्व ा
 भै ंस
as than
 फ़िल्म ों
न् हीं
सू सी
 जय ंत
 प न्ना
 पोल ैंड
हा ड़
 रे सि
 गाइड लाइन
आईपी एल
भ िन्न
 करने वाली
 सुदृ ढ़
- रात
 ट्रीट मेंट
 हो वे
 c r
 म िया
- "
 CO VID
 व्यंग ्य
ण ाली
 न वनि
 पर िक्रमा
 s up
 कहान ियां
 सु दूर
 ध ्या
18 6
 ए ण्ड
 फा उंडर
 स्वयंसे वक
 महम ूद
 ग ैल
 य त्न
 कर ूं
 जिज्ञ ासा
 मे हर
 जि न्दगी
 शि थिल
 प्रधान ता
 मोह ल्ला
 आदम ियों
 नि शा
 पी पल
 ओपन र
 कारी गर
 म ित
 P sy
अर् थात्
तर फा
 प ल्ल
 द्रव्य मान
िक ल्स
 धमा के
 फोटो शूट
 नी ला
 च ढ
 यू जी
 ईवी एम
दिव सीय
ाय र्ड
- भर
 सीख ना
 हिद ायत
 प प्पू
 अफ़ ग़
 बी र
 राष्ट्र वादी
ि ंदर
िम ल
 हिंद ु
 अवि नाश
 वैल ्यू
 A ct
 त ्यों
 स्वाधीन ता
 र ान
ॉज िकल
C S
 कु त्ता
 बाइ डेन
 असु विधा
 लगा ता
 एयर टेल
 डिप ्रेशन
 जै केट
सम ूह
 नेता जी
 कच रे
 अमाव स्या
 क ति
्रा व
भ ंगा
A A
 हेल मेट
 अ योग्य
जय पुर
 B ank
 तु र्क
 मल बे
ो ना
 ग वाही
 ख ौफ
ुक ूल
ुर ि
 विज्ञ प्ति
 तेलु गु
 इंटेलिज ेंस
 खा एं
 इक बाल
 सुचार ू
 मा उंट
ल ने
 ढ क
 टा वर
 कला त्मक
 पत्थ रों
 सर्टिफ िकेशन
 ब ंसल
 अप र्याप्त
 स ॉस
 मे ट्र
दक्षि ण
 सें टी
t i
 गर ज
 काउ ंटी
 सु गम
मो बाइल
 सोच कर
 Go ogle
त िल
श ्याम
विश्व सनीय
or n
 विक्रे ता
 A ir
 ओम िक्र
 पंच ा
 निय मानुसार
 स्ट ेन
 पाए गी
 सु वर्ण
ष् प
 रुप यों
 धीर ज
 गु वाहाटी
 शास कों
 इ ज्जत
 पो त
 नि भ
 P re
 मॉड ्यूल
 म क्का
 निम ंत्रण
 Rec ruitment
 रो ते
 क्व ा
 स री
 ज ड़ी
 सू खी
 म र्म
 बिश् नोई
er ic
 र मा
 जि ने
 जा सूसी
 फ ेज
क्यों कि
 अंप ायर
 दो हा
 बै चल
 बै रल
 म ्
ज म्मू
 नि ता
 डेमोक ्रेट
र ूस
 अन शन
 बॉ म्बे
 कर ोगे
 जबरद स्ती
 ख ्वा
ान ्स
-क ौन
ार् जन
 D ev
 म वेश
 मुताबिक ़
 कारोबार ियों
 वेश ्या
१९ ०
त ून
 दिशा ओं
 सुप ्रीमो
 C up
 पूर्ण तया
 उम्मीद ें
 बैल ेंस
 धूम ्र
 प्र ेष
( क
oun t
 आइड िया
त् ल
 राम नाथ
 सिखा या
 म िर
 पा टी
 ट ाई
 क सर
एम ई
 पं ख
all y
 इस् पात
 विष म
 इंत ज़ार
 ई र्ष
 ज़ ाहिर
 ला ता
 रा फेल
 लम् बा
 नक्स ल
 Tra vel
 काल्प निक
 भती जे
 फ ौरन
i an
ल् ज
 ल खीमपुर
 सै र
 मी ट
 हमला वरों
 गड् ढे
 अन जान
 खंड न
 ने गी
ic es
 उत्ते जित
ेट ेड
 ड्र ॉ
 बर् ताव
 वि मर्श
जु की
ने ल
en a
म ाय
 En g
श् मा
 मृत का
 भेज ना
 बट ालियन
 मल्ल िक
 बजा ज
कम ल
 सद ृश
- मन
 सा क्षर
 र ैल
ट कर
के वल
य िता
 सा ख
 क ूप
जा पुर
 फै ट
 प ें
 तु झ
 क टे
) .

नी करण
िप ु
 परिप क्व
 P ar
 मिला ने
ङ् क
 प सी
 ज़ि ंदगी
 वै श्य
 विषय क
 टेली फोन
 श ाप
 कल ह
 न मन
गा ंठ
 गुम राह
 वृ द्धा
क ौन
् ण
ि ज़
 लड़ ते
ध्या पक
 नज ारा
 डी लर
 ग्री ष्म
ो ड़ा
स् खलन
 से रे
क्ट िव
 अम रिंदर
मि ंटन
 कार ्प
 पार दर्शिता
ऊ द
ut ion
 सम्रा ट्
पी ओ
 सैन िट
त् तिक
10 2
 सं कोच
 वय स्कों
 जॉर्ज िया
 ज ्वर
 इण्ड िया
at i
 हाथ ियों
ै ड
सी मा
 साम ंजस्य
 स वे
 पहुंच ना
 एस ओ
 ए श
 ध्य ेय
 ब ूट
दाय ित्व
 कू ड़ा
ग ढ
 फ्ल िप
- बे
 घो ड़ा
 उत्ते जना
्यां मार
 ब ्री
if e
 मह त्ता
क् ड
U r
 नि स्स
स िव
ती करण
 सा वर
 वोल ्ट
 शृ ंगार
ous e
 कदा पि
 मै रिज
 साम रिक
 ट्रांसम िशन
 ब्ला स्ट
 टै ंकर
 गु जार
 पु ख्ता
ग ं
 जान कारों
स्म रण
ड ियम
 In d
 जर् सी
 शी ट
 रेख ांकित
 रजिस्ट ्री
प र्य
म का
 जी र्ण
 कवि ताओं
 राजन यिक
 ज व
ो की
 आन ु
 कार् बो
n ess
as ed
गु णा
 क्लिन िक
 उ तरा
 ऑप ्ट
 इलेक्ट्रॉन िक्स
 सिद्दी की
 को विंद
 टाइ टल
 एकाग्र ता
 इ कल
 अप भ्र
 अभिभाव क
 म स्त
 ओ ह
ॉ र्
 तर ंग
 खतर ों
 दिक् कतों
 दावे दार
 डूब ने
le t
b h
 आक स्मिक
 चु नि
 लॉन् ग
 और ंग
 अ घ
m all
 ब्रे किंग
ली स
 आ भास
 बि हे
 पहुंच ेंगे
 लॉ ग
को श
िप ्स
 प्र ोटे
 जी डीपी
 कार्य भार
 जा धव
 धु ंध
 सह कारिता
ब्राह िम
ear ch
 त्र ास
 लिख ता
 रक्त चाप
 ह वन
५ ६
के त
म ण्डल
 जल्द बाजी
 एन काउंटर
 मित्र ता
 द ाना
 चट र्जी
िप ि
 द ुप
 ओम प्रकाश
 मा ध
 रिप ेयर
 पड़ोस ियों
 पूर्ण ता
 खो कर
y st
ास ु
 चुका ने
 पा च
भ जन
 कदम ों
 र ति
प्र याग
 सि डनी
र्त ग
 से तु
 हो ल्ड
 जम शेदपुर
 रश्म ि
 चतुर्थ ी
ख ानों
 मुबार क
 अग्नि हो
 भा वा
 दौ ड़ा
 स राय
 सन् देश
 उद्यम ियों
 दबा ने
 शा श्वत
सा हित्य
ूँ कि
ित्या ग
र्श ियल
 निस्त ारण
 बे ड़े
it ed
 छोड़ ते
 नाम जद
In dian
 टोक ्यो
ूप ुर
 कल्याण कारी
िका ने
 अ ङ्ग
 वही ँ
 मौत ें
ट ाला
 पा बंदी
 कब् ज
 फरी दाबाद
 बह ाना
 शु द्धि
 बट लर
 सि खाने
इ ं
पी ए
ख बरी
- यू
अ ली
hi p
 छात्रा वास
स ैनिक
 जं क्शन
ो पा
िल ि
संह ार
 प्रकाश क
ंबर म
िर ण
 T V
 थ ोक
जी एम
 अम ृता
 In dian
 मुझ को
मी त
 श िका
फे र
 गोल ियों
 म ित्त
 माल िश
 ब दन
हिमा चल
eop le
ष िक
फी ल्ड
 छि ड़का
 समाज से
 पांच वीं
 प च्च
दी व
 करा ता
 पर सेंट
B S
 सु खा
k a
  ي
 बि न्दु
 दोगु ना
धिष्ठ िर
 श ्या
ोट ल
 ली वर
 अफग ान
का ण्ड
 केके आर
 वार ंट
श क
a har
ख ोर
 आउट फिट
 एक दिवसीय
 भ ून
िय ुक्त
 श्रम ण
 इंडस्ट्री ज
 क्र ा
 अप्रत्या शित
 वह न
 कॉ रिडोर
 रे न
 रुका वट
 ड ीडी
 प तला
 सं तों
 ड ार्क
ो से
 पदो न्नति
 मह बू
 वी तरा
  und
o j
 र ची
an y
 आधार भूत
ख बर
 चौ का
 अन्ध कार
 रिपोर्ट िंग
 बाहु बली
तृ क
 लग न
ि फ़
 आव ेश
न्द्र ह
 मो टर्स
 सघ न
 अध्या देश
अ त
ब िक
 सा ठ
 अंत र्
 ब िप
 सेट अप
 सीक् वल
 औ ौर
 उप मा
लेख क
 षड ्य
 जमी ंद
 साम् प्रदाय
 M P
 सरो वर
 वा क
ब ्रेट
ट ्री
 उ ंगल
मंत्र ियों
R O
श ्यों
 प्राय श्चित
 प्रकार का
 स ज़ा
म्बे डकर
 श ां
 बीएस एफ
घ ोष
 F IR
गुज रात
 सु जुकी
 चला कर
 छ ंद
 जन्म भूमि
 सराह नीय
 विंड ो
 गा जीपुर
क्क न
 बुद्ध िम
ोस िस
 उप महा
 माल वीय
िक ाल
 डर ते
 वे रिफ
 लग ाम
चे री
 अ लेक्
मर ्रा
ोप ड़ी
 गाय न
 टू टी
 E d
ाम ना
श्च िमी
एन एल
 पूर्ण तः
 कन्न ड़
हर ाम
 खड़ गे
.. ...
 एका उंट
osc ope
ह ेज
 कं फ
 ट्रेन ें
ज ग
 पॉल िट
म ूर
 र ॉक
 ढ ोल
 काम गार
 रखे गा
ड ्रा
टे लाइट
a ut
 थ ाली
 प्रतिद्वंद ्वी
 घुस कर
 हार ने
क़ ा
फ़ ्तार
 I S
 दिन ो
 सभाग ार
ज व
 ध ुआ
 कॉ म्
 इस्ल ामाबाद
 निष् का
 उपा दान
ak h
 हर ित
फ ायर
 जा ह्न
 पू ज
मे कर
 वृ त्ता
१९ ७
 ओ बामा
 उन् ही
 घ ू
ंप र्क
ंज लि
 आंगन बाड़ी
शिक्ष ा
 शिक स्त
lo w
 खुश खबरी
 स्क्र िप्ट
 स् प्र
 चमक दार
 बोली ं
 प्रा णा
 ऑ डिट
 कर ूँगा
ू व
 स्व िच
 परेशान ियां
- झ
 सोना क्षी
शी द
४ ४
फो र्स
द िर
un jab
 मै त्री
 ह क़
 ट ॉम
पा ती
 H e
 जा ग्र
मै टिक
 p radesh
 विल क्षण
इस का
श ून्य
 सै द्ध
 पड ता
 दोहरा या
ख ारी
 ट िम
जा द
 लाभ ान्वित
 वॉ र्नर
 नाश् ता
ro w
 में बर
 आन्तर िक
 समझ ती
 नीद रलैंड
-ब ड़ी
-श ोर
 ड िव
 साहित्य कार
 अध्या पकों
क र्ण
ाम ित्र
 - --
 गुर् दे
ा धिकार
 सा ँस
 अ ंचल
बा बू
 पै लेस
 अशर फ
य ज्ञ
देश िक
 खुर ाना
 ल ंच
 कि ं
 कान ्
 Kap oor
 लग ना
at ive
 तीन ो
 अथ ॉरिटी
 बांट ा
 माइ क
 ध रा
 पैदा वार
 जन् मे
 साइकोल ॉजी
 जाह्न वी
ध ्
न् सी
 गिर कर
प त्ति
 ड िश
 ए हतिया
 य त्र
 सीएम ओ
 Pol ice
डी एम
 ई श्व
 पेश ा
थ ्य
 द ंग
 सांस ारिक
 प्रभ ुत्व
 सौर व
 मृ ग
 व िले
 ढ ाँ
 दु रा
 दश रथ
ार् द्ध
 खा तिर
 सम ्व
 पर मान
च्छ िक
 M S
 आइसो लेशन
 रिच र्ड
 पर िकल्प
व िव
 अव स्थित
ोल िक
 बेट ों
 Y ou
 से ल्फ
ुक ुल
 भि गो
 करा ती
 जी भ
-स फाई
 अन न्या
 बु ढ़
 शही दों
 पशुप ालन
 हे मा
ग ौ
 श्र ॉफ
ow er
 स ङ्
 मन में
 क़ रीब
दि नी
 नवा ज
 च िट
 बन वाने
 अम रावती
 करा एं
 व सीम
ि ंस
 अल वर
स्ट्र क्शन
 च श्मा
ट ्रे
 स जीव
सम र्पण
वर् गीय
 पर लोक
r an
छ ी
 चौ टाला
 इ म्
ित र
 पड़ा व
 स खी
भग वान्
 टूट े
 अ विश्वसनीय
ख ्
 श्री देवी
w it
 अ नाथ
 चा णक्य
 इ ब्राहिम
 वा स्त
 रे णु
anch i
 लौट ते
 उदार ता
 गि राने
 सम्बोध ित
 म सल
 उप राज्यपाल
इंड ियन
 कु म्भ
 चिद ंबरम
 अन्य त्र
ब्ल ू
a di
 मु हा
C O
 ड िनर
 R ed
र िप
 ब स्तर
 मैन ्यु
ियों के
 मिल ्
प टा
 प्रव र्
 मु म
ad av
ا ن
 उत्तर दायित्व
 चि ड़िया
V ir
 परिण त
सम ैन
ञ् ज
श् क
न य
ीन गर
or oscope
 कर ायी
 क्ला इंट्स
  ,

पु ल्स
 स ल्
 कहा ः
 इ त्य
 छ प
 फर् ना
ै गन
ढ़ ाई
 h is
 फार सी
 मले रिया
 पट वारी
 एंटी ऑ
 उर्व शी
 जुन ून
P l
 ए ना
धिक ृत
am il
ak istan
 पलट वार
िश् च
C M
ब ्रा
 की च
 ने गेटिव
 वि रह
 H y
18 7
 जि म्मा
ह ाली
 मुस्लिम ों
ट्र ैक्ट
 संवाद दाताओं
 हस्ता ंतरण
 मंथ न
 सर्ज िकल
 घा टा
सो म
htt ps
 दर ें
 सें सेक्स
स ुन
म ाम
 अद्व ैत
ष ार
ने वाले
 गैंग रेप
 अ ण
ष्ट िक
 बु न
 अन न्तर
 शा हीन
आर टी
 कु एं
 कथा ओं
ै शी
 श ाला
 इरा क
 कट ाई
 खास ियत
क्र िप्
 बैठ ता
 उल् लिखित
 बदल ती
 श ्लो
म ला
 मो हि
 का ंप
at ing
रिक ी
कान ूनी
सु नी
 चोट ें
 अभिव्य क्त
 परा क्रम
 दाख िला
 मज़ दूर
 धूम्र पान
स द
 अरे स्ट
सें जर
ख ो
 पर ित्याग
फ्ल िक्स
om en
 रोज़ गार
१८ ५
 प्र वाहित
 पु त्रों
 S hah
कल ्याण
गरी य
वा इड
ाह ि
 सी रीज़
in al
 con t
ना स
 नि विदा
 ता ल्ल
ag ar
पु ण
ॉ र्म
सू र्य
 नहा ने
 पांच ों
 बनी ं
 टी बी
४ २
 छू ने
 ईर्ष ्या
 सुल झा
 बे गम
-बा प
 एस एमएस
अ ंतर
-क म
 ग़ लत
अ थ
 छ लांग
 M ag
 तदन ुसार
 अन वर
दर्श क
 ठ ोक
ेंस िक
 भूमिका ओं
 रोहत क
 आर के
 कदा चित्
कु म
 सिर दर्द
 करवा ए
-क हीं
खे ड़ा
 लग वाने
 चौ बे
थ िक
 मिश ेल
 ज़ िला
 बैड मिंटन
 N o
 शार दा
 नि खिल
 पार्ष दों
व स्थित
 प ते
 डी आर
 किन ारों
-क र्म
 शर्म नाक
रात ल
 डिप ो
 मकान ों
 उद्य मी
 और ंगाबाद
 उत्पाद ित
 थ र्ड
 प्रस्ताव ों
 च िन
 चट्ट ान
 भग वा
 म ंस
 उ ंगली
ंच े
am p
a u
 चुनि ंदा
 इन मे
 समझ ें
ज ॉय
 नी लम
 निक ोल
 ठ प
 पास वर्ड
-ब ु
ूर्व क
 पटिया ला
 शे प
 विकास शील
प्र माण
 शो एब
 चढ़ ने
 कब्र िस्तान
 जो स
 अमे ठी
ग ुल
 च ंबा
ि मेंट
 ब गा
it t
 अमी रात
 हैस ियत
 उप जा
 वॉ टर
य ही
 एड वाइ
- दे
 ए क्सीडेंट
ू थ
 आ ंच
 रे जी
मे य
 संप त्तियों
रेप िस्ट
 दू ल्हे
 खींच ा
 नगर ों
 सा जिद
 लाइ नों
 छ ाई
 पु र्तग
 ट्र ाइ
 तंत्र िका
 जैक लीन
 अल्पसंख्य कों
ंध ी
ा चार्य
 व ॉक
 व्यवसाय ों
ै ना
 न ियो
ot e
क्रे न
 चै त्र
 स्थानांतर ण
पी जी
 रोड वेज
 लु धियाना
 कैप िटल
रो ड
 ख़ राब
 संग ्र
 स्व देश
 प्य ारा
 i Phone
 न कार
 ल ेंस
 सा हा
 विशेषता एं
 म ध्या
 पी कर
 उम ड़
ता ं
 एम एम
 दुः खी
 खु जली
हम ारी
 भ्र ूण
प्र ाप्त
क्रिप् शन
ह नी
ङ् गल
ip s
 शै तान
 पै तृक
 का टे
 सु भ
 ए प्ली
 द ुल
 प्रतियोग िताओं
 वच नों
 हेल्प लाइन
 ब्ल ॉ
 तट स्थ
 स्ट ैन
 विक ारों
 खरीद ते
 चढ़ कर
 बु झाने
 सामान ों
 नमा ज़
 सो लन
 रख ो
त ं
 च ाप
रा इड
 पं थ
 पर फेक्ट
 की ड़े
 हो इ
 हो गया
 ला त
 छिपा ने
 बिहे वियर
पर िव
 प्रतिष्ठ ान
 समाज वाद
 बैचल र
 ल ुप्त
ेंट ाइन
 अक्ष रा
 सक्रिय ता
 अन्वे षण
 का ंव
emb ly
 खा द्या
 गाँव ों
 न ासा
 भूट ान
से प्शन
 ज्वेल री
 जि हाद
 पूर्व जों
 से क्सी
 ग्री क
 मन न
x y
 हाल ा
स्व भाव
 थ र्मल
 न हि
 लाइब्रे री
उ त्तरा
 टे प
 ध निया
 एस आईटी
र्व े
 लग् जरी
 मेह ंदी
र्ग न
 म र्जी
 प ्ली
 ज ड
 स्प े
 आठ वीं
 ली ज
 राम लीला
 आठ वें
७ ०
 टेल र
10 4
 सावर कर
 ज ौन
 पह िया
  qu
८ ०
 च ौर
ु स
 ट ॉय
रा दित्य
 अ ंड
 टिक ैत
 n ic
 ठ िकाने
नाइ जेशन
 उत्तर दायी
 जल स्तर
 घा टे
 भ ्रा
 से नान
स िर
 इक् विटी
 कहा वत
 स्म ृत
 क ंज
 आर्ट ्स
l ine
 केम िकल
w e
 प्ले न
 न्याय पालिका
 ध ड़
टल ैंड
 ल ज्जा
 मे धा
ाइ स
 री ढ़
आप के
 सी एनजी
सम िति
 ल श्
 स्व राज्य
 बाधा ओं
 शिका गो
 पर हेज
 श्री कांत
 रित ेश
 ड ्यू
 रूढ़ ि
y m
I L
 पंड ्या
शु भ
 पहुँ ची
 च ूँकि
ज़ ्
स्था पक
 रो बोट
 ज़ रा
 ग श्त
 ट्र िपल
 ग ार्
 चौ ंक
 विक ी
 ज़िम्म ेदारी
P r
 इंटर नल
 राज भर
 बॉ न्ड
स ले
गिर ि
 कॉ लिंग
 बहु जन
em ber
 आचार ्यों
 मजबू री
 प्रामा णिक
 त निक
N G
 ए ंकर
गो चर
ओ एस
 मानद ंड
 तब तक
म् बू
 S up
 मित्त ल
 का बिल
 भ द
 बंग ले
 जे व
 चैम्पियन शिप
g an
 एक्स पीर
 बनाए ंगे
 ज ले
 चाह र
 त र्
रो ट
enc y
 मेट्र ोप
्ल िकेशन
प ेड
 के बिन
 दा ँ
 अमर नाथ
प र्व
 कम ज़ोर
ेष ु
 पवित्र ता
с т
 निलंब न
 लड़ ना
har at
 नि गेटिव
Ph oto
 स् लै
 वि धिक
गी न
 पद स्थ
 रॉ बर्ट
 प्रकार की
 ज्व ाइन
E E
 बेट ियां
ra v
चंद्र न
 टर्म िनल
-प ान
y n
 ज्ञ ाना
 ज्ये ष्ठ
 अल ौकिक
 शिकायत कर्ता
 रजनी कांत
 डाय री
 तब ाह
 शासन काल
 व न्द
सा धन
 बचा ओ
 कति पय
ु ग
 श ती
 और तों
 सम्यग् दर्शन
भ ोज
 र सी
 ख्या ति
 व्यवस्था ओं
 घु मा
 योग ेश
ल ्य
 हक दार
 W hat
 ही ं
 पि स्त
 मल या
प्प ड़
 S UV
 बुल ड
 र डार
 मूल्य वान
 सू झ
 च ूर
ु ड़
 द ंगे
 वि ह
 बख ूबी
 परि ग्रह
ै च
 आजम गढ़
 प्रताड़ ित
 आई एस
ऽ पि
्य वहार
बंध क
 त स्य
ॉ न्
 राज स्थानी
 गु ंज
ar s
 से र
 वि चलित
श ुराम
 सं कीर्ण
 विध ्व
ब्र िड
 स्ना त
ज़ त
 बै टिंग
 लिप ्त
 म ्यांमार
प्र ताप
धार क
in es
 विक ्ट
 इंच ार्ज
 उपद्र व
 नाट कीय
 निच ली
श ाम
 कम ्युन
 मन मानी
 का लीन
 कम िटी
 एन सीबी
रा बाद
उ से
 गाय ों
1 15
 चौ ड़ी
 दाह िने
 B e
१९ ८
as ht
ग ली
 नुस् खा
 ट ॉर्क
 खींच ने
 सैम सन
 डिस्ट ेंसिंग
 प ित्त
 कम र्शियल
 अखबार ों
 जीत ना
ो न्
 M A
 क ल्चर
पू जा
 दया लु
 डिस्ट्र िक्ट
g h
मै या
ि स्ती
 आम जन
 डायल ॉग
 भिन्न ता
 मौ नी
-डी जल
 ख ली
विल ास
 वंद ना
 अप ूर्ण
र ंग
 थाई लैंड
 तु च्छ
 फोटोग्रा फर
 M ah
द्व ि
 हाइ वे
 उपमहा द्वीप
 ह ायर
and hi
 ऐ ड
 फेफ ड़ों
 इश ारे
 को टे
. ए
क ते
 M ed
 O r
 कव रेज
 उन् नीस
 कर ंट
 सं कु
स्म ृति
 बाल कों
 मु न्ना
 प्र चलन
 लगा व
 उन्म ूलन
 छा वनी
 ال له
 मिला या
कर्ष ण
 शता ब्
 रं जीत
, '
 व ियत
लि ड
 जो त
 दौ लत
ay a
y e
 क च्ची
 ग द्
ंच न
 मु स
री दी
 पहुंच ता
 बि खे
 प्रोड्यू सर
 इस ्र
 श्रा दि
 दे य
T C
 ड िक
 म रु
 जिन मे
 मूव मेंट
 स्ट्र ोक
ं ते
मे गा
आई जी
- कु
- बह
ग्र ंथ
 ह िसार
 पि ंड
भि मान
ु अल
क्ष य
 लो हिया
 आईपी सी
---- ----
 गै लेक्सी
 टाइट ंस
 स्वे च्छा
A M
 ब ड
 सी टी
 रिट ायर्ड
 ब्र श
 ति हाई
 परंपरा ओं
वा ती
 पहु ॅ
ॉल ्ट
 बॉ बी
 उर्व रक
 तस् कर
 in d
 ब्रे न
 जल कर
 ब्रह ्
 न यन
 दा ढ़ी
 शा तिर
7 50
लि स्टिक
 m adhya
 चाह ूंगा
 यु धिष्ठिर
 स्टैंड र्ड
 धरो हर
फ़ े
 घ िर
 रव ै
 माइ लेज
 सेंटी मीटर
भा वी
ः ख
 आत्म समर्पण
ष द
 द ामा
 स्टाइ लिस्ट
 इ तर
 कैम रों
 फे म
क्स न
 ह राने
 ज ड़ा
न ौ
 गा ते
 चा तु
 बढ़ो त्तरी
प ठान
 ज ड़ों
 गुरु द्वारा
जन ल
 खो ली
vi ew
 विश ा
 भ ार्ग
पंच ायत
 सु धर
 लॉ र्ड
m m
 ड ्रीम
 करा ची
 भे ड़
 अफ ेयर
द ाम
र्थ क
 मसा ज
 ड ोन
 हाज िर
ॉ फ्ट
 द य
 साध ्वी
 निष् पादन
 अत्या धुनिक
 राम ा
av irus
 ना हीं
 स हा
 क तर
१८ ६
 ए प्पल
 प्र या
 वि मल
 दर भंगा
 रिपोर्ट ों
च ंडीगढ़
rit ten
 सन् धि
 ऊँ चाई
ो शी
 नेट फ्लिक्स
 Cr edit
ता ने
 टिका ऊ
 का यर
 मूल तः
 वै चारिक
 पी पुल्स
2 20
 संरचना ओं
 कस ौटी
 आई एसआई
री द
 डाल र
 मना ली
 छ िल
 प ेंस
कोल काता
 निपट ान
 बो नस
 रो के
बी जेपी
 को ल्ड
 क्री ज
 सिफारिश ों
 बैठ ना
 भी ष्म
 रि चार्ज
 जन् मा
 इ र्द
री क्षक
ath er
प दों
 को लो
P O
 ट र्
 ऊ र्
त था
 m y
 इ न्हे
 ट ैल
 प ण
 चित्र कूट
- राज
 M ess
 बस ंत
 रिक ्शा
 दिग म्बर
 ह ठ
िस्ट ्रेशन
मा ंसा
 न हिं
 ल ड़ी
 मान चित्र
 झुका व
कार क
 घ सी
 बद लता
ov id
 मिली लीटर
 मसी ह
टा वा
 रक्त दान
 Com p
 काज ोल
- रूप
 व िला
 साव ित्री
 झ ी
 ऑफ लाइन
सं स्कृत
- डे
जें टीना
A pp
 कर्त व्यों
 ह ँसी
क्त िक
 ध रातल
 भू गोल
ोम णि
 काग जात
ने ताओं
 लो प
 ह जरत
 ब बल
 चर्चा ओं
 F l
बी बीसी
 अध र्म
 क म्
व िकेट
 गण मान्य
 क्लिन िकल
 तै से
पृ थ
ध्य यन
 परो क्ष
ग र्भ
िक ीय
port ed
िल् ड
 ऑपरेट िंग
ik a
 नि जाम
 भाग्य शाली
 फतेह पुर
al s
 गण पति
E S
it ute
C R
न ्यु
 उम्मी दों
 आग ंतु
 कॉन् ग्रेस
 तू ने
 बॉय फ्रेंड
 तस् करों
 सू त
 पो प
 मल्लिक ार्जुन
) :

ान क
ज ह
 अ फी
 ग ोग
 ए य
 एक ीकरण
 राज वंश
 प न्द्रह
 भी ख
 घ िरे
 p re
ङ् गा
आई डी
 घु ड़
- माने
व ीन
 नि पुण
िये टर
 माल दीव
 भी ल
 मा दा
 ज जों
 भागी दार
 परिवर्त नों
 ने चुरल
 मिट ाने
स् मान
 घटा कर
 विप िन
 ज्योति रादित्य
ंच ा
मे ष
 है दर
 बि जी
 दब िश
in s
 चार् ल्स
मो दी
 ट्रै वल
 मानद ंडों
ाह ट
 खट ख
 पिस्त ौल
 जवा बी
 पी र
भु ज
इ ंद
 पै ड
र्म ेट
शु द्ध
ती र्थ
 कुर ैशी
ऐ सी
 रेसि पी
R anchi
म् बी
 लै टिन
 उत्तरा खण्ड
-फ ानन
नि धि
 सामग्र ियों
वा ड़े
 नि द्रा
 प्र सिद्धि
ल कर
ंघ म
 ज्ञा ता
 सस्प ेंड
 क्र िएटिव
 वि जन
 प्रां तीय
t o
 हा ंग
 डा ॅ
ंद ेल
 निर ाला
 हु यी
 जर्न ल
न्तु ष्ट
 अव रुद्ध
 ट िकी
िर ोध
 नि फ्टी
 म र्द
 कु ण्ड
 पब्ल िश
 हिंद ुत्व
 ग ॉस
 एक्सपर्ट ्स
 al so
न्या सी
 Y adav
 वि वादा
 जि द
 ग मन
 जल ने
 राजनीति ज्ञ
ब् ज
 स त्कार
 प्रधाना चार्य
 मुम किन
 भर पाई
 चुन ना
सल मेर
 पेश ाब
डिय ़
ु मा
 अफ सोस
 an y
N ew
 कुटु म्ब
 ले डी
 म ची
 आ ज़
 दयान न्द
10 9
 र स्म
 दू ल्हा
 जाल ंधर
 निक ाह
 गु ज़र
क्यू टिव
 एंड्रॉ एड
 न ंदी
 वृक्ष ों
 स्त्र ियाँ
r m
 N ar
 रो हिणी
 बच्च ो
T I
 विश्व कर्मा
 ब री
 नि बन्ध
  п
 कैंडिडेट ्स
न्द री
 यूपी ए
 सं कलन
ंक ित
 बगी चे
१८ ८
 होट लों
ङ् कर
ही र
 पानी पत
 सेक्रे टरी
 स य
. एस
जा ई
वृ क्ष
संख्या त
ठ ित
 रू चि
 स्प ेक्ट
 फ्र िज
 औष धीय
 चा वला
ित् ता
-स् पीड
स्क ृति
 सशक्त िकरण
 राध िका
आ त्म
 ऐप ्स
 H oroscope
 On e
 ता न
 हाई स्कूल
 अप ग्रेड
 बी एच
 मन ोक
 अव ल
 उद्ध रण
 धो खे
U n
 B oard
ers on
सो शल
 पसी ने
सा फ
ष्ट मी
 दिन चर्या
el op
 यथ ास
लो भ
 य क्ष
ाल िया
 ठिक ाना
एल ए
 त्रुट ि
 शिलाले ख
 स िलाई
र् ती
म ों
रू सी
 ऑ र्गे
 लश् कर
 किस की
 वैध ता
 खुश बू
ah ul
 भिक्ष ा
 सिम ट
ता ज
 P at
बाह ु
 ब लिया
 खा ती
पर क
 अधू रा
 प्रे सिड
ं शु
 ब ्यौ
 ख ै
स्ता ंबुल
श ायद
 त्र िश
 मेन ू
 छि द्र
13 5
 री मेक
 पा टन
 ल ड्डू
 ठ ुक
 फ़ैस ला
भाव ार्थ
 रोक ता
 राह ु
आ गे
ब ंग
 परम ार्थ
 मुआव जे
 डी एनए
 अठ ारह
 स रे
 छ पी
 बना वट
 बे चे
 मि र्
 रण जी
 सं क्रामक
 प्रेग्न ेंसी
 छि पी
tern ational
-एक्स एनयूएमएक्स
 देश ो
 दस्तावे ज़
फ ाइल
 पी ड
 अन्त र्
 सई द
d ay
ig g
 य न्त्र
 जमा त
 बांट ने
 अक्ष रों
वी डियो
 सीएस के
wit ter
 दु ष्य
महारा ज
  ओं
 रूप ा
घा ती
 द्वार का
 आ र्क
 ग ंत
्रो म
 आपात काल
 व ल्लभ
 चंद ्रा
y r
 बी पी
 तत्व ा
 भ ंस
ific ation
 कि ग्रा
 बिग ड़ने
क ली
 सत्ता धारी
 एफ डी
 म ों
 बीज िंग
ार ो
पर न्तु
द ाह
ामु खी
 ट ोन
 ज नों
 ट ें
 मिल ि
िकी करण
 संक्र ांति
 गुरु देव
 बहु धा
 दृष्ट ान्त
 छिड़का व
ग िरी
४ ३
 पर ोप
A h
 प िय
 भु ज
 रचना एँ
ट ोल
 ड ल
 लगा ती
 रुझ ान
ते ज
 विस र्जन
शे र
वे न्यू
 गुरू वार
 एक्ट र्स
 रहने वाले
 कट ु
 मिड िल
मनु ष्य
ष् मा
10 7
ष्णु ता
 ऋ चा
 पीरिय ड
 मी ट्रिक
ur n
 पूर्वा ंचल
 सम न
ेंद ु
 क्व ीन
 लॉ ज
 विधिव त
 स्टाल िन
 निर् धन
 आयुर्वेद िक
ग ुर
 एन सीआर
 नर सिंह
ub e
A L
 न ाली
 उठ ाये
 आंद ोल
स रा
मुंबई ः
ri b
 प ट्टा
 चि न्त
 ऑर ेंज
 पी क
 ब्रे ड
 परि धि
 पै ंट
 पुरुष ोत्तम
 संदर्भ ित
णा धीन
 पर शुराम
क् स्ट
 सी ज़न
 द्र व
 आ भा
 मिज ोरम
 न रो
 जाएँ गे
 प्रश्ना ंश
 शै लेश
तुम्ह ें
 पर ती
 चक्र वात
ज्यो ति
मु नि
 विवादा स्पद
 ए ह
 पू ना
 ती खी
 मनो बल
 चौ बीस
 रच यिता
 एका एक
 जर् जर
 केन्द्र ित
 घण्ट े
 नि हार
 राम ेश्वर
 बर ती
 कार् ब
 डिटे ल्स
 जे ठ
 प त्ता
हां त
ऊ पर
 ल क्
त् थे
 th ere
 अर्थ ों
 सैल ून
 गिर ते
uc k
 शिव कुमार
 प ाम
 जि म्बाब्वे
ल् दी
पि ड
 अव तर
 प्र लय
- रि
ंदे ह
 झ ूम
ध म
एफ सी
 खेल कर
 ए नाल
 एंड्र ॉयड
3 60
_ _
बॉ डी
w ar
 दु र्य
ने ड
 ले जर
 भूम ध्य
 बि जन
 ल ल
रे ड
 मनोक ामना
 t ime
की र
 नैनी ताल
 प्रॉ ब्ल
 अंगू ठी
 ऋष िकेश
 का बिज
 बद तर
 वासु देव
 आँ सू
 वर्क आउट
स स
प्र णाली
n e
 आर ोग्य
 गल ियों
 हेल िक
 फ ास
 अख ़
  ل
 प्रोजेक्ट ्स
 अनुप्र योग
 गति शीलता
 गर्भा शय
 दा ता
 किस का
 ख ट्टर
 जब र्द
रा ंची
s mall
 बि खर
 फ़ॉ लो
 ट हल
- बहुत
४ १
 चिं ताओं
 ए जे
 कम्युनि टी
el f
 भु जा
मा ँ
 बांध कर
 सब ने
वे न
 कल ाम
 विध ियों
 मू ला
 एप्ली केशन
 बुलड ोजर
 N av
 जोड़ ना
 C ourt
 बा इड
 गुजर ना
 अपभ्र ंश
 एच डी
 हर्ष वर्धन
 मुख ्या
 सत्य ेंद्र
 बच ाना
 गॉस िप
 जान की
-प्र सार
 पुरात त्व
 तिर ु
 च श्म
 दू ं
राह ुल
 कु ंजी
u ction
म िर
 ब िस
 तुल ्य
 एन सी
 छ ुप
द्ध ार
 मी ठे
बह ु
स्को प
 संके तों
बी ना
 प्राण ों
- के
ही म
 सौंप ने
 घे राब
 भरत पुर
i or
 डॉ क्ट
५ ५
 सु हाना
म ोट
 जला कर
र सन
 अपने को
 भंस ाली
रे स
 प्ले ऑफ
 मेर िट
 शीत कालीन
s c
 अ म्बेडकर
 समाजसे वी
 मार ना
बि ंद
च ने
 अव रोध
-बी च
i ence
 ए एसआई
 जो रों
 उत्स ुकता
 टू टा
 बाद लों
 ज ूल
ॉल िटन
 को प
ोप िक
ंट ाइन
 प्रे रक
 वें कट
-पी ने
-च ौ
 धम क
10 3
ज्ञ ता
 पनडु ब्बी
स र्स
 अधिक ता
24 0
द बा
 नी तू
 पौ ष्टिक
 ठे का
 दामा द
 अप शिष्ट
 खान पान
उद ाहरण
 स् का
eng er
फ ू
फ ोल
क रा
 फ्लिप कार्ट
द ड़
ो दर
 दबा कर
 अस्प ष्ट
 पंडित ों
 स्ला इड
B JP
ार िया
 थ ियेटर
 जी वंत
 फें का
च कों
टा या
 मचा या
 असं ख्य
' .
 ब्राह ्म
 हर भजन
  ....
 काफ िले
 अ िस
 हौ सला
 S e
 एक्सपीर ियंस
 सेन ानी
 वॉ र
ित ी
 डां सर
ॉ इंट
 किंग डम
 संगी ता
 शंक राचार्य
जी क्यूटिव
 अन्तः करण
in i
ला ज
ंड ई
 स्वा ध्याय
-अ र्
 सेलि ब्रेट
-श क्ति
 का व्या
 वस्तु एं
 पुष् पा
 घुस ने
 ना ता
 बू ढ़े
 A cc
 आद िल
 निकाल ते
- जाने
 अनु ग्रह
": "
 अग्निहो त्री
द स
 सु पु
is garh
 समू चे
 य मन
 अनु याय
 टै टू
 परिकल्प ना
 बाइड न
ेंट ल
 सर्व दा
 वर् च
 अर् जेंटीना
 अफ़ग़ ानिस्तान
 लो ह
ंग ना
 ज ड़े
र्म ु
 चित ्रा
ो चित
 संगीत कार
 का ंटे
 अ जि
 अब ्राह
er c
 छात्र वृत्ति
ल िक
 थ प्पड़
 सोना ली
 च िता
 व्र ज
 मौ समी
 G andhi
 हरिया ली
 S al
 कं स्ट्रक्शन
ir st
 आईपी ओ
 लग ्न
 हिन्दु स्तानी
 अ से
ol l
 पढ़ा या
 मार ते
इया ँ
 स्प ्रे
 रंग मंच
 तुलना त्मक
 गो ता
 अग ्रे
 श्रीम द्
 खि ड़क
-द ूर
 भव ानी
 कुर ान
 नाख ून
 Psy ch
ह मी
 हट कर
 Pr ice
 सो चे
मो चन
 sh ould
C P
hatt isgarh
्ल ैंड
 मंग ेश
जे ज
 स ेंस
 अल्ट ्रा
दि ता
l rm
 श ूर
वि वाह
am m
 रि सेप्शन
 सह सा
 लाभ ार्थी
 दुर्भाग्य पूर्ण
 वीड ियोज
 सार्वभौ मिक
 पूर्व ोक्त
्रे क्ष्य
 उन् नाव
 मुश्किल ों
-क ॉम
 टिप्प ण
 मग ध
 तबाद ला
 ग जब
 भार्ग व
 सिक् का
 देव ों
 तू फ
 बाला जी
 राम गढ़
ब नी
रा जन
- नी
 इन् कार
 शी ला
ाय ुक्त
ूम त
शु क्र
A K
 फ ील
 कार ें
 a c
 इन् ही
 अनुश ंसा
 ख़ु शी
 कर िए
 टैल ेंट
 साक्षर ता
 सिर मौर
-ब ै
 एप ्लिकेशन
प र्या
 कोशिश ों
 अक सर
 स् तो
 चुनौती पूर्ण
 क्ला इ
 कॉपी राइट
ra j
छ नीय
 फोर म
 मेगा वाट
 सीतार ाम
 ही रे
 D e
 रि वा
म न्त्री
 न ता
 लेख ों
 दोष ों
 वार्ड ों
 लु भा
 सी बी
 खिला ने
 रा तों
छ त्तीसगढ़
 बे किंग
 सज ग
 सौ हार्
ं पा
ड्र िंग
फ़ र
 हटा ए
 कल्प ित
E x
निर पेक्ष
 व्य भि
व रा
 पर दे
 प्रवृ त्तियों
18 2
 रोज मर्रा
खे ड़े
 बहु मूल्य
 ड ्रे
्तर बंद
 मिल नी
 गो वि
स िल
सी एम
 शि ष्यों
ं य
 पी ढ़ियों
 उड़ा ने
 पराज य
 वै य
11 1
 o ut
 कर ों
 साह िल
 एथ लीट
 थ ै
 छ प्
 मधु म
ुल ेंस
प न्न
 सी एचसी
 सनसनी खेज
 मै दानी
आर ओ
 परीक्षण ों
भ ्
 C ap
 प्रतिबि ंब
 चला ता
 लाभ ों
 सिप ाहियों
 D ep
बे थ
 प्रमुख ता
म ग्न
 पहचान ने
जान कारी
 मच्छ र
 घेराब ंदी
 ग नी
 ख र्चा
 मिल ें
वा दन
 वि ड
म िश
 श्री निवास
ख ने
ना इट
निया ँ
 स्ट ंट
 वरीय ता
उ द्दीन
बर ू
 व ना
ourn al
 शृ ंखला
 प्रच ंड
र्मा ने
 खी री
 खाद्या न्न
 भू खे
 लौट कर
 एयर लाइंस
 कहला ती
 सक ु
 डी सीपी
 कु क
 कोषा ध्यक्ष
 वै क
आ चार्य
 निय ोजित
 पक ड़ी
ें को
वृ द्धि
 वॉट ्स
न्त र्गत
चु री
 नव जोत
 कै फे
स्व तंत्र
el y
षा ण
 बस्त ियों
 ब्रह्म चारी
 सं काय
 दल ाल
न ित
 गो त्र
 ट्र ा
. पी
 बु ंदेल
 प्रचार क
 हु वा
 शर्त ें
 क च्छ
 अ सी
 अं तः
णी ति
 सिक ंदर
 ज ाली
 जि न्हे
 सु दर्शन
  ا
मो री
 अ संख्यात
ंक ्य
 च ेंज
स्ती पुर
 पुन र्ग
च म
 सु ई
 करना ल
 कु ख्यात
 डी जी
ल्ल म
 अं बाला
 चौरा हा
ंक ल
ुक ला
ब च्च
 राज ाम
 St ate
 अमूल ्य
 का श
भा ष्य
 ग्रो वर
श िल्
स् केट
 न ग्न
ार ्म
 व फा
 म ला
 श िया
 कर ारी
ct or
ोल िया
 झेल नी
 इंस ानों
ज ्ड
 खरा बी
 आँ क
म ार्क
c o
 वि स्थापित
 सभा ओं
 डाय मंड
 अभिला षा
जव ेंद्र
 नि खार
s e
वा यु
 ट ूल
ंट ू
 B l
र्च र
फ् ती
 चाह त
 ऑ स्कर
 एजें डा
 ब छ
 ज़ि न्दगी
 मौ कों
 नाम करण
 मोह ाली
 राष्ट्रीय ता
ने क
 b ut
form ation
 अवस्थ ी
व ित्र
 सो डा
 राम चंद्र
 वन्य जीव
व साय
 ट र्न
 डु अल
मौ सम
 छुट्ट ियां
 पा पी
 विवेकान ंद
PA T
 hr s
लो न
 ताल्ल ुक
 सा दगी
ह ंस
ती या
" "
 डिली ट
ं कों
ल क्ष्मी
 धातु ओं
 परिप ्रेक्ष्य
 शब्दा वली
 ता ले
 पू रन
 अधीन स्थ
 अभिन ंदन
वे रा
 इकट् ठे
 दीर्घ कालिक
यर िंग
 तु षार
 दर ोगा
 खो ने
 कु ंद्रा
 जा ऊँ
 जा गीर
 त्र िव
 पहा ड़ियों
ي ن
 ला ड
ण्ड े
ं के
 दिग् ग
 पुर स्कृत
 दु ग्ध
 शाह जहां
 Al l
 आव ारा
 एडमिन िस्ट्रेशन
 दिखा ती
 अनो खा
- धर्म
बै ंक
 लो केश
 ह ज़ारों
 ज द
 उड़ी सा
 च ना
 माल वा
 थ का
 आ भारी
 वा दी
. '
 चु टकी
 कृ षक
ोट िक
फ़ ्
 मा ताओं
 महत्वा कांक्षी
 उत्तर प्रदेश
 अ मा
सी एस
 ह दी
s p
गा त
 अराज कता
 तै मूर
सं रचना
मेंट ्स
 मार्ट िन
 डेमोक्रेट िक
 सु राग
 प्रति पादित
 म टर
 ठ हरे
 मौ ज
 सीमा वर्ती
 N ational
 रह न
 नजर ें
 खे प
आप ने
 इंस्ट्र क्टर
ं कि
 बु झ
 विश्वसनीय ता
 उखा ड़
 र ाल
 M edia
 करी म
 ख ीर
घ रे
 उत् कर्ष
ॉम स
-ज ुल
 प ख
 रेश म
म्ब न्धी
 जु आ
 अ द्य
 प्ल ॉट
ोर स
 गति शील
 मचा ने
 मता धिकार
 जनस ंपर्क
 फ ोड़
 दुर्य ोधन
- कुछ
 गां जा
वर् द्ध
 अदाल तों
 घ निष्ठ
 छि ड़क
w al
शि ष्ठ
 उड़ ानों
 च न्दन
 शब्द ो
 कुरु क्षेत्र
m in
 भू रे
 वियत नाम
िर ल
स्ट ्रो
कर् नाटक
is ion
ार्क िक
و ا
भा षण
घ े
 सात वीं
 विचारा धीन
 H D
 साध ुओं
ंध रा
 वि घ्न
 उद्यम ों
ol e
ब् बल
 चतु र्
 आ र्थ
 प्रको ष्ठ
  >
 ने त्रों
 पंच मी
10 6
C H
 फ िंगर
 पक्ष पात
श्र ुत
I ND
 अंध कार
ver y
 फ ंदे
 इस रो
म रा
 W h
ङ् कार
 बिक ने
 मिल ान
 सार ांश
 कन्न ौज
U ttar
 समझ दार
 ओमिक्र ॉन
  в
U N
 मलया लम
ग द
11 3
 जी प
 डिस् चार्ज
  ق
ग लों
 ति र्य
 जा इए
 वास ियों
न िश
 था ः
 फाइन ेंशियल
 कहान ियाँ
 व्ही कल
ान ियों
प् पे
ौ द्ध
 को ठी
 J io
ोग्रा फी
ज ोड़
 मोह ब्बत
-सं स्थापक
रा धा
ब दल
िस िस
 दी वाना
 क्ली निक
 गौ ण
 शा का
ॉल र
 शुभ म
17 5
 सम्भव तः
yst em
e er
क हा
 श ेल
 पहुँचा ने
 अह ं
 परा स्त
 ड ीन
 फंड िंग
 वॉ च
बा जार
 अभिया नों
 आ नी
 कृत ियों
 पंच म
 लाइफ स्टाइल
 सर ेंडर
 अस ें
- गा
ब्यू रो
 सिन्ध ु
 अ स्त्र
 आधुन िकीकरण
ि ब
कू ला
अ द
 रि ंकू
Ur l
ट्ट ू
ट् ठ
 तत्पर ता
 असंत ोष
ाइ प
: \/
श न्स
:\/ \/
 आ ॅ
 ड्र ॉप
आप का
 खुश ियां
 सन् ना
ओ गे
ब ड़े
 on e
 वि डियो
माइ ल
 अवि द्या
द व
जी ब
 वा ड्रा
 पै ग
 सुन ता
 यश ो
ल व
 मि च
 उ बल
 हंग ामे
 अधिका धिक
 आदि म
 स ला
y l
 अनुसू ची
 इं फेक्शन
 दिख लाई
 निय न्त्रण
स री
 भी तरी
 मिनट ों
. "

 कॉम् प्लेक्स
 षड्य ंत्र
 नवा जा
्वल ित
 हरे क
  en
 मु ड़
स् क्राइब
 दश हरा
 निर्व हन
 किरण ों
 घ ुल
-कॉम र्स
 च ंदा
 लौ टना
-स म्म
 शुद्ध ता
 ख ू
 वे ल्स
 इमो शनल
 उप ेंद्र
 ब्रेक अप
 दा ऊद
 ढूंढ ने
 राष्ट्र मंडल
 मु ंगे
 बा धक
 सौंप े
 भगव न्
 दा एं
हाद त
 यु जवेंद्र
 राय बरेली
 ल ेश
 हो त
 C oun
 वस्तु एँ
 औ चित्य
 शौ कीन
es e
 ताज महल
 विजे ताओं
 अपमान ित
ब् बर
तिक ी
- किन
 एम्ब ुलेंस
 स्व िम
न् नों
 the ir
 मिन िस्टर
r est
 ग ंदे
 घुट नों
ूर ाम
umb ai
 बगा वत
 विल ंब
 न ्य
 सं प्रभु
 गायक वाड़
ग ेशन
िस न
ठ क
 राज नेताओं
 निर्मा णाधीन
 आज़ा द
 कू ड़े
स्व स्थ
 को हराम
ul ar
ag es
 पि ण्ड
 ओपी डी
 एंड रसन
उ ंस
र हित
 ड र्मेट
 हे र
 शे खा
 वृ ह
क् कों
 पेंस िल
 सा उंड
 भर ते
्ला द
कु ंड
ने का
 स्ट ोन
 जाओ गे
 फ़ ी
 ल खन
 प्रताप गढ़
 ठुक रा
C D
 ग िट
 इ ंगल
 ह ब
 इंट र्न
. के
 खे मे
 ब ्व
 अ तर
 नि शुल्क
लि फ्ट
 ड्रा फ्ट
 क गार
 सम िट
 Inst itute
 की र्तन
 ऑ क्स
i ed
ै क्स
 आ ंव
 ओ वन
 कॉम र्स
 घन त्व
& lrm
म्ब ित
 म ौर
 हम लोग
 C ase
स ौर
 ल ोट
 वा क्या
 w ww
 आ दी
 दाम न
 शि ना
 अभिले ख
 क्ले श
 मिल िट
 मैग जीन
 संप दा
 भूल ना
प्रा चीन
 आव ृत्ति
 हाथ रस
ा या
 ल ंग
us e
श ॉप
 श रा
 अति थियों
ब हा
 को हरे
ु आर
 य त्
द िय
 बंध े
की ल
 आदर्श ों
 डाक्टर ों
श ्रा
 बच्च ियों
ज ्व
 पर ोस
 चु ंब
 निर्भर ता
के यर
र ोग
 च न्नी
-अर् चना
 ऋष ियों
स पा
 h on
 दुर्व ्यवहार
 अं जलि
 सल्ल ल्लाहु
 निय मावली
 फ्ल ैग
 वास्त ुकला
कि ब
 जे एनयू
 पु नीत
हेल ना
ख त
 एसडी ओ
 फ्र ै
बा बा
 खण्ड न
 सि ंद
 ठा णे
के ला
 भो ला
 संचाल कों
य श
 निर् या
 अनुमो दित
पर िवार
स िंग
 हाइ पर
 पाठ्यक्रम ों
 राठ ौड़
 Mess enger
 दुश्म नों
ur al
rou p
b le
 न न
 गर्भ पात
 शू टर
 इ म्प
र व
 इ न्होने
कै से
ए ंड
 माइ ंड
 शर्म ि
सम्म ति
ड ोल
 बारी की
 पच्च ीस
 गड़ बड़
 स्वीड न
थ ेन
 ब्रह् माण्ड
 कै मर
ण ां
r id
भाष ी
 दुर्घटना ग्रस्त
ूस राय
िक्ष ा
 अमृत पाल
 बयान बाजी
 विषा क्त
 फैस लों
CC I
-द िन
 इच्छा ओं
 अंध ा
 रवै ये
 रा गा
 हाइड ्रो
 हो ड़
 कु णाल
 मर ते
 वान खेड़े
g et
वा क्य
 ह ं
 संस्था गत
१६ ०
 ए ंगल
 छ िन
प्र ाय
िले टर
 हु नर
ए शिया
 जेव रात
 मिली ं
 अजि ंक्य
 विप ुल
 यूपी एससी
 पहुंचे गी
 शौ र्य
 ग्रेजुए शन
 नम ूनों
- जीवन
 भू स्खलन
 धी मा
 साम्प्रदाय िक
इ स्ल
 अब्राह म
ह ता
 पिक अप
 अर् श
 सह ि
१६ ३
 ध केल
 उत्पाद कता
 दिग्ग जों
ज् जर
म ना
्य ते
िट िव
 नव रात्र
ो ले
 कीच ड़
Q u
आ द
र् ते
फ ाल
 प्रदर्श नों
 व क्र
त् सल
फ़ ोन
 पारिस्थित िकी
 विश्व कप
 या तना
 रूप क
 एनजी ओ
 चित्र कला
 मुक़ ाब
 आफ ताब
 र सा
 उ षा
 w ork
 चढ़ ाने
 जौन पुर
 मशीन री
 पुनर् निर्माण
 A c
 बंट वारे
 जनप्रतिनि धियों
 आफ िस
 नाल ंदा
2 10
 ना द
 मेट्रोप ॉलिटन
 पेश ी
 एटी एस
त त्व
 कॉर पोरेशन
 फ्र ाइ
विष य
 एस आई
 टॉय लेट
 अ म्मा
 रजिस्ट ्रार
ुर ूप
 एक्सप्रेस वे
 निराशा जनक
 अभिम न्यु
 Upd ate
 विक िरण
कु शी
 ताप सी
 संल िप्त
 मु ट्ठी
 राइ टर
-व िर
 मे लब
ट ोर
 गाव स्कर
 जु र्माने
 एन एम
 अव हेलना
 वर्च स्व
-ट ू
 सोल ंकी
 ल िक
 App le
 न ्यो
 मु सल
 डेल ्टा
 प्रयोग ों
 लौ ह
 सूर दास
 ज्व ाला
 झुल स
 उच्च तर
 ताकत वर
न्दा वन
 पर्य न्त
 ग्री स
 वि नीत
य ंत्र
 एयर लाइन
- हो
 करें सी
 संवेदन शीलता
 क्रिप्ट ो
इ ंटर
प त्नी
व ु
ार ण्य
 ज िल
 न ां
 प्ला जा
 बे दी
 औरंग जेब
मा ंस
 सो र्स
u di
 स्ट ॉप
 सम् पादन
हि ंदी
 बिगा ड़
 अनुयाय ियों
b i
डर ूम
 मौ द्रिक
 आद रणीय
 आप रेशन
वे र
 प्र ान्
ंबा कू
 कट रीना
 मान हानि
18 1
 पाल े
 रो ना
 D on
 ब यां
 उपल क्ष्य
बा ब
फु ल्ल
विकेट कीपर
उन की
 अट ला
 पहुंची ं
रह मी
 स्क िल
हीन ता
 नारा ज़
 व ॉय
 से मे
हम ारा
 ट्यू मर
 रिटायर मेंट
 मंत्रालय ों
 दृ श्यों
वि द्य
 चक ित
 कथ ानक
 त्योहार ों
 ध ारी
वल ोक
 अफ रीदी
ो त्सव
 ड ार
 हित धारकों
 आक्रोश ित
श ्रीम
 प्रभा कर
 भड़का ऊ
 निर् गुण
 बेव कू
ै तिक
 साम न्त
ल्ज ियम
 p art
ाल क
 टी चर्स
 लिये ः
 पुरस्कार ों
 चुन ते
 ज्व ैल
ह ेड
 आ सिफ
-क िस
f al
भ ंग
वि वाद
च ै
फ ली
 ऊ तक
 सम्म ति
 ले बर
 जै सलमेर
 लेन िन
B h
 प पी
 ल ायी
 Ass oci
 सो ई
को त्तर
 स ृष्ट
 t r
ेट िव
 अज्ञ ानी
व ना
 महाप्र बंधक
 रा स्तों
 गा धी
 त द्
ऑ स्ट्रेलिया
 चंप ारण
स मान
 ग रु
 ले प
 गेम िंग
 नौकर ियां
 ब लू
 लड़ ेंगे
 नॉ मि
12 4
I V
ं बी
क्स ो
्य ं
 प्र दत्त
 वसु ंधरा
े ता
 न वल
 मे द
 Ex am
 पहुंच ाना
 ठहर ने
 सेलिब्र िटी
 o ther
) -
 सूर्य ोदय
 तोह फा
वर् तन
 ज़र िए
 अस द
 हिट लर
 शिर ोमणि
ोभ ित
ड ों
 द ्यो
 बद बू
 श क्ल
 यश स्वी
am a
 हाइ ब्रिड
ंट ो
or por
 ए ंग
 पा बंद
ess ion
 राम जी
व् हा
 नाश् ते
६ ५
 आज तक
 रवी ना
 नम्र ता
 ग्र ांट
 न्या स
... .

 जहरी ली
t e
आ ख
 V ir
 जोड़ ते
 वार् नर
 रघु नाथ
 ग्ल ू
 इतिहास कार
 सेनान ियों
रा ट
 मैन पुरी
ष्म िता
 वि वाहित
en ef
 असह ज
 मु फ्ती
 यौग िक
 मं ज़
 रेज िमेंट
F A
का त्मक
 वृ ंदा
 गुट ों
 दोगु नी
 विरो धा
 अफी म
 Ass embly
 श हादत
 आये गा
 अग्न िश
M I
er ies
 सजा ने
 छ तर
 गल तियों
O R
m ir
 रो प
 सत् संग
- पुरुष
 घ ना
 बे रहमी
मंद िर
कान पुर
 उप नाम
ब् बू
{ "
 बी एसपी
M an
 एजें डे
 अन न्य
u le
प ढ़
धार ियों
 थर ूर
 फ़ ीस
 लौ टी
 हता हत
. सी
 उन्ह ों
 ब न्दर
 मै सूर
ेंड िंग
 भ ्राम
 हवा एं
 रवि चंद्रन
 कह िये
 जु ग
 अध्य य
 मी ठी
 राम कृष्ण
म ठ
 च ंचल
 दुर्घटना ओं
 पं क्तियों
१८ ७
 किस् सा
 अनी ता
हाइड ्रेट
 सै टेलाइट
 ग्र सित
 it s
 उप मंडल
 दो हरे
 सी ढ़ी
 श श
os p
 व डा
ल का
 प्र ेज
 द्वीप ों
 ह ारे
 न ें
 अस फलता
 विज्ञ ाप
 श ्ले
 बद ्री
म ॉ
ुप ति
 वा दों
 y ear
 किस्म ों
 सं वर्धन
 आग जनी
 बर् बर
ुर े
ट ्टी
पाल क
 शिविर ों
 य ोर
D I
 ले बल
भ ान
 सोच ती
 मो स्ट
 इं फ्रास्ट्रक्चर
 अंग ूर
 ज ोगी
वा चक
ति मा
/ -
ने र
ले श्वर
 जे वर
small Url
 कंसल्ट ेंट
व र्ट
 ओ झा
श्र ित
ल् कि
 स्वीकार ्य
 यू एसएस
 दिक्कत ें
 दंप ति
 R ashi
उ र
 ची र
ड़ ियाँ
 रि वाज
 प्रार्थ ी
१६ ४
 मरा ठा
 अधिसू चित
 U S
दे वा
 कौ श
 एस के
द ंड
 कु पोषण
 अनाव रण
दी ना
वा हन
tr y
 खि च
वा ए
 सुन हरा
 साध ने
 पुरा तन
 चौ कों
 स्वामी जी
 नवी करण
 ड्रेस िंग
 re c
 वेतन मान
A I
 सर्व सम्मति
 भा गा
 वर्ष गांठ
 ब ्यो
 ओ प
 चम ड़े
पर म
 जी रा
 अद ृश्य
 गुना ह
 राज ्या
ोट ो
 घट िया
 शाल ीन
हा थ
 फ िरा
 पंजी यन
 फिल ्मा
 चम की
 छ ंट
 बी एम
 शर ार
 सह भाग
 फर मान
दु री
 पर्व तीय
 उल् लास
 म झ
तल ाम
 एल् बम
 ड्र िंक
 हिमा ंशु
 गंत व्य
 दुश्म नी
 ना गा
 ढ ह
 लु त्
आ धुनिक
रे क
 भ त्ते
13 2
 शुरूआ ती
 H ouse
 मू से
 सरा हा
 D h
प्र कृति
 अलेक् जेंडर
 आत् मी
 नो रा
 भ ृ
 जि ंद
 शिव जी
 इ स्तांबुल
जे स
 इ वान
 च ाला
 हांग कांग
 व ुड
 पाप ों
 राजाम ौली
 र ंगे
 घे राव
 E dit
 ट्रांस फार्म
 दर िया
u ra
T V
 कारा गार
 मु कुट
 मे मोर
 मुख्य मंत्रियों
 पुर ुप
 htt ps
 घ नी
 डि स्प
 चौ थ
 जित ेन्द्र
 स्टेट स
ाइ जर
 सर्क ल
 ए एसपी
 एथ लेट
 दब दबा
उत्तरा खंड
 आख़ िर
 सु ब
 सब् स्क्राइब
 सुल तान
कि न्तु
 चुनौ तियां
 डू बे
 टु डे
 B oss
 कम ियों
नि फर
ब स्टर
 उ स्मान
 लि थ
y p
ं न
 अंधे रा
 परि णीति
 चे हरों
 मिल ों
ार ूस
 पी टर्स
देख ो
 बुंदेल खंड
 नि गल
 खरी दार
 सुना ते
 के ला
 होने वाली
 बाग वानी
- दर
 सिर सा
बु ध
व ही
उ न्हें
 रण दीप
 एकजुट ता
 मनी षा
 बे ला
 वर्क र्स
 अति शय
 पा ँव
 s c
 जय सिंह
 इकल ौ
 जीवा त्मा
 परि हार
 d e
 क ली
 त ंबाकू
 राज ग
गण ित
18 3
 त ल्
 सि खों
 याचिका ओं
डॉ क्टर
 बेच ैनी
- ई
 क्रूर ता
 बी जों
 हि च
 शक्त ियां
 आधार शिला
 धर्मा ंतरण
 विक्रे ताओं
 कब ड्डी
 क्वार ंटाइन
 Am eric
ार् च
15 5
 हट ाना
 अल मारी
 चटका ए
 प्रेष ित
मा स्टर
 जरूरतम ंद
T M
 आद तों
ड ाय
 कु ं
न्ध ्या
 सं न्यासी
नस ून
A m
 ख गोल
 राष्ट्र वाद
 उंगल ियों
ज़ ान
 आईसी यू
12 2
 व क्
 शिक ारी
 ट्र िप
 संबंधों ः
 क्षु द्र
 सी ना
 एजेंस ियां
३ ९
 शिना ख्त
 त्र िवेदी
 पधार े
ंज क
 झु ंड
 गोक ुल
 गुर ुकुल
 K h
 थम ने
6 50
 सम् पादक
 रवि शंकर
 बैक ग्राउंड
 आवेद कों
 समाह ित
z a
 थ ्रो
 हर मन
झार खंड
 आज मा
 C ha
 क्ल र्क
 म िता
s ung
व ले
 असुर क्षित
  ر
 A I
ur r
 Man ag
 हों डा
 अनो खी
 ट्रे डिंग
 सौहार् द
आ यु
 ध ां
 भाग ते
ग् गी
 भैर व
िल िटी
) ;

य ति
-प ांच
 को इ
 फै लता
द ें
कल ित
ँ वर
 ज़िम्म ेदार
ध रो
 ब र्न
 फिन िश
ो मे
 प टल
च्छ िन्न
 निर र्थक
ँ क
 कार खानों
 स्ट्र ॉ
, झा
 ख जाने
 दिशानिर् देशों
 ग्लैमर स
 सू क्त
 खर्च ों
PAT NA
क्स िको
अ स
 थ िर
el i
 मूर्ख ता
 क णों
 लौ ंग
 बोल ्ट
 कै ंसिल
 परियोजना एं
 डाल ती
 प्रौद्योगिक ियों
ि गो
 ई एम
 वि जिट
 ब ोट
। ग्राम
 भाल ू
 दू कान
 पो ख
आ त
 आर् कि
अ फ
 म दिरा
 चीज़ ें
मी ड
 दिला ता
 ज्वाल ामुखी
 ग ॉ
-म ेल
-प ोषण
 s e
 ड ैम
 अकृ षिक
O N
 मशीन ें
 विशा खा
 प िल
 सर्व र
 मंज िला
 लियो न
 ही ट
 प्रदर्शन कारी
 शे न
 तृ तीया
ि ण
बा ध
 घाट ों
 मंगेश कर
 ! "
 अहम ियत
ज़ ाम
 च ने
ष भ
 केस री
उ त्
 घूम ती
 फ ला
 को रो
 मुख बिर
 अम ीन
 स त्त्व
 छ ुआ
 बह िन
इ तना
 ज वानी
माद ित्य
चे तना
 अपना ई
 ब्रह्मा ंड
 साम ायिक
 करती ं
ن ا
 कम ्यू
रोज गार
 ड िए
 गं वाने
t on
 आ ड़े
 एल जी
जि से
 ऑ क्शन
चार ्यों
el d
-फ िर
az ine
ब्र िट
प्र भ
 बृज भूषण
ो रो
 क त्ल
ज़ ि
 मांग ते
 ता क
 भर ें
व द
 नि वृत्त
 लम् बाई
 कोलंब िया
 स् लो
भा गी
 M D
 को क
 शी शे
 कह ूँ
 प्रदेश ा
 बढ़ा ए
 लूट ने
ड्र न
 क स्त
रे जी
 झां सा
 स्व ै
 वीतरा ग
 प्रेसिड ेंट
 C ard
 न्यू रो
 भाषा एँ
सु फ
 कोरिया ई
कर म
12 1
 अद िति
ेंड ेंट
 द ंगा
 दो हरी
M A
 ड िल
 जैन धर्म
 कॉर पोरेट
 ड राव
 डी प
11 4
-ब ाल
र ॉ
 आम ्र
 रोक कर
कर् त्ता
m edia
ख ले
को विड
 गु हा
 T eam
 डी जे
द् दू
 भूल कर
 भूत पूर्व
 तत्त्व ों
 अनियमित ता
 सी कर
स्था ई
 बजा ने
ड ेंसी
 तूफ ानी
 त ूल
 घ ोड़ों
 मिली मीटर
 कन् फ
 जेई ई
- मो
उ च्च
ब ंकी
  ~
T T
 मान देय
 परि ष्कृत
ड ाल
पु स्तक
 तारी खों
 इस प्रकार
od y
ड्ड ों
 मॉ नसून
 थ्र िलर
 मु क्के
 पहुंच ती
 नो बेल
 ज़ िक्र
 ब त
 अरब ों
 स्नै प
 टेक्न िकल
 कमेंट ्स
 अल्ट ्र
डीएफ सी
 सि मर
सि फिक
 किस् से
 निगाह ें
 की टना
ar an
 गो मती
 फल तः
 वि नर
 रिक्त ियों
 कु मा
 C ert
लेट ्स
 ला स्ट
द ण्ड
 त ार्किक
 प्रश स्ति
ॉ जिट
 खुले आम
 खे सारी
 D es
 यू एन
og i
 होश ियार
s tr
आप की
प ारा
 कै न
 ब ाम
 अन मोल
 राज भाषा
 न्यायाधीश ों
 मा ही
at ure
 कत ई
 सुर ेन्द्र
 मु कुल
 नी चा
 p eople
 गुल ामी
 डकै ती
 टिप्प णियों
 फ़र वरी
 जे सन
ो नी
 त रा
हि ंसा
14 5
 ज न्नत
 कै रो
 प्राणा याम
 च ह
ॉर्ड न
श ासित
 कु सुम
 अग्न िप
च लो
 ने शन
 फे व
त ै
 स न्तुष्ट
e k
य ना
 लाल सा
 हुक ूमत
 मुख र
शी ला
िवि ध
 यात्रा ओं
E C
 ने वि
ज् जु
 समझ ो
त ारा
 टी ना
 बु झा
ख ेल
 उत्पाद कों
व ित्त
द् देश
प्र मुख
फै क्चर
  с
-प्र दर्शन
 अव र
 मूर् त
 विक्र य
 ख रे
 c oun
 कंध ों
- विधान
 यूर िया
 ब्ल ूट
 हिर ण
 पीडि़ त
12 6
 गि ने
स हित
 दा सी
 t ake
 फा ड़
 गोपनीय ता
 परा ग
 शार् दुल
il ity
 मसू द
 कार नामा
ar b
j ection
र्ण ा
 सुग न्ध
त्वा त्
भ ट्ट
- जो
 त्रास दी
ाल ित
राय ण
 रम जान
-ग ि
 राम चरित
 म ऊ
 सं ज्ञ
 विक्ष ोभ
 श ल्य
 फ्र ूट
 जेल ों
ियार ों
 ब श
 कर ूंगी
ें स्की
 कु ंवर
 बिता या
 शि खा
 आला कमान
 निर पेक्ष
 रग ड़
 पिछ ला
 स वाई
 रोह ता
ग ्ल
 सौ म्य
 एमएल सी
 बे ची
 अ हो
 न मो
ेड कर
स्ट ार्स
फा श
 सर िता
 धारा वाहिक
 फाइ टर
पंथ ियों
 मूर् तियां
 प्र माद
et y
िय नों
 मै के
 निप टा
ॉ मी
उंड ्री
 वै धानिक
ज म
भ गत
को हल
 ते वर
 नाग ालैंड
 वायर लेस
 जे ड
18 4
 मल िन
- C
 फोटोग्रा फी
 भावना एं
 शिक्ष िका
 हस्ता क्ष
 रच ने
ट ाइम
 हाउस िंग
o ot
 विशेष ाधिकार
 म ंगा
 मे वाड़
 माल िनी
 वी आईपी
 गियर बॉक्स
 फौ जी
 त न्त्र
 B usiness
 विज यन
 म प्र
 ता म
 ग च्छ
 तो ड
ौन क
 क़ दम
 करोड़ पति
जर लैंड
 इ टावा
15 3
 रि सी
 भूमि गत
asht ra
c ess
अ र्स
 भ रण
 W ritten
 रो धी
 ए शियन
 स्क र्ट
 Re al
 एक तरफा
 करवा कर
 बह ुरि
 बे ल्जियम
 पर िम
 हेलिक ॉप्टर
 भा टी
 पेशे वरों
ाना थ
ने बल
वि दों
 कॉमे डियन
ठ ि
ामी टर
 सूचना ओं
 जमा या
 द फना
 प्रतिष्ठ ानों
o f
 सु ष्मिता
 जल भ
 अपमान जनक
बी ज
ाम ृत
कर ि
 मू क
 सें ध
 कार ्ल
त्व ं
 पैर वी
 सूख ने
रिप ोर्ट
 मु ल
 रूप ांतर
 S ur
ठ िया
 I II
 H igh
 माध्यम ों
 गोवि ंदा
 सो डियम
er g
ें जर
 ट ल
 भौतिक ी
 मा स्टर्स
 सर्क िल
 वर्गी कृत
 बुलेट िन
F C
रूप से
 ह ेट
िय ं
सल र
 सुक ून
ंग ण
 T est
 च प्पल
 क बू
ut i
 बा ंदा
 ट ेंशन
 पू ंछ
 थो डा
 चाइ ना
 रि स्क
पद ार्थ
 फ टने
 ल िमिट
 रु द्रा
त्प न्न
मै क
 खो या
elop ment
 वैक ेंसी
 र जा
 र ूह
 उत ारे
 उपनिष द्
 P art
 संस्कार ों
 मिल ेंगी
 आलो चक
 अख ण्ड
 बुलंद शहर
 नौ बत
 अका दम
 निता न्त
अ ं
 निर् बल
E n
 अभिने ताओं
 समावेश ी
 ओ ज
 व्यवसाय िक
प ुन
н о
 पै सेंजर
 दाय रा
 सीए ए
 n o
 बा स
 जी ंस
 प ाला
 पी ता
 रिस ॉर्ट
 पुन र्व
 ऑटो मोबाइल
 अध्यय नों
  ت
 पर फॉर्म
ala xy
 शि ष्ट
द ै
 अंदर ूनी
 द्र व्यों
 सु श्री
 उपास क
 م ن
 नास िक
 आर्ट िकल्स
 सु जान
- S
च ो
 वि द्रोही
 पहन ते
रा ंव
ग ्य
 फर हान
ाइट िस
 वेस्ट र्न
ib le
 वैय क्तिक
 कर म
 सौ गात
 स्कॉ टलैंड
- थ
स ंक
 दर गाह
 बे डरूम
चक ित
नी क
 निकट तम
ex t
u th
 लेख िका
 स्थित ियां
 भूल ें
en n
 जला शय
 म ियां
जी रिया
 अभि वादन
 जाने वाले
 तेलु गू
 फा टक
 चां दनी
 अज हर
 तृ प्ति
७ ५
 वा क्यों
म ्या
 ब िश
12 3
दी क
 खरी दारों
सू त्रों
सम ्य
 ब्रा उ
 उपन्यास ों
६ ४
ज ोर
 E D
 अनुप स्थित
 क सम
वि ट
 रहस्य मय
 ह ँ
 दीन दयाल
 नरो त्तम
स राय
इंग ्लैंड
 खिलौ ने
 मूसे वाला
 ला उड
 धीर ेंद्र
 प्रप ोज
भ िम
 अफ रा
 हा जी
नाथ न
 च चे
ep end
्री का
 p ass
 घु म
 नव यु
 है प्पी
 उ च्चा
 आ र्या
en e
ग़ ल
 ई स
ब त्ती
 प्रॉब्ल म
 सेमे स्टर
 म द्य
 त न्म
 फ िक्
 पी वी
 क्षण िक
प्रा ण
 दूर दर्शन
 शत्रु ता
 कॉर्प ोरेशन
पू री
 मस् जि
 एड िशन
 विस्तार ित
 जोड़ ता
 वेंट िलेटर
 पा ण
 C S
 नू तन
 चिक नी
om i
 प्री तम
 जीव िका
 फिल ्टर
 यश वंत
 कर ारा
ध िर
 जो ड
कोट ि
 पाइप लाइन
 याद ों
 सदा चार
आ गरा
 वा चक
बै ग
य ण
 राम पाल
-ब हन
 शा दियों
 कट्टर पंथी
 मन ः
 साह सी
 प्राय द्वीप
भाग वत
 माथ ुर
 सु ले
 दू न
 ब्लैक मेल
 अछ ू
- माल
 फ़र माया
 यौ वन
ab ha
 गल िय
 नियंत्र क
-न ए
य द्यपि
ता का
 प्र मा
 जे एनएन
 डि ंपल
 तर स
 उद्योग पति
 विश्ले ष
क ड़ी
 C BI
रू ख
A C
क म्प
 बिज ने
 ब्लूट ूथ
il m
्त ियार
 अस हाय
ंब ेडकर
प्र स
१६ ५
 मि जाज
 नर्स री
 गति रोध
 शोध न
ind ra
 किशोर ों
 फर िया
 सिक् कों
 प्र वासियों
 ऐ क्ट
 शा ब्
 है री
च्छ ी
 जा इ
 महा शय
 L ife
 व नों
 न पु
दा ब
 तब ियत
 माल ती
 दान िश
 कक्षा एं
 ड ब
च ों
 प ोर
 स्नात कोत्तर
 अफवाह ों
 अट ्ठ
am i
 लॉन् ड्रिंग
 फ ुर
A d
P UR
दा दा
 श्रृ ंगार
एस एल
ل ي
 इरा क़
 थ ल
द्व ितीय
 संभ ल
 मैक्स वेल
 ओ स
ु ल्लाह
 मार् जिन
 समन्व यक
 नव नीत
 फ ोर्ट
द्य ु
बूल ाल
 लोगों को
ण ाप
 दु बारा
 एव ज
 Mag azine
 स्टैन फोर्ड
- रे
 दुष्य ंत
वा च
 बे द
 कलेक्ट ्रेट
 ह िल्स
 पु कारा
 दूस रो
म िंग
 बा स्केट
 मो नो
न्या य
ना दि
भा गीय
फे स
 ध ंधे
 ध ंधा
व ः
६ ८
श रण
 वर् कर
 खिल वाड़
कृ षि
 ट्रिब्यू न
 गो भी
 जीवन शैली
क् लो
 बदलाव ों
 एसोस िएट
 नीति गत
 श्रीलंका ई
 रम ण
 पंचा ंग
 ऑ र्ग
 मिर्जा पुर
 सिंड ्रोम
 तेंद ुए
न् धा
 E V
 भा ज
 धर्म निरपेक्ष
 निकाल ें
 बाग ेश्वर
 तु म्
- ही
 आलो चकों
फ़ ्त
 वाह ्य
 समाय ोजन
 प्र लोभ
 अभिय ोजन
 एएन आई
 सं हार
 पहु च
 वी वी
 पत ले
R R
 दुर् दशा
 भण्ड ार
ं था
 स्व िट्
 तप स्वी
 फू ंक
-गि र्द
 ल पट
 बचा ता
 सु नि
 याद ें
 मोन िका
 K e
 प्रतिमा ह
५ ८
 चट नी
em e
 पी के
 ऑ ल्ट
त्या ग
 रिकॉर्ड िंग
 का का
 प्र फुल्ल
 क्षण ों
 भेज ते
 स्पी च
 लिव िंग
-ऑ फ
 उतर ते
ेशन ल
-- -
 प िए
तु ष्टि
 खुद कुशी
 सुश ोभित
नव मी
 कॉ लम
 सूचना एं
 पुनर्ग ठन
 ला ग
 सेकेंड री
प्र ाइज
प हली
 भु ना
 Tra in
ार क
ला य
क़ ात
 श्व सन
 श ोज
 बिखे र
 बेल ारूस
 असें बली
 आ कृष्ट
शिव रात्रि
 स्पेक्ट ्रम
 मु ंशी
 मीड ियम
च ाहे
 बु नाई
 बेच कर
क़ त
 क्रम िक
 थ ॉमस
 तिर स्कार
 अप नों
े रे
 s aid
 con tr
 कछ ु
 सुप्र सिद्ध
 re g
 सु बोध
 बस ु
 बात ो
बि ना
 विलियम सन
ंक ृत
 किर दारों
 सोम नाथ
 चौथा ई
 म जी
 ए ं
 कु टी
 स्व रा
r es
 नक् शा
 पा उंड
hi ef
 टे म्प
 कस् बा
 कॉन् ट
 से बी
 ( "
 पत् ती
े व
ज्ञ ात
 चाली सा
 दृष्टि गत
पन िवेश
 उद र
ब र्स
लि ज्म
) ;
 यी शु
 या ंत्रिक
 मह ुआ
-पू र्वी
 उ ड्ड
 उ थल
प्ल स
 रो हन
 गाय िका
 कार्य प्रणाली
 ऑस्ट िन
 सुपु र्द
 Rashi fal
 जन मत
 डिप ॉजिट
 und er
 गिर ता
 ब्यौ रा
ख ोरी
ह िल
 पहुंच ाई
 डे बिट
ह ्
 खुश ियों
 म ोज
 सम स्तीपुर
 बहा दुरी
one y
 ज़्यादा तर
oh li
ाम ू
 अभियुक्त ों
 कार्बो हाइड्रेट
श िमला
ु का
मे डी
 जि गर
 वर् त्त
 वाम पंथी
- ओ
ू की
 मु ल्
ुप ुर
 पोर्ट फोल
चि स्तान
क ना
 मु नी
 ब्रे स्ट
 लग ान
 इम्यू निटी
 कॉन् ट्रैक्ट
ar at
 केवल ज्ञान
 वार्ता लाप
 क्ल स्टर
 अर विन्द
उ ंटे
 पार सी
 फो र्
 मेमोर ियल
न्द ्व
 गुंज ाइश
१६ २
 कार खाना
 बार ूद
 G alaxy
 इला य
 पर्यवे क्षक
 जा मुन
 कच हरी
 - (
 ! "

 d is
मीड िएट
 द ंत
र्म िला
 अवश ोषित
म ढ़ी
 युव तियों
 अनू ठी
 व द
 उदाहरण ार्थ
 मृ दु
, अ
 इ ब्
 भ ौर
 कस्ट मर
ोन ें
 प्र ांतों
 ने म
 कम िंस
 भाव ार्थ
 पर् ची
 लची ला
 विघ टन
 संस्कृत ियों
 ब र्क
 ग ान्
 धा गे
 S ec
 असमान ता
तिक ो
 g overnment
 दिखे गा
 मु सा
स्था पना
 अंड मान
ई न
 साल े
 घ ंटी
 फेव रेट
ो त्
 हंस ते
 कॉस्म ेट
 घब राहट
 परिस ंप
 Psych ology
1 19
 खेल ेंगे
11 8
 न ूपुर
 ला ती
ध्व नि
 भुगत ना
 प्रशास क
स्प ष्ट
 सु त
 झ ूल
 कैप ्स
 दार ोगा
 वॉट्स ऐप
-स मा
 ऑटो मैटिक
 फाइ ल्स
 गो रे
 चौकी दार
 सब्स क्राइब
 घ मा
 विचार क
 क्यू ट
 सीता पुर
 रु की
 उड़ा या
 श्रो ता
 भर् तियां
 संतोष जनक
 इसी से
 सड क़
 हे नरी
 रण जीत
 L ive
 जुड़ा व
 अनु मंडल
' ।

 ता त्
सूर ि
 ग्ले न
 वि मोचन
 T imes
 न ानी
 घन श्याम
वा क
 I ND
 ढा का
D R
v en
 कार गिल
 बख ्तरबंद
 हा ट
 B est
 ध म्म
 बी एमसी
 अनल िमिटेड
 क सरत
 बचा ई
 हथ ेली
 दबो च
ग ोन
त ने
 व शिष्ठ
 स्क ॉट
सु न्दर
 अखंड ता
 फी फा
 अद्य तन
 बि रा
 ब ंपर
 जल मग्न
फ्र ेश
 अन ित्य
ोज िट
ों स
कृत िक
 भंड ारी
con om
 नाइ ट्र
़ ्स
 ब क्
 वोल्ट ेज
 प ंज
 टो ला
 ल िन
 w ould
 नृ प
ग ंग
ग्र ाफ
 आन लाइन
 रि म्स
 च िल
ec ial
p lo
ख ानी
ज ला
 विक ृति
 जी आरपी
 अंग ुल
 सेरे मनी
 भ वे
 कै डर
 झ ांक
 जॉ नी
हा ट
दी द
 ख्वा जा
 विले न
क ॉन
 उ ज्
पा प
ष ्या
े सी
 लो कों
 द फा
 आर िफ
बहा दुर
igh ts
 पा दरी
शा ख
ड ेल
द ्म
 पा त
 पूर्ण िया
 प्र सू
 छ ठा
 क्र ाइ
at t
 ड ंडे
उस की
 विनाश कारी
 कॉन्फ्रेंस िंग
नीश ियम
 वि दर्भ
 आई टीआई
 बल्लेबा ज़
-इ ंच
 जलभ राव
  ক
ए टी
 ब ंगल
 भ्रम ित
 प्रदेशा ध्यक्ष
  и
 ना भ
 जवाब देही
 टूर िस्ट
 वा द्य
 ब र्ड
 से मिन
 सम लै
ग् गा
 जाग ृति
H E
 ति हाड़
 वंश ज
  ः
ता या
५ १
 भ्राम क
  ..
 एच डीएफसी
 लोक पाल
 Mar k
- लीटर
प त्य
मान िया
सं भव
 एम ओ
 पुन र्जी
  ढ़
 गौ ड़
 समझ दारी
 V i
m Ah
ट ि
 एम एसपी
 मस ला
प्र ाइ
 जाग्र त
 का ॅ
ro p
 फर्ना ंड
 य जु
 ख़बर ें
 जा ऊंगा
 बा बूलाल
 अभ ेद
 P and
मेट िक
 अ स्थाई
 सर फ
ड ाई
श री
 को न
 नम कीन
 ता कतों
 राम ानु
एँ गे
 रै केट
 र घ
-एन सीआर
िल ेंस
व्य क्ति
m ed
 का ंट
ु मार
 स गे
 प्र ीत
2 30
 यू ज़
- सि
 डी के
 ग्रे नेड
 तीर्थ या
 दूँ गा
 हु मा
५ ००
 गैर कानूनी
 जड़ ें
 भड़ काने
 काउंस लर
ोह ण
 एथ ली
 शेखा वत
- जु
न् ही
बी पी
 मॉनि टरिंग
 मै रा
 स्या त्
 जावे गा
 जन पदों
. )

 सो ची
 a cc
 N ov
५ ७
 आ का
दूस रा
दान िक
 स्टाइल िंग
न ू
 थ मा
 हाद सों
 शिक ंजा
 किन ारा
 मंड प
 च ंग
 प्रश् नो
 D i
 बिल् डर
 से नेट
 अध ीर
 उप नि
 Sch ool
ान ां
istr y
ओ के
 देवे न्द्र
के तिक
जे न
 देव घर
 बेग ूसराय
 प्रति बन्ध
 ऊ न
 नी ट
 पेट ेंट
ौप चारिक
 पोस्ट म
 चै क
 वै ली
 अँ धे
त्र य
 पि ंज
६ ७
 ब ार्
ेश ंस
 कार्या न्वित
ये त्
 चिक ित्
-फ ाई
 गेह ूँ
ahar ashtra
वा इन
ar th
-पा किस्तान
 आय शा
 ज ज्
 चे तेश्वर
 शोभा यात्रा
 टेली कॉम
पै ड
ाइ यां
 क्र िट
ण ुओं
न ए
ब द
के न्द्रीय
in ks
 ग्र िड
चे स्टर
 L ove
-वि देश
 शत्रु घ्न
com e
 पोर्टफोल ियो
 अम् ल
ह ड़
य ेंगे
जे य
 फै टी
क्रे ट
 सित ारा
f ter
 आश्चर्य चकित
िने टर
 मुस्क रा
दान ंद
ल िस
ख ड़ा
 द ाई
रो ज़
 सह ृदय
स र्
 जय प्रकाश
 हा वड़ा
 ओ लि
 उद् भव
 भ िव
 A P
 बहा व
 अ स्सी
 विप त्ति
 स् काई
 ले क
 लूट पाट
 फ ्यूल
 टोक न
 तदन न्तर
 ग ें
एम आर
ब रे
 किसी को
 कम्युन िकेशन
- पीट
 व शी
 पाल ने
 माइक्र ोस
कट ि
 अष्ट मी
 परीक्ष ार्थी
 क्ल ियर
 समान ांतर
 प्रकार से
या मी
 पो ते
 इ ल्
 S T
 डिए गो
 प्रति प
 कार्ट ून
! !
U M
 अध ूरी
 एल आईसी
 घु से
 बृज ेश
 कॉम्प ैक्ट
 न ायर
 पा श
 आरा ध्य
 ता म्र
 नर संहार
o z
 घ टने
ित् ति
 सोनी पत
 मु ग्ध
 बिल् ड
 कार् गो
समा चार
 कॉ स्ट
 कॉ म्ब
 झ ुर
 धार कों
 गौ शाला
शिल् प
 अश ांति
 निष्का सित
च तु
 ट ां
 रिज वान
क्ष मता
 सत्य ता
स ूरत
च िप
 रिप ्ले
 ख र्चे
 बाय ोपिक
 फे री
un e
 नॉ र्मल
 मातृ भाषा
 ल ार्ड
 ज मे
 फिल्म ्स
 कठोर ता
 बा ँस
 प्रेम चंद
 सुना ने
 परीक्ष ार्थियों
 है रत
 मेलब र्न
 मो र्च
 रत् ना
 s ame
 ग्राम ों
ॉर्ट म
" )
 एल पीजी
 झार खण्ड
 शताब् दियों
पू र्वी
आ त्मा
 यू ँ
ताल वी
 शख ़्स
 Tr ans
 कौ ल
 बी टा
्स न
 Ad v
 एडी जी
क ्रीम
ov er
 कं वर
B ihar
 तनाव पूर्ण
 त ित
ान्तिक ारी
 पूर्व ज
 लो धी
 फ्ल ैश
 दावे दारी
 F ree
 पड़ ेंगे
ail way
 फ़ ा
 परिस्थित ियां
प मेंट
 स त्तर
 र क
 F ire
 गि नी
 बहन ें
 चाँ द
 Cr icket
ou th
 डो मेन
 सवे रे
 अस्थिर ता
श्ले षण
 A ward
 क्रिस्ट ल
 स्ट ्रेस
 स् पा
 प्रतिरोध क
 ज़ ी
 नौजवान ों
आ ं
 ख दे
ाहे ब
 फ िना
 स्ट ्रेट
ग्र ो
 आने वाले
 उतर कर
वि श
वे ल्थ
 स यम
 व स्त्रों
 बा उंड्री
 ब्र ायन
षि द्ध
नम ार्क
भा वा
त्थ ान
 सेवानिवृ त्ति
ाई ल
ो र्ड
 फें के
तुम ने
स वार
म ृ
एस डी
के र
 स विता
 वि भी
 ज्ञ ाने
р а
 सु स्त
शी र्ष
art ment
 रिम ोट
त्त ो
  إ
 डी आईजी
11 6
 कटा क्ष
 हजारी बाग
म ून
 खुश हाल
 धार दार
 कमा या
च्य ते
त कों
थे रेपी
 तृ ष्णा
Th is
 मांग ें
 हस्ताक्ष रित
 ग ंदा
चे न
 के वी
ने न
प् पो
 आय ेंगे
 बै र
 परम िट
फ ्ले
 का ँग
ते न्दु
 प टर
 स्वा स्थ
 रू बरू
 प्रथा ओं
Coron avirus
 क ॅ
 ढ क्कन
 दृष्टि गोचर
 यूएसएस आर
 राम दास
 पर िल
 कि न्हीं
 या ज्ञ
 Im age
श ै
वे व
 मध्यस्थ ता
R C
न्त्र ित
 शराब बंदी
 म ूस
 र तलाम
 कड़ा ई
 नक् शे
 च क्षु
भू तियों
5 50
 विल ीन
 उपनिष दों
 हु ंडई
 हर कतों
 जु दा
 पर्दा फाश
 दी प्ति
F I
 जि न्ना
प ांच
 लड़क ियाँ
 Q u
 सुपर स्टार्स
 चंद्र यान
 शाह रूख
 अनल ॉक
स् ना
 निरा धार
 करवा ते
ऑ न
 स्पष्ट ता
र ियन
िय ें
गा ँव
 ति ब्ब
 तृ प्त
 सि ब्बल
 प्रतिभा गी
 प्रक्षेप ण
 बिजने समैन
 अप ा
 विक्र मादित्य
 स हर
 प िर
 किस को
 झ ट
 अथ र्व
 भट्ट ाचार्य
मांड ू
गा य
15 1
 फे रे
साम यिक
टी क
लि नी
 मैथ ्यू
 प्रतिस्पर् धी
 र बी
 इ न्त
 स् केल
 मै डम
 स्पेन िश
-वि वाद
 प्रकरण ों
 अस ंग
लिया ँ
 e very
 Ed ucation
ो य
 मु नियों
ब ें
ता नी
 दिशानिर् देश
 अवय व
 जबर्द स्त
ंग ीर
 मे क्सिको
 महबू बा
 रा ई
 अपन ाना
 वि भाव
 ट्रांसफार्म र
 पड़ ना
 बल देव
 सुल झ
 इ न्द
हु ँ
 र िवर्स
 ह ाम
 त दा
 धन खड़
 प्रान् तीय
 मै ट्रिक
 संभ ाली
 प्रति निय
 उत्तर ोत्तर
 परि धान
 रिपब्लिक न
 ट्र कों
 प क्के
चर ित्र
 खिस क
 का ई
 अर मान
 निकोल स
 लॉ रेंस
लाल जी
 होम गार्ड
in ation
अ ति
 स िल्
 थ ्री
it a
 धन ंजय
 गुजर ते
 छप् पर
 S P
 बाई पास
स म्प
 in ter
 बबल ू
 झ ोंक
 संस्था एं
 यूजी सी
 अ ता
चिक ित्सा
अमे रिकी
 वि निर्
 गिर फ़्तार
अ य
 मोट ाई
 र ेंस
टी का
 g o
म च्छ
 ह वेली
 शैल ेंद्र
 लु क्स
ना पुर
 सर्वो परि
 S k
 N E
 सटी कता
 एमबी ए
 मसल न
 गो वर्धन
 T e
 मुख्या तिथि
िल ियन
14 9
१६ ६
 ला ओ
an e
 आर्कि टे
 खंड पीठ
 कोर ियोग्रा
िप ्प
 वी णा
 चै ंबर
 विक्ट ोरिया
 क टी
 आ र्डर
 अख़ बार
 मस्जि दों
 वे दा
 बन ानी
 ता ंबे
 पांच वां
 मातृ भूमि
 प्रति वेदन
 M on
 अ क्
 बीएस ई
 पोस्टम ॉर्टम
 च बा
 बि ष्ट
बच्च ों
 स भव
 गा उन
-पी छे
ल्ल त
 फेलो शिप
ता ः
 घूम ता
मान ना
गो श
 सेव कों
ळ े
 प ौर
 हर िव
फ िन
६ ३
 वा कि
 रे पो
ra h
 आगंतु कों
- स्ट
-देव ताओं
 इलाय ची
 से म
 कू च
 अन गिन
वर् ल्ड
 बू स्टर
 भिड़ ंत
 हों ठ
िक ांत
्ट ो
 पत्र िकाओं
 चैंप ियंस
ै द
 अट ूट
 नसी हत
ाय ेंगे
 स्त ूप
 मा था
 कोशिश ें
ोप देश
रा डो
 सहभाग िता
ाज ल
 आकाश वाणी
मे न्ट
 जनप्रतिनि धि
स्प ेस
भाव ित
 एमसी डी
I P
 ह ड
ने पाल
 प्र ॉड
 य थे
 संच य
 खे ड़ा
 पहुँच ते
की र्ति
नि हित
 शु भा
 Ar t
 विक ट
 रो पण
थ ित
 ग यो
 स्व ि
 वर्क शॉप
 र सेल
 धो ना
 अनू ठा
 द िम
 दवा इयों
फ्र ंट
 स्टेट मेंट
 ल वण
नि स्ट
 पढ़ ता
-सम्म ान
16 5
istr ation
 के विन
 ए रि
 ति रा
ul ts
 विद्या पीठ
 वाइ फ
 र ीय
 पुस्त िका
 ट ंकी
20 4
 A AP
 मोटा पा
 मार ्मिक
 जे सीबी
 गां ठ
 O ut
 की टा
कंप नी
 क्वाली फाई
 दी वाने
 अभि नीत
 प ना
 एन आरसी
 तत्पश्चा त्
वा पी
ली ज
 K ohli
 बिर ला
 सान िया
 की वी
तर ाम
जु द्दीन
 हा े
 बु आ
 निर्ण यों
 रवी न्द्र
 ad v
 त हां
 उड्ड यन
 आर पीएफ
 निभा ता
 ठेके दारों
 भ ये
 मिल र
 प्रा देशिक
ाइन ल
 में टेन
 टैग ोर
सल ाम
 आर्ट िफ
श ॉट
 कु ल्हा
 सत ना
D C
 कॉस्म ेटिक
 p h
 घेर ने
 से विंग
के न्द्र
 जो सेफ
 फ ँस
 पत ित
 फेर बदल
जी शन
प ट्ट
 व ं
चे न्नई
 मॉडल िंग
 विष मता
 re ad
 बिल ्ल
 टॉ वर
 नाम ा
 चला ती
 समन्व ित
ग िंग
 विशेष तः
 of f
गण ेश
 In jection
 वृत्ता न्त
 संके तक
er o
 राम नवमी
 एलो वेरा
 उत्सा ही
 कु लीन
 बे नी
अंग्रे ज़ी
 होती ं
b al
 आ लेख
 सुझा वों
 स्ट ंप
 P unjab
अ ंत
 घटना एँ
 लिख ें
 मय ूर
 आ ंबेडकर
 निर् वास
 संग ति
 पक ड
१८ ०
 Inst agram
ब ैंड
 नवा दा
लो नियों
 सीरिया ई
 सोया बीन
 स्विम िंग
a ur
 फै क्टर
त्र े
 कु च
  em
 प त्रा
 तो ला
तर ंज
 फे यर
 बाग पत
या प
 श्रा वण
 सि ह
15 2
 पर्यावरण ीय
 चतु र्द
उप र्युक्त
 अ ंद
 जाने पर
 इत ्या
 एमएस एमई
ज स
ोव ेशन
 गढ़ वाल
at or
 घमा सान
 संग्रह ण
 चित्र कार
प िका
 जै श
र् जित
 टूर िज्म
 को र्
 अर् पण
-प श्चिमी
 मस ौदा
 आंदोल नों
 सह ूल
 ड्र िल
 उन्न यन
 ड ायर
 अभिने त्रियों
  о
५ २
 हे रो
ओ म
 त ंगी
 विक ि
am ent
 छ ाने
क्ल िक
 C EO
 पीटर्स बर्ग
 द ्
 सौ राष्ट्र
 कं ठ
 क्वार ंटीन
उ ज
 बेंगल ुरू
 सू फी
 बो कारो
 स्क् वायर
 य ज
 कार्य वाहक
-बार ूद
 केम िस्ट्री
 Comm ission
 ल ्यू
 गो ल्फ
 फर माया
 ठे स
 चू ना
 नी यत
 एका दश
 आत्म घाती
 मुला क़ात
 प्रेग्न ेंट
 सो ह
 सद मे
-निर् देशों
ब ैर
 m edia
 गिरि राज
 रिया ज
T A
 कह िए
 चा ट
 सं कलित
न ः
 री ना
 प न्नू
 ज मु
भ य
 सैद्ध ांतिक
 प काया
th ing
 झा ड़ियों
ते रे
 भाग कर
ंद वाड़ा
 घ ृत
 से न्
हा ड़े
मान नीय
 सव र्ण
 ब्लॉक बस्टर
 अटक लें
 य ति
ौर िया
 I s
 म र्च
 नसी ब
प का
 सा त्विक
 मस ालों
 र ियो
 हो ल्डर
M E
 फ़ ाय
ank a
 ग य
 m an
र्त ित
 प ेल
प्र िंट
 मैग् नीशियम
 र त
 प्ले यर्स
 राधा कृष्ण
 ए म्प
 फिस ल
 पेर ेंट्स
ि सी
राइ च
 आयोज नों
 मिलिट ्री
 चिकित् सीय
 हीरो इन
 बाल ास
 बिजन ौर
 आ ंसर
 वृ न्दावन
१५ ०
 अन जाने
ढ़ ने
 त ड़प
 पाल ना
 च र्म
 ढ ील
त रे
 च रा
िट ेशन
 टै प
 आ त्मक
६ १
पी पी
 पी डब्ल्यू
 जु बान
दो ई
साम ाजिक
 पिक् चर
 ढ ु
 न ह
 गल ियारों
 बेव जह
 प ञ्
 वि नि
 अनु क्रम
 इं साफ
 अव्य वस्था
n ews
या द
 कस ते
! "
 शि ष्टाचार
पोल ियन
 कल ंक
 पाटी दार
सी र
 सु ह
 चिंता जनक
ुप ्
 पोल िंग
 मा पने
 ट्व िस्ट
 नै दानिक
 प्रातः काल
जे ड
क ाली
६ २
 सी डी
 य मु
 नता शा
ने म
 अर बाज
ain t
 जनजा तियों
ओ मी
 P ost
१६ १
16 4
 स्ट्रीम िंग
 अग्निश मन
 श ाय
्या ल
ुर प्पा
 आंद ्रे
( ग
 खेले गी
दु द्दीन
 व ाइन
फ त
 ओ ला
 स्ट ै
 कन क
 सी ज
 द ंडा
 Pro f
 भि खारी
 मिल् क
 अमेरिक ियों
 चन्द्र गुप्त
 द ारा
५ ३
 पु ण
 सम ास
 वर् जित
 एस एचओ
 लॉ टरी
ब्ब ों
 नार ंगी
 वा च्य
 M ot
 जिम्मेदार ियों
द वा
न् धान
 सब्स क्रिप्शन
 महा शिवरात्रि
 भग वत्
 इलेक्ट ्रो
 कहे गा
 न सों
 अभ िर
 एग् जीक्यूटिव
 विल िय
 प्रतिक्रिया एं
к о
ुल ्य
 कै डेट
 संकु चित
े म
- दर्शन
 बाड़ मेर
ook ie
l ed
५ ४
 के र
 विष ै
 प्रम ोट
 एम जी
 रस ो
 छोड़ ो
 चट्ट ानों
डिय़ ों
 विश्लेष णात्मक
इ धर
ट ॉप
 बल वान
 तट ों
* *
त त्
 क क्कड़
 वे णु
अ न्त
 समा गम
 चक्र वाती
 पह ि
 स्व जन
 हर िश्
ग्री व
क ल्चर
 बस ने
 खरी फ
 दक्षि णा
 छतर पुर
ब ोल
 शीघ्र ता
 ओ ली
 एंटीऑ क्सीडेंट
 एएन एम
िपु त्र
 पित रों
 बाई ं
 अ ती
जे न्द्र
 मार् श
स हाय
स् से
 बै ंग
 श्र व
 पुन राव
 अकादम िक
 ख ंभ
 पत ंग
 निजी करण
 सर यू
 विनियम न
 सर मा
 अवि ना
 ज िल्
 सु रा
 से फ
 प ट्टे
व्य वहार
म ंडी
- मोह
ل ا
 धर्म का
कु शल
 रिया यत
 विज्ञाप नों
ब ाना
 क्र ान्तिकारी
 M i
ऑ ल
 निर ंजन
अंग्रे जी
 दर्शा ती
ग ड़े
पी टी
 सर्व स्व
 रिया स
ेश ियम
 प्रा ंगण
 पं खे
 अन िष्ट
 प्रायश्चित ्त
 द बे
 मे हरा
re am
यान ुसार
म् हा
ा बाद
 त पो
िया ल
 सं वे
 ऑ ब्
14 7
 रि फ्रेश
 इ ंक
प्र भा
मन गर
धा तु
 R oy
 ढ ल
و ن
 प ठन
त्मक ता
 ताना शाही
 कैंप ेन
p ut
 आउट पुट
 दायित्व ों
 n ow
ूम न
 तत्वा वधान
मा ह
धान ्य
 K i
-वि ज्ञान
छ ार
 ख ूनी
म् पू
 बाउ ल
क् को
 स्वा ति
 फ्र ेश
 बिता ए
स्व ार्थ
 प्ली ज
 निगम ों
 ट नल
 गिरी श
 निय ति
 क़ ी
 पुनर् विचार
स् न
 सम्बन्ध ों
 Co ach
वि भिन्न
 टुक ड़ी
 मो हर
कां पा
ाप र
ग र्म
 न ॉट
 फ़ ाइल
मि नी
 T ime
 नवी नीकरण
 भा ंग
 बन्ध ु
 इम्यू न
W h
उ सी
 रेग िस्तान
ज़ ीन
 पंड ाल
 ब्या ह
 यश पाल
ंग स
 कम्प नियों
 सिंघ ल
 कस्ट डी
 वाय दा
13 4
गु नी
रो व
 बै ज
बल पुर
 पटा खे
S H
17 7
 स्वा हा
 उभ य
ख म
 हाथ ो
 दर्श नों
-ट ाइम
- शास्त्र
 दी वाली
मन ो
ev er
 समझौ तों
 धुआ ं
 ब्व ॉय
द राज
धिप त्य
 व ू
 उठा एं
भू षा
 इज हार
 रूढ़ि वादी
 मर ना
 उदासीन ता
 दिख ेंगे
 टेक् स्ट
 डे थ
 J o
 फ्ला ईओ
 बारह वीं
 द्यो तक
 ह नन
 टी आरपी
 वन स्प
ac c
 कुश ीनगर
 उदाहरण ों
amil y
 व रा
िर ुद्ध
 द्व िज
न्द िर
 गवर् न
 मंड रा
ul l
 बर् फी
 उर्व र
 न स
 अन ौपचारिक
 कि ल्लत
 ध ुल
 ना भि
 वें क
ii i
स ंप
 है वी
 राम नगर
-प ड़
 व ट
 बोल ो
 समझा ते
ل ى
ोगा ट
 एंटी बाय
जा तीय
रूप ता
त्सल ्य
 वॉय स
 उभ रा
 ज ंतर
किन ार
श ्रो
 कु म्
 सु न्दरी
 भा षी
पा थ
 लुत् फ
ो र्स
संग ्रह
 बल् ब
 माल ्या
 भ ुट
 छ ील
 गिर ती
 पंच कूला
ओ ह
ब् धि
 T o
 जीव ो
 र बर
ान ो
 ने क्स्ट
ग्र ाह
 पत ंजलि
 ग्लू को
 क ंबल
 पछ ता
 पद यात्रा
 एडी एम
 अस्थ मा
 स् के
प् पन
फ़ ्ट
 अ स्वस्थ
वी पी
 गो रा
 डिज िट
н а
ुत ्वा
 सं चित
 है च
 बारा बंकी
 यू सुफ
 मैरा थन
 राइट िंग
 प छाड़
 क लाई
ना मे
 कु ंज
 R am
 ह ारी
 ज्व ार
 कामगार ों
 G roup
फा स्ट
आई वी
 अनुकूल ित
ma il
 रचना एं
20 5
 अख रोट
 वीर भद्र
 शाका हारी
 निर्या तक
 ह रण
 नि व
 ला द
 फ़िल्म ें
 ए ग
 कह ै
 धा कड़
ब्रह ्मा
जा दा
 सम सामयिक
 राज कोट
स ंगी
एफ टी
-क ॉ
-सा हित्य
जब कि
ने के
 शाब् दिक
 सा ंता
 निपट ारा
 I C
 प्रमुख ों
 प्रशिक्ष क
 देवर िया
 रैल ियों
 हाला तों
र्म ि
 अपना कर
 वी सी
 उप ्र
सोम वार
ु अ
 मूर् तिक
-विर ोधी
 Upd ates
 फ ँ
क्ले मर
T E
 ल लिता
 G u
 ग्रे ग
 गवाह ों
 टर् बो
 प्रा ची
्वि ड
  પ
 अव मानना
 आद िक
 इंटर मीडिएट
ते न
 सन्ना टा
 त ना
ली करण
 ई श
 मार ता
स ोन
 आ उ
बू ज
 रंग दारी
 एक् स्ट्रा
हा त्म्य
 जय देव
 हिंदु स्तानी
 अटला ंटिक
 रै पिड
 हरि जन
 अभ द्र
 दर किनार
 उभर ते
 श यन
 मै ट्र
 सत्र ह
प ुत
 त ख्त
 यून िफ
-कर ते
रा त्मा
 ले ह
r ed
 है ड
हर ान
 W omen
 जटिल ता
लाव ृष्टि
osp ital
ख िला
को प
 वै र
 रू टीन
 गो ड
 इन् सान
 ज्व ॉइन
 सफ़ ेद
 इ तालवी
 मवेश ियों
 ब िला
 फ ोगाट
 सं बन्ध
 गुर मीत
 स्तो त्र
н и
 फ िश
 ग्र िल
 E m
 उद ित
 सेटिंग ्स
 काट ते
 परिस रों
 विज िलेंस
 H ar
 भ नक
गा ड़
ل م
 न ख
मूल क
s on
त िका
 सब मिट
 प्रह ्लाद
 श ं
प त्रों
 जू ता
 पॉ ड
 ज फर
 सरफ राज
न्ध ्र
स िम
िय ोलॉजी
 ख़ ूब
 श्रेष्ठ ता
 गोपाल गंज
 ढे रों
 य ेलो
 कि ड
 पर ाली
 सोच ें
वे री
 नव मी
 एड िशनल
ect ed
 ज्योतिष ी
 pr ot
 ag ain
मोट िव
 D ec
 ओ ल्ड
 ग्र ास
 विभू ति
से वक
12 7
्ट े
 सि ंपल
 बि च
 सभ ास
 N ow
 wh en
 हार्ड वेयर
 ए लेक्स
 मंत्र ों
 स गुण
 बल् ला
 हम ी
 हज ारे
ह ृदय
 चचे रे
 ब ड़ों
 पका एं
ई श्वर
 हा था
रु द्दीन
एन बी
 प्रदू षित
 इ यर
क्ष ्ण
 ड रे
 के सी
 च िम
ते रस
 सुख देव
ay s
 गर् ल्स
वें शन
 बीएस ए
- खा
 कोत वाल
- ति
 मैदान ों
 कोलो राडो
ियों का
 खरीद ें
र ार
 बी घा
 ई साइ
 प्रज ्वलित
ग्र ही
 थाने दार
 बे चारे
 चाहे गी
 प न्नों
 हदी स
 l inks
 पुत ला
वा सा
ह ण
 एलि जा
 उठा ता
 प्रेम चन्द
ur es
 क निष्ठ
 प्रकाश नों
 भु वन
इ ला
 नाग री
 फ़ीस दी
 क्ष ित
 संग ो
 परिल क्षित
 s tr
 जन वादी
 अनगिन त
 इला क़े
 खरीद कर
 न ंदा
 जल ती
w a
 दा वत
 हवाई अ
 उ र्मिला
 छ क्कों
pt ion
अ मर
 सब ब
 फ्लाईओ वर
 टा ंग
 लै ंग
 लॉज िस्ट
 आर पी
 क्रिकेटर ों
 कु बेर
 नीर व
 क ण्ठ
 निरोध क
जन ता
 निष् काम
 मुंगे र
बे रिया
 आवेद नों
 दी या
 अभी ष्ट
Qu ick
 एड वें
नाल िसा
 लु ढ़
 क्रीम िया
 घोष णाप
 ट ेंट
17 8
 एक्सप ो
पृथ ्वी
 कर वट
 एच आर
ार ि
ंब ले
 खाम िया
 जन्मा ष्टमी
 क टक
 करने में
 ख ड
 कार ्म
 सीमा एं
 स जी
 निक ्की
 जे ने
y an
ह दी
 क द्दू
 कार्य स्थल
 इकोन ॉम
 क ढ़ाई
 राइट ्स
गर ण
प ां
म धु
 मॉ इ
ने स्को
र्मा स
 फ़ ारसी
संख्य क
म हो
 उम ंग
िर ूप
 जै तून
ँ गा
 अप ्
 M ay
प्ला ंट
 ऐ श
 विना यक
 कप ट
 फ़ ै
 बतला ते
 एक ांत
त्र ेय
 किस से
मो ली
हिन्द ू
 नामांक ित
 शरण ार्थियों
 क्रिप्ट ोकर
 गै जेट
 नाम से
 बि धू
 भू खंड
 शिश ुओं
४ ९
 सा भार
 विल ुप्त
आ य
 म्यूज ियम
 तम न्ना
 उ ड़ने
री क्षण
 ये न
ra ph
 बिल ों
 प िक्सल
र्ज न्म
समु द्र
" मैं
 र ईस
 ज़ माने
ूँ गी
 कोठ री
 गों द
 ऐ न
12 9
 चा बी
-सम झ
ल क्षण
 आ गाह
 सिल िक
ार ूप
 आ ली
िन य
 श्या मा
 बीत ने
 थ ूक
 रा धे
 स् न
 P ra
-वि चार
l u
फ ाइ
 व स्त
 वर न
दिय ुरप्पा
 ता ने
 भू ले
 बा ट
 ला व
जु अल
 वाइ ल्ड
 रंज िश
 खिला या
वृ द्ध
i ous
 बड़ ौदा
 उलझ न
प ते
 फील्ड िंग
प्र चार
 म तानुसार
 वृंदा वन
 पार े
ल ाम
 छ ाल
 युद्ध ों
 अवध ेश
 ईश्व रीय
स्थ ानीय
et r
 अव संरचना
s App
 अपर िव
 कै रेक्टर
H z
ि ष्ठ
 वि ष्ण
 लाभ प्रद
um an
eng al
् ठा
 ओ लावृष्टि
 परमा त्म
 होल िका
 स योग
 व त्स
 वि संग
सु बह
 नाग िन
तम िल
 सुल ह
g ress
 और तें
es ident
 आनु वंश
इंद ौर
 अ स्तु
 बा क़ी
 ए ंव
 साह नी
 एंज ेल
 वक् फ
ग ला
ग िस
 भ ाइ
न् त्य
 वी के
 बीएस एनएल
 गाल ियां
 बीए ड
 वा च
 जि ह
 लॉन्च िंग
 अर् घ
 मिली ग्राम
७ २
वाई सी
 विशिष्ट ता
 उ क्ति
 ली ं
 संघर्ष ों
 को हरा
ग् ने
ांक न
at ter
 बे यर
 लें गी
 ट ्रेस
 बेच ते
enc es
 क्र ैश
 A C
उ धर
 मूंग फली
ा क
 महा कवि
 O f
 खुश हाली
ro id
 भीम राव
 ब ं
 कला ओं
( और
S un
ंत्र िकी
 बिख रे
स्ट ोन
 सौ ते
 अभ िक
दास जी
 सकें गी
ो द्धार
le ge
सिद्ध ान्त
 मुर ैना
 Nar endra
ड िज
 ल ामा
 प्रकार ों
 व्यभि चार
 खा ए
 सर गना
 नेट वर्
 पटना यक
া র
 मनोर ंजक
15 6
 दाँ त
 चम त्
 हत्य ारे
 सं तुष्टि
 देश भक्त
१८ ९
25 6
 दोप हिया
- स्थान
 राज न्
ग्र ेशन
धीन गर
 प्रण य
 अवस्था ओं
 अर्श दीप
ये न
 सृ जित
 ह्यू मन
 अ स्म
it ical
 अल ं
 Serv ice
 रिप्ले स
ना बाद
 ट ाप
देव ता
 In f
 राय गढ़
 एश ेज
 निक ्ष
 Sam sung
 क ंब
 t ra
 लाइ म
 वै लिड
 परिण मन
्र फ
या ब
एस ई
 गंग ाजल
 आईए एनएस
 श कर
 मे मोरी
 सकती ं
 शक्त ियाँ
 विद्रोह ियों
त् था
 कह ि
थ रा
 कंटे स्ट
 पार्टनर शिप
किस ान
 ब कर
 य ॉर्क
नो म
 ज ने
पा शा
3 20
 दवा इयां
 हाश मी
ड्र ैगन
 छंट नी
 प्रत िल
 एग् जिट
ुआर ों
पनिवेश िक
 ड टे
 सह नी
 को म
 दिल ाना
 पहन ें
 एजु के
- य
ुल िन
 डो नेट
अ ध्यक्ष
य ोटा
 दि वाकर
 म ंह
 लग ें
 चला ये
 कॉन् स्टेबल
मान ु
 डे नमार्क
 मछ लियों
 युद्ध पो
 मिथ िला
अप ना
स्पी कर
 जीवा णु
 अनो खे
 स ुरु
 व डी
 उ च्छ
 लगा यी
 v ideo
 दय नीय
 गम्भीर ता
 बे घर
 सू री
 नी ली
 म लाई
 पुल िया
-पा ठ
 प्रोटे क्शन
 जन नी
 कह त
ाप ्र
 S ource
 फ़ िर
 पोट ेशियम
- परि
 पद्मा वती
स ना
 फीड बैक
 चूह े
 साइ ं
स रो
 अल ्म
 गुज ारा
ि स्तानी
 जाय ंट्स
िंग ा
 बी डीओ
ak a
 प्री पेड
 लहर ों
 गु ड्डू
 एक बार
if ied
 बिछ ाने
 माइक्रोस ॉफ्ट
on i
 उछ ल
 मीना क्षी
-प ौ
 का मा
फ िंग
- ले
 द स्ते
e ak
 हो जा
 झ िल्ली
 अपना ते
 कर् त्ता
 घोषणाप त्र
13 3
 रेग ुलर
 मिच ेल
 आर्टिफ िशियल
 निर् जरा
14 8
ँ गे
 र ौनक
 ध ुर
 जिन पिंग
 पद्म श्री
ेट ्स
 मि स्त्री
 प्र भाग
 कंसल्ट िंग
 प्रलोभ न
 त िज
िस ि
 तलाश ने
 प्रोसेस िंग
 सिंद ूर
 ख ग
आर के
स्ट्र ियल
-सी मा
 दुर्ग म
 हिर ण्य
 फॉ क्स
 विदेश ियों
 on ly
 वर्त्त मान
 र ब
 जा ऊँगा
 सुन्दर ता
जिस में
स्ता ना
 गो री
 जाम िया
सि ह
 ल ाम
 अग वा
 गलत ियां
 स त्व
 एंटी बॉडी
т о
 इ श्क
गा था
 रक्षा बंधन
 जा मा
 बचा कर
T S
र त्न
l im
 एन िमल
 In ter
 इंटर्न शिप
 अ जन
व र्थ
 J an
 रह िए
 दृष्टि से
 रक् खे
Pl us
 ये दियुरप्पा
 रवि दास
 ल घ
बा ज़ी
 स्टडी ज
िप रि
 जी एम
 जम ाना
 संघ ों
 ध ू
 I N
 मंड ला
 वि चरण
 तोप खाने
 सी वर
 प्रा त
 साह सिक
 जा सूस
 मु कर
नि ष्ठा
 वार िस
 कै रे
 कैप्स ूल
 गलत फ
 सफ ारी
14 2
ङ् का
 फ्यू चर
 गां धीनगर
 वोटर ों
 डेन ियल
वर्द्ध न
r as
 मे थी
 I M
-क ला
त व्य
 बे चना
दन गर
 न्यायालय ों
ru kh
 लिक ्विड
सं बंध
 बता यी
 तबाद ले
 श ायर
ir th
 ख जाना
सि ं
 पहुंचा ता
 पद भार
ज् मा
द्व ी
व्या ख्या
 आ हु
 ऊ तकों
तुम्ह ारे
श द
 च िल्
त्र ु
 का उंट
 Y ork
मा ते
 धो ती
 फि ंच
 ए ंथ
 जी जा
क्की स
्ह वी
 ल र्निंग
 पथ री
र् भाव
 एमबी बीएस
13 6
म् फ
 कु र्स
 प्राय ोजित
 सी ढ़ियों
्र िज
 पू निया
 उठ ना
 रे गु
ट् ठा
 प्रय ोज
अ तः
मि थ
B SE
 रा ठी
 अन र्थ
 सम तल
istr ict
 उपजा ऊ
न्ध े
 पुनर्जी वित
 इले क्शन
 कांव ड़
शुक्र वार
 खिच ड़ी
 प र्चा
 पहुँच कर
-अ मे
 S o
 नु सरत
 म र्स
 बह ुप्र
 तात् कालिक
m g
 मछ ुआरों
्रम ण्य
 इमो जी
 प म्प
 बाज पेयी
 पर वर्ती
 ख जूर
जी को
 सेमिन ार
 फिना ले
 अ ड्डों
ली प
 मे सी
 उत्कृष्ट ता
 होन हार
4 20
ॉ र
 पर वर
 ट ्री
किंग ्स
 लक्ष ्म
-ख ु
 डेस्क ः
 नाइट्र ोजन
 सहूल ियत
। )
ें स्ड
क्र िस्ट
च िर
दान न्द
जिस के
अग ले
ते ल
 जा ई
ब्राह ्मण
 क्री ड़ा
 खा क
 l ike
P SC
 वि प्र
 ड ोल
 सी म
 रो जी
 प्र दोष
 बोले रो
 मो नालिसा
र्ष ण
ङ् गार
 प्रो प
 पुन रु
 T witter
 ब ंटी
 ह ंसा
हि रा
 कस ने
 k now
 भाव ो
 छो डकर
्ली ट
 शाहजहां पुर
 कह ूं
 घट ती
 ब ॅ
 का ण्ड
ab h
 भ ेट
ंघ ाई
 डर ने
 लोका युक्त
 कहा सुनी
 प्रति फल
 म्यू चुअल
 L atest
 अना यास
गी रों
 सर्ट िफ़
 बख ्
 ब चन
 दाम ोदर
 बार ें
द्व ारे
 ध ौनी
 यूरोप ियन
 भ ाम
 मल बा
च्छा दित
 एफ सी
क्ख ू
व न्त
ऑ क्साइड
च ाय
व ्स
 S ocial
 R ailway
 त न्
स् पा
 लि बर
 छत्र पति
 फिल िप
uj arat
 एय रो
 T ips
 अ नाम
 ध ब्बे
ृ द्धि
 आद िके
 एथली टों
 खामिया जा
 आप ा
 प्रत्य ुत
 का टना
 कै ब
एम ए
 क्रे ज
 जग म
र्क रा
 L LC
ोग ुण
 नि ंद
मे ध
 प्रतिक्रिया ओं
 प्र बुद्ध
 चित्त ौड़
 उदा त्त
 आयोज कों
 नि षिद्ध
 राम ल
 न्यू ड
 प ्यू
р о
हार ्य
पद ्म
 विवाह िता
 व क
 उ रांव
 वायु मंडल
शु द्धि
 मुख ौ
- युग
 स्क ॉलर
 Re view
 वस न्त
 लाठी चार्ज
 निर्भ य
 मा तम
ह िक
 कंटेस्ट ेंट्स
N ational
ृ प्त
 उ र्जा
रो पीय
 वे न
कु न्द
 सचिव ों
क्सी न
ग ्म
ृ थ
 इंड ी
क्राम कता
ि ओ
 बश र्ते
 इम ली
 इंजीनियर ों
 धो कर
चू ड़
ऊ ंगी
 डाल ो
कै प
 शैल ियों
फैक्चर िंग
 पीडब्ल्यू डी
 पटक था
 ता हिर
राह ों
 पीरिय ड्स
 प सार
 बाल िकाओं
 ब क्सर
 I T
28 0
 कप डे
 दाख िले
क ियों
 ख डे
श ायर
 B ill
 बिक िनी
 क तरा
17 6
 शै व
 उड़ान ें
 माफिया ओं
 या चना
 बे सन
शी र
 ह्यू स्टन
 बान ो
 साइ को
वॉ च
 जिने न्द्र
 ए ली
 कु म
 देने वाले
 मू सा
त् ताओं
 भ टका
 मु खा
 मान सिंह
 र चे
 बी ता
सुप ्रीम
 बी जापुर
 बौ छार
 गा डी
 चिकित्स कीय
 R o
 रसी द
स् लाव
 छ पा
27 0
िय ट
 गोग ोई
 अन ैतिक
 गर मा
 लुटे रों
 m ay
 भू खा
 राज गढ़
 आत्मा ओं
 बूथ ों
 हे रा
 तह लका
 सम ष्टि
 ओ वल
 टो ली
ञ् जन
 माओ वादी
 क्र ोम
13 1
कु श
 बनाए गी
ती ं
 स्थाप न
ंद री
 ब्ले ड
या त्मक
 शी श
 o p
 जहा ज़
से क
m er
७ ६
 का श्मीर
व्य वस्थित
15 4
-प ार
ल ट
 इलेक्ट्र िकल
 संप्रभु ता
फ स
or th
 कंक ्रीट
 बांध ने
 मा णिक
ash mir
- चीन
B T
w ork
ग ड़
 व र्म
13 9
 सुगंध ित
 प्रवर् तक
क् वा
-पर िवार
तन ु
 स्त्र ोत
क् न
 क्ष रण
िट ्यूट
 ऑड ियंस
 वाक्या ंश
ज ंग
व ेशन
 आवश्यक तानुसार
 एव म्
 बोर िस
 नग द
 ग ंदी
 ट्वी टर
क्षम ार्ग
 में ः
 र ोड़
 ज्ञान वापी
 बंध ु
 सद् भावना
 विर क्त
रव िवार
 उ द्व
 बा ंटे
ू जा
 य की
 चौर सिया
 हम में
 ज़ िलों
 के वली
han t
 अप ी
 हर ाम
- ठीक
 थे रेपिस्ट
 स्थ ाय
 पद ार्पण
 पू जी
 खंग ाल
 परि च्छेद
 जला या
ज स्ट
 प्र खर
 कु दर
टी ई
 T ata
 टै रिफ
ध िव
ब की
ौ ना
 s uch
 रखे गी
 अधिका श
R e
 प के
 ने ल
 मुझ में
मु क्ति
 स्वा वल
व रे
 वाह िनी
 अनुकूल न
 है श
 बे बा
आ र्य
 प्रा दुर्
i ent
 छाप ाम
- भाग
 चंद ेल
 सन्न ि
- गल
मे न्स
 शत कीय
 पेटी एम
 बा ंद्रा
 D ate
 फ़िल हाल
A D
 सा केत
एस ए
 इन्वेस्ट मेंट
Coron a
et ing
 पुन र्जन्म
अ ज
श ियर
 अ चार
 श क्कर
स्ट ीन
 आम्र पाली
O C
फ ूल
્ ર
 मां ड
 ग़ ज़ल
 छ ट
 किश ्त
 कूट नीति
 जुल ्म
तान ु
 अस दुद्दीन
14 3
 नी ना
 ढूँ ढ
ेल ियों
 बह ार
 है रिस
़ ा
 M al
 In ternational
 प डी
म िला
 पल ामू
द र्स
 खाल िस्तान
 न ंगे
 स् केट
 भर ती
 ह्र ास
 ल ुट
-स ंग
st it
 अप ्स
 अस त्
 सुल्तान पुर
w o
 नै ना
 अवि वाहित
 एडवाइ जरी
 कट ोरी
 साँ प
 सूर्या स्त
j ay
 स्वा भिमान
 A ut
 इका इयां
 नाय ब
 गोरख नाथ
 क जा
 इ ह
 प्र ौर
 छूट ने
उ क्त
 c o
्वे स्ट
ه م
र् लिंग
 स्क ै
अम रावती
ोब स्त
रण ्य
 Red mi
 चाँ दी
ोल ्यूशन
आज कल
 पह चाने
 d ev
 प न्ने
 ले ब
 छ िट
 रज नीश
or a
 छ परा
 अं जू
 छि ड़
 जहा ंगीर
A G
 काम देव
 एयर फोर्स
 गुजर ता
 एक्टिव िटी
 सम या
 ठ ोकर
 देव दत्त
17 9
 सर् गे
 बुद्धिम त्ता
ड़ ला
 मै ल
द्ध ति
 खोल ना
 as s
म ोन
 ? '
13 8
 एयर क्राफ्ट
ां शु
 आर टीआई
स्ती न
 फा फ
भु वन
 क ंचन
 टी कों
 मुख्य धारा
 फैक्ट री
 आल स्य
 अम ो
 खोज ा
 तोड़ ते
 हर् बल
पे पर
 डॉक्यूमेंट ्री
 सर प्राइज
 पु ं
के तु
 गुज रे
ff ic
 ऐ ंड
 खाल िद
 जे निफर
 स्त्र ियां
 स ट्टे
आई एल
 फॉलो अर्स
 नी तियां
 सद नों
 H ome
 विश्वास घात
 सुश ासन
जे वाला
 चल ेंगे
 ग्रीष्म कालीन
 महा पंचायत
 con s
 ट्यू शन
 ला ठ
 आई बी
 एक्ट ्रे
ंतर ित
 चर्चा एं
 सर्क ुलर
 का ंत
 तो ड़े
 बी ट
 मध्य कालीन
 श्रद्ध ान
 बर् बादी
 झेल ना
 घ ूस
 उठ ानी
 यून िक
 अस्थ ि
b r
उन का
 एच पी
 दंड ित
- N
 सावधानी पूर्वक
ध्व ज
 w ere
गु ने
-दे ना
 यून ान
 स्ल ॉट
ना गरी
 संग्र हीत
फॉर्म ेशन
 बक वास
ol i
 रीय ल
अ क्सर
ज ॉन
 क ें
 बता यें
 या वत्
 पुण्य तिथि
 अधिक रण
tra ck
 या क
एन सी
 धन तेरस
 परिण ति
 गु ड़िया
 उदा सी
१ २०
 जो नल
 ते न
द्यु म्न
d e
 ता ड़
 व्यू ज
  णं
म हान
्र ेंस
श क्त
 अं जु
 दूर स्थ
 बेच ैन
 अभ ियोग
मान ों
 गो ल्
 रू क
 O p
 मगर मच्छ
अ सम
व ाराणसी
 बा ब
जी की
 महापुरुष ों
 श ाइ
 पा त्रा
ोर ियम
 ब ूँ
 नाम का
 श्र ाज
वर्ष ीय
H indi
 मनो नीत
ॉ इड
 न ली
13 7
 जाति गत
 निको बार
 कट ोरे
 अभय ारण्य
 शनि देव
 अ चेतन
 य कृत
 उतार कर
ai pur
म् बल
 पों छ
 उ स्ता
 C le
 योग ेंद्र
 बना ओ
 बै रिक
 दिला ते
 उप सर्ग
ener al
ड ियों
 ब्र ैंड
 पाय ेंगे
 चा क
 ब्यो रा
 ब सी
 ए मी
 कार्य पालक
ed d
 बोल कर
-उ ल
 आ क्षेप
क् खी
ढ़ कर
 प्रिय तम
र् ज़
 अं शु
 आत्मा का
 मैथ िली
 गुर ण
 वाकि फ
o int
 जे नर
 ढाँ चे
 N et
 डा कू
 ह्र दय
 डिजी टल
 ख ट्टा
ार्थ िक
 N e
-क ल
 रू ख
 सू त्री
 हार कर
ल् लेख
 गा ए
 मौल वी
o on
गा ंधी
 राज कोष
 जी टी
 कान ्ति
 छोड़ ता
 ऑ नर
 फ ्
uk h
 बनाए गा
 भ यो
रो ब
 वा त्सल्य
र् ब
 धो या
से ट्स
 निक ास
शी ल्ड
 प्ला ट
्र ियों
 उ थ
 झ ोपड़ी
D M
 यूनिट ्स
 ध ना
टा उन
 ज़ मी
 सीमा ंत
ु ला
 प त्तियां
 ही टिंग
 हा हा
ul y
 तिब्ब ती
द पुर
 फ ंगस
 पोल िश
 वा ंग
 धा गा
 अगु आई
 रेसल िंग
। यह
 कप ल्स
 धर म
 सा सार
 दाल चीनी
 ड राने
हो म
 Th er
 अजीब ोग
 अनुस न्धान
 सी क्रेट
 विश द
17 2
र्ज ुन
-श र्ट
 गिट ार
 कर ू
 हंस ने
 क्ले म
 जान ्हवी
 सू डान
 मदर सों
 अव ्वल
इ लेक्ट
 को ऑ
 कल र्स
 ऑप्ट िकल
 स्व ार्थी
 को को
 से लेक्ट
कर ने
आख िर
 कूल र
 cont in
 हरमन प्रीत
 प य
 ग दा
 फ्र ॉड
 बहु ता
 गुणवत्ता पूर्ण
 महार त
 ह स्ति
 पा ताल
दम ों
 छेड़ खानी
v est
 सी नेट
मै ट
 सीर म
खा ई
 कारीगर ों
 ब्र ाइ
 ख डा
 सं पादन
 था य
 वर् किंग
 आर क्षक
16 2
 प्रण ब
ित्व ा
 संयंत्र ों
enef its
 य ोन
 अपडेट ्स
 औ पनिवेशिक
वास ना
 एहतिया त
 म रो
 पं क्त
ोप ण
विर ोधी
 कैथ ोलिक
 कम ्म
 इन ोवेशन
 करा एंगे
 माह ेश्वरी
 चार् जर
स ुल
 स िक्स
 in formation
 एडम िरल
 भार तेन्दु
इ न्
 बढ़ ेंगे
 बर सों
 टे स्ला
 ऑफ र्स
 ट्रै किंग
- सू
 रु बीना
ं र
प ौ
म् ना
 रस ाय
 स्वै च्छिक
 ए एम
प्र ाप्ति
कू द
ल्ला स
 विक्र ांत
 वार ्म
्वाह िश
भार ती
 सिर ोही
 फुट बाल
 जाल सा
 प्र सा
 विश्व ामित्र
 आस क्ति
 नंबर ों
op h
 उबर ने
े ला
बर द
 बुनिया द
 कॉन् फ
ia omi
ासा द
च्य ुत
- P
 ड ाई
 वित्त पोषण
 प श्य
 ती ज
 coun try
द ाना
 साम ्यवाद
यु वा
 मंड ियों
 Re p
 ग ॉड
ब ला
 रो नाल्ड
 w orld
- उप
हा इ
 तीर्थ कर
 भरोसे मंद
पक्ष े
 अनिश्चित ता
 हो जाता
टा व
 मृ दा
 पुनराव ृत्ति
 दी क्ष
 मा फ़
बा जों
बंध ीय
 G r
 जात ियाँ
 निश्च ि
 th ese
 लीडर शिप
द ौ
 सजा वटी
 विज या
A s
K R
m s
 उप बन्ध
 अल का
 ऊ ंट
 पो जीशन
 विश्ले षक
जी बी
 मे टल
 पौ ने
 जुटा ए
 लिए ः
 व्य था
 लो अर
 पीस कर
 ब द्ध
 इ नामी
 ने वी
26 0
 वाम न
स् वाद
 कै प्
ट म
 फ ्रे
 दुः खों
 गुल शन
 be ing
 ग्ले शियर
re en
 उम स
ि गन
 c ookies
 टक राने
 अंदा ज़
 इ ग्न
ला या
 उत्प ्रे
-स हन
 सु दी
 सै ंक
 हल के
 बट ोरी
 असह योग
 बर तें
 बू ढ़ा
 त ्य
से शन
ख री
 त िक
 In c
 कह ूंगा
 स्ट ार्क
 जि न्दा
 गैल री
् जा
 महा युद्ध
ह ॉ
-शोर ूम
 स ट्टा
 उद् गम
 स्कॉ र्प
 प्रति स्थापित
 बि ठ
 काग ्रेस
 अपरि चित
ं क्शन
 सं स्मरण
 हो र्ड
-पु थल
 एडवें चर
- काव्य
उस का
- ज्ञान
ल्क ्य
 साई ं
 करने पर
 वा सी
ान िया
 Con gress
ना या
 बी एससी
 प्रचार ित
 धड़क न
 ह स
 दिव ालिया
 इतिहास कारों
 पि थ
 मंग ला
 दै त्य
 एलिजा बेथ
 पर गना
 य दा
 बे ई
 खान दान
ot t
 ब ंबई
कु ंभ
 हँस ते
 प्रान्त ों
पा टी
 अध्या पन
 ट ोर
वा ते
 U SA
- की
 ना ड़ी
 Pl us
 पै ठ
 स् नो
 नि ब
व ता
 ट ीन
 हर दीप
 C ar
 वेल फेयर
 B ihar
 आंगन वाड़ी
ज ेंड
 ह ासन
 च याप
िय ारी
 F ood
 पो र्न
 लिप स्टिक
 पग ड़ी
ऋ षि
 छात्रा एं
 मोट ापे
ार ियों
 O F
 Sh ri
च ूर
ल ंदन
 क्वा ड
al k
 चु म्ब
फ़ ान
 ब र्त
 व क्ष
करण ः
 चाहे गा
 धम का
मंगल वार
-बह नों
रा स
 शा किब
 प्रोड्यू स
७ ८
 च ंबल
मा त्रा
स्फ ोरस
 हेरो इन
व ध
 भग दड़
 साइ ंट
 को री
कि नी
 अग्न िव
 काँग ्रेस
 खु र्
 सिद्ध ार
कृत ियों
नेट िक
 Real me
 W atch
 जू ही
 सर्व शक्ति
 D is
 र िसा
 ठ ि
 जस्ट िन
 com m
 पूर ब
 अजीबोग रीब
 ड ुप
 नशी ली
 उ म्
 बता एगा
 मार िया
16 3
 महान ु
प्र योग
 फसल ें
 थ र्म
ू तों
 क्र िम
 आय त
दा वरी
 भर ता
 अंग ी
 जोशी मठ
 का जू
 य स
 ह ेज
 जन रेट
मु ज
 पर वीन
 स्या ही
 बलराम पुर
 तर बूज
 नाग ार्जुन
 ब न्दी
 ब त्ती
चार िकता
बी च
ह ृत
 चुकी ं
 असं तुष्ट
 कॉ र्
 ति थ
 फा तिमा
 भ ड़की
 होने वाला
 पी एफ
 ग्र ै
 निः स
मी ल
 A b
 P ay
 सी जे
 बे इ
 प्राय ोग
 रोक ते
 अथ क
 ख़ु दा
क न्या
 के तु
15 7
 Col lege
 कु तु
 रा इस
 जीव के
 त ज
 एक्सट ेंशन
S p
 पहुँच ता
 उन्ह ोनें
 बे ली
ur ing
ल लिता
 भ ूर
 बा कायदा
 बी यर
 वार दा
फ ुट
 c han
 ऑ क्सी
 क ोंक
 स ति
 पर् चे
 फर्म ों
 ह ाप
 अल् फा
 उ म्म
 सा बर
 मिली भगत
 एम टी
 अखा ड़ा
त्त्व िक
 सुग मता
  

' .

- द्वेष
 सव ्व
 शश ांक
 निर् बाध
 o ver
 फूड ्स
सम झ
 बिरा दरी
जन पद
 पु नि
 अग्निप थ
 दु मका
 कट ारिया
 बांध े
 खींच कर
्व ेन
 इच्छ ानुसार
- लाभ
केन िकल
- B
द ियां
भ री
 म ंडा
 लै ंगिक
 नद ियां
अ ध्याय
 पह र
 विद िशा
 खटख टाया
 श तरंज
ां ता
is ts
 अनदे खा
o di
 ऑ प्
 कृ षकों
 शाम ली
 F in
इ न्द्र
 स्व िंग
मो निया
स्त ो
 वो डा
 ली गल
राज धानी
 पिता मह
 दिख ना
 क्षति पूर्ति
 या ने
मो द
जा बाद
ट ्य
े रा
news track
 इंड िगो
 दौ ड़े
 लाई न
  ·
 ना स्तिक
दे हरादून
म्प िक
 व िय
वि द्
 अर् पिता
िक्ष ित
 सिर का
 प्लेस मेंट
्व िन
 Sm art
शा दी
 W est
ै ति
 सा दर
 पूछ ें
 ब्रज ेश
 कु प
im ach
k ra
 य ः
 M us
 माल ्य
 खंड वा
bs c
 बल्लेबा ज़ी
 हाथा पाई
 आ क्रामकता
 ग र्मा
िम ो
  if
 डाय ट
ह ोर
 ख लब
का बू
ur der
 मुना फे
16 1
 आये गी
- ट्र
म ण्ड
ग्र ामीण
 बर् लिन
द त
 चमक ते
 आइस क्रीम
ब र्
 ऐ ं
 उतर ना
 अधू रे
 नैन ो
D S
 झ क
 अंक ल
म्बा कू
 किन्न र
 इ क्कीस
 भेज ें
ग ानिस्तान
 ड ्रम
iv es
 वेरिफ ाइड
 प्र ूफ
el p
 डू बा
उ ल
 अ वां
 छ माही
 S tr
-भ ेद
 साइकोल ॉजिस्ट
 एथलेट िक्स
 छ ड़ी
ad a
 आपदा ओं
 सल्ल म
p os
 सु क्खू
 शरण ार्थी
रा गी
िप ाल
णा दि
re t
वि षे
 टो योटा
 बिधू ड़ी
श स
 देख ि
वार ों
 पॉ इंट्स
ऐ ं
 ए ंब
 भाग ो
et s
 मन् त्रों
 H ind
 बढ ाने
 जा ँ
 बि टक
In d
 ब्रज भाषा
 ई पीएफ
 टै ंकों
 ग़ रीब
 न्यो ता
 म ्या
 शाह पुर
-मु स्लिम
 कॉमन वेल्थ
 ओलि ंपिक
 व रण
 श र्करा
 फो र्ड
 तमा शा
 अध िशा
-ब ेट
इड र
oh it
उ दी
 प्रति रोधी
 चोट ों
 फुट पाथ
 अव्य क्त
 Manag ement
 भोले नाथ
 निरंतर ता
को टा
 सि स्ट
 उपलब्ध ियां
 विनियम ित
 साम्य वादी
 रेणु का
 सम ालो
इस की
 दे वास
 कृत ज्ञता
n y
ू ले
 बहुत से
 फिल ी
 इमार तें
 कुल्हा ड़ी
 गी ला
 सो ता
 चौ पाल
 उत्तर ार्द्ध
 एंड ो
 ड्राइ ंग
 शरी क
 माधु र्य
Y ou
 स त्रों
 अभि जीत
ासा उंड
 पुर्तग ाल
( R
 I AS
 ch hattisgarh
 सु न्नी
 कै र
हम ति
 In s
G O
 न स्
 फ़ ्ल
 दौ ड़ने
 तिर ंगे
 पीजी आई
 पनडु ब्ब
 शरा बी
िय ू
िंग ्या
 वि च
 उत्तर ः
 चां सलर
 त ौल
 कु न
 Con s
 रेजी डेंसी
 माल व
 आत्म िक
 सत्या पित
िडी ह
T ube
17 1
kh and
 चयाप चय
ग र्मी
र् माण
 से नन
ाह ार
 कार्य योजना
 व्यवस्था एं
 बालक नी
 गुजर ती
ज् जो
 एड ्स
 निरा कार
 न्यूज़ ील
 पर ब्रह्म
 देश व्यापी
 प्रो फ़
इ ज
ला ट
 रा बड़ी
 माल े
 ल ूंगा
 मा कपा
िल ोक
 क़ ुर
मे घ
 ता ंत्रिक
 R BI
 चुप के
हा ने
्ट िक
 राह गीरों
 पडे गा
छ ोटे
 प्रति स्थापन
 E lect
 संदिग्ध ों
िय न्स
 नियम न
९ ०
र् विज्ञान
ना गर
 भोज पुर
 निर्देश ानुसार
ं तीस
 उद्योग पतियों
 चढ़ े
 मुनि राज
ult ure
लखनऊ ः
 ओं कार
 ता ई
 विन ती
 विश्ले षकों
 महत्वा कांक्षा
 ना का
 ओर से
 ते हरान
14 6
 हत्य ारों
प टी
ग्रा ही
 ल ोज
 जाने वाली
 मापद ंडों
 मा धो
 ग ंज
स ारा
 क ल्
? '
 बेवकू फ
इ ति
ोल ॉजिकल
लि ना
इ क
ए पी
 थ ोप
 घ िस
in ary
एल सी
फ्र िज
 व क्ताओं
 ओ ले
 शु क
पूर्ण ा
 संगठ नात्मक
ब ियन
 ऊ ब
 ता लीम
 सुरक्षा कर्मियों
 d ec
रे चर
चाल क
 एनी मिया
 द ंगल
 B ud
है दराबाद
 खलब ली
 फ टा
 भद ौरिया
ूह ल
ement s
 सार ंग
थ ु
करी ब
-से वा
 ज्व ाइंट
िन ्यू
 i OS
 यहू दियों
 आद िका
 ज माल
्या त्मक
 कृत ्यों
शिव पुरी
 वेल नेस
स्त ार
 बाज वा
ो स्ट
 s ome
 सा तों
 रख िए
 सार ण
 आ धिपत्य
 जु बैर
ंज स
 काले जों
हाना बाद
 चै प्टर
 परिप त्र
 अर्घ ्य
ख ां
त् कृष्ट
 श्री धर
 सुविधा एँ
 फं सी
- जल
 कॉ न
 v ery
 श्रो ताओं
 शेफ ाली
 श ंघाई
 ट ोप
न्द ेल
 C han
 गृहस्थ ी
 ऊर् ध्व
 री ता
 चिप का
 झाड़ ू
ण ्टर
 क पाट
िय ुग
 मो शन
आर डी
क़ ों
 लै ंप
 नजर ों
 मैग ज़ीन
 विद्यु त्
-च ां
G P
 जगा ने
- चि
 म ूर
 मन पा
 बो न
 मै प
30 2
 अफवाह ें
 फ तह
 घुड़ सवार
ेश ियल
 मौ सी
 एनटी पीसी
ं ति
 रो ती
श्व री
 बु वाई
ेंट िस
यान ्य
 L ED
ut ure
 तोड़ ना
 नद ियाँ
 दरि द्र
गण ्य
 परम्परा ओं
 बैठ ती
 सप्त म
 शाल िनी
ु लेशन
 ए सीबी
 सू अर
तो ऽ
og ram
ap y
 च मोली
 इंड स्ट्रियल
१० ८
 प्ला ज्मा
श ोक
स्थ ली
epend ent
 क्रिप्टोकर ेंसी
 बिटक ॉइन
 सु केश
 प्रय त्
 अहि ंसक
ग्र ाहियों
16 6
 ड ेंटल
 में बर्स
 ए जाज
 मे म्बर
ोट ेक
 पर्व तों
 स िन
 ट्र िलियन
 पे स
 पैर ेंट्स
 आ क्सीजन
 सम यानुसार
गु ड़ी
ख ि
 ज न्तु
 न ालों
 सब ूतों
न्त्र िक
 उ भार
 थ ान
ड़ा ई
 उप बंध
 लो च
ot a
 अधिव क्ताओं
 सुर जेवाला
 चार ु
 बिप िन
 क्रिया कला
 ओ ट
फा क
 बच ते
 लु इस
नाश क
 उ ड
 P er
इ म
 मच्छ रों
 मॉनि टर
लाई न
und ai
 मु ं
 इ त्र
 झ ि
 पार् लिया
 पीड ित
 है ट्रिक
 जै की
 छि ंदवाड़ा
 पिघ ल
 रिस्प ॉन्स
 जिल् द
फी क
 P lease
 उभ रे
 एनडी आरएफ
दु ई
 सिद्धार मैया
 देव ो
 नाटक कार
क्ले व
 ईएम आई
दा दी
द ारा
 प्रे गन
 विनम्र ता
अ हम
 ज ॉर्डन
 जर िया
 डेवलप र्स
 व्हाट्स ऐप
G o
i ya
 भाषण ों
 श िम
 मो ना
 बैठा कर
 सूबे दार
17 4
 राष्ट्र भाषा
 चिल्ला ने
 जागर ुकता
 योद्धा ओं
त प
 को टिंग
 ठ ान
iv ing
हिंद ू
 यथे ष्ट
w an
स्व ाम
या ः
 श्री र
आरआर आर
 फ िक्र
 राज पत्र
 स्क न्ध
 अ ष्टा
 अं त्य
 k a
 राइ फ
ल ॉक
16 8
R E
 पी टी
 सर्व िल
१७ ६
 सा क्ष
वि ना
 आंत ों
 भू भाग
ान्त रण
बुध वार
 स्ला इस
 बहुता यत
 पी ठा
 कीर्ति मान
 हाफ िज
 विशेषता एँ
 सांख्य िकी
 अपना ए
 उल टा
 गलिय ारे
जी का
 ऑस्ट ्रिया
 क्षित िज
व ्यास
 श्र ौ
सा हब
 भा ति
 फिल िस्ती
 भोग ने
िम म
 दौड़ ते
 परोप कार
कटि बंधीय
 एक साथ
 सो हन
 लि फा
 कटि हार
्व ेज
 गठ िया
 रॉ ड
शास्त्री य
 पी एसी
एम पी
 भू रा
 डेटा बेस
 अवशेष ों
श िर
ह ें
 गु ंडा
 परिव र्
 अर ूण
आ ँ
 ल ाय
 मन से
 सीख ते
 ब्ला उज
 निर्भ या
खन न
ोट ाइप
के रल
 नी ता
ण्ड र
बै ठक
I m
प ड़
 म ून
द् घ
 वे टर
मध्य प्रदेश
 अध्यक्ष ों
 बर ाम
 निर हुआ
 खाम ोश
 ढी ला
 वफा दार
 स्विट् जरलैंड
ध रा
म थ
से व
 दर्श नीय
 Serv ices
 विभा गा
 बिता ना
 रिसा व
L Y
 निभा ती
ब ेश
 रम णीय
 झ ोली
 ती क्ष्ण
 स् मैक
 मस ूरी
राल ्ड
तह सील
 कार्ब निक
३ ००
 लु टा
प ल्ली
 पोष ित
कल ्टी
 गज ेंद्र
" क
 पै थ
 R ahul
 परमाण ुओं
 थ ्यो
स कता
 व ाइड
 मु ल्ला
 बि स्
अन ुप
 वारदा तों
 करे गे
un ction
१८ १
 नवा जुद्दीन
 ग़ ैर
कार्य क्रम
 खली फा
ं भव
 s u
 मां सा
 टिकट ों
 एस एससी
 I CC
 कन्या ओं
 ज्वैल री
 अल् कोहल
 Med ical
 वि हित
lo od
 भ ंवर
 निश ांत
 कु न्द
 कार्य समिति
 वां छनीय
, जो
F T
S I
ग ने
 ब त्रा
्रे त
 दु सरे
 तालाब ों
 गुज रा
 मो क्षमार्ग
 ना ज़
 अभ िश
 कड़ा के
त्त ियाँ
 साइं सेज
र क्षण
ित ्रा
 थो डी
 सत पाल
 गी ले
-त फरी
 पर तों
तन त
 त्र िकोण
 अल्ट्र ासाउंड
ि वा
re me
 बंध ा
 धु री
चिक ित्स
 सा दा
 वी च
अ लग
 क या
 वि चर
 देव ें
न या
 अ त्र
 दु विधा
 बिर सा
n er
भ ्यो
 सं व
 कामका जी
 पृष्ठ ों
ग ्स
स्त ्व
के श्वर
 हर दोई
14 1
 माल किन
शन िवार
 ` `
म गर
 कि यो
 बु र्
 मना ए
 जु काम
हे तु
जो शी
 -- 

 Cent er
ाम ंत्री
 बे काबू
 सम्यग् दृष्टि
स् च
 बद ाय
 इंस्ट िट्यूट
 कहला ने
 भ ुल
 Off ice
 नवीकरण ीय
 एम के
 मॉड लों
 रोह िंग्या
व ल्क्य
 स्ट ॉल
 ती खा
 डब्ल्यू एचओ
 व सी
 दि मा
 अंध विश्वास
m y
 ल लन
 स प्ता
 सु द
 अवतर ण
ध ली
 सो फिया
 प्रस्ताव ना
 प्रण व
छा या
ल ॉ
 दा दरी
 इष्ट तम
 टिप्पण ियां
 भेज ता
 सत्य नारायण
 पठान कोट
त मी
व रेज
 फैला व
 पी तल
ह ौ
 सुर भि
 तब के
 सें चुरी
 क्वाल िफ
 लाइ ंस
em a
्युनि टी
न िम
ह िन
 बो री
 विकी हाउ
ट ैग
 थ ैली
 पहि चान
 पुर े
 नाग ौर
 आर्य ों
 बांग्लादेश ी
 उज्ज वल
f i
श यों
 वि ग्रह
 लिख ती
 पैर ामीटर
 रे व
 प्रती कों
 लुभा ने
मेर ठ
 द्व ैत
 शह बाज
 ई स्वी
 हल् ला
 ख़बर ों
 अफ़ ्रीका
 मि ग
at s
 प्र वि
स्व च्छ
 ट ोटल
 मिता ली
 Cent ral
 सर्गे ई
 सिर प
ang e
-प ैर
 E l
 महो दया
 स्ल िप
 ज्व ल
 छुड़ा ने
 ड ांट
सि ष्ठ
 धर्म शास्त्र
 प चा
 पर िक्ष
 उप ेक्षित
 चे त
ff ect
 Cr ime
 सह ेली
as on
ist ant
 साम्राज ्यवाद
 का जी
सि स्ट
 थ ार
 खोज बीन
 j ust
 सर्विल ांस
व र्मा
 डाक घर
 ने पोलियन
ा सी
 ए क्सी
खु श
सुप र
 क्र ूड
 प्रधान मन्त्री
 डर ता
ment s
अंग्रेज़ी ः
 ए ड़ी
ंत पुरम
 एजेंट ों
ै य
 लि ंच
म्प ल
 थो डे
 उभ री
 उकसा ने
 त म्बाकू
ल गा
जार ों
 सँ भाल
 तग ड़ा
 ह ्री
पू त
 राम विलास
बु द्दीन
 रौ ंद
ित ः
 समारोह ों
 बा ंड
 लेख नी
 र द
 का हे
बा ड़
ोप ेड
न ्यूज
 मह ाल
 आत्मा को
 ईस वी
 बै ट
 मनो वृत्ति
. S
प ्यार
ad em
 d isc
 मसाले दार
 परा धीन
 मुद्र ित
सू दन
 सहज ता
 विजय वर्गीय
 विरोधा भास
 लोगों के
मु ह
 सुप ारी
  আ
म श
 गोला बारी
 फ़ैस ले
 मेधा वी
 व तन
ेश न्स
१८ ३
 Associ ation
 सर ्रा
-प ानी
 नाख ूनों
 सम्य क
 कंड क्टर
 रह ूंगा
 उन् मुख
 लकी र
 इ ंटे
17 3
िय ारा
 डे व
 वॉ शिंगटन
 जहरी ले
 स्टेट ्स
परी क्षा
 अवय वों
 भ ज
वर् धक
 कमांड ो
 आंव ला
2 25
ध ुर
 को च्चि
 करवा एं
B igg
 म न्त
 रे डी
 ज़र िये
 निस्स ंदेह
 ज ्यू
 चि ड़
 एक् साइ
 र शीद
 फॉलो इंग
-इ ं
 सा दृश्य
 मोन ू
 M y
 राज ़
 बता इए
 प्रया सरत
 त िम
 प्र दाता
Vir at
 रियास तों
ru g
ग ुप
 सम ेक
 फ्र ैंक
 अना उंस
ब च्चे
 भा त
ंक ुश
 हित ग्राहियों
um ber
 बरा क
 जादू गर
 रिकॉर्ड ्स
 धा वा
वी करण
 चिप ्स
 आहु ति
 दरवा ज़े
 संस्करण ों
 शॉट ्स
 ह ें
 बे ताब
 S ol
 व्यवहार िक
-वि ष
 किरण ें
 त त
 प्रोफेशन ल्स
ार म्भ
 सेवा एँ
ध् द
 फिरा क
ार् दन
 जन जीवन
 रस िक
 इज राइल
र् ना
 प्रे त
ए क्ट
 बु श
ोप योग
 अभि भाषण
 लॉ गिन
 प्रस ग
षे ध
 स स्कार
कान ून
 मा हात्म्य
 Res earch
 ला ड़
 एन सीसी
 आइ पीएल
olog ical
 भागी दारों
ष ध
 देव राज
 चा व
 श्लो कों
ढ़ ता
 गुण ो
 प्र रूप
 बो नी
 न्यू ट्री
 डायरे क्शन
 मुरा द
िन ः
 मान ुष
aw an
सि स्टम
 सद ुपयोग
 प्रभाव शीलता
७ १
 सीता मढ़ी
च ुप
 प देश
 पहुंचे गा
 ब ार्ड
 ज ोंग
 त वा
 दो हन
 लाउड स्पीकर
 प्र क
 पीली भीत
 प्राचीन तम
 तर्क संगत
 ले क्चर
 बह ता
 स ले
एस आर
49 9
ै षी
रण ी
 बीस वीं
ब्र िज
.... ..
 गर मी
g es
क ः
 स ख्या
sk y
 न गा
वि प
f ul
प्र सिद्ध
 पढ ाई
 इकोन ॉमी
 पॉड कास्ट
 वोडा फोन
 च िली
 हो वै
  z
/ टीम
च ाह
न ियम
 स्व त
-बे टी
য ়
स ः
ियों को
संस ार
 मु ग़ल
द्व ानी
निष द्
 उतरे गी
- मै
 मु ड़कर
 ओ मान
 अम ला
प त्तन
हा से
O L
 व न्ध
मान ्त
an ts
बता या
टे रियल
 व् ह
  ك
 ख लु
 हैंड सेट
 च हे
धन ुष
च िन
 ब का
 स्मार्ट वॉच
-पु त्र
 हंग री
 वसू ला
ंधा वा
मा त्
कृत ्य
 प्रती कात्मक
 डै मेज
 छ वियों
 छ द्म
 सूर ि
 निवार क
 फेफ ड़े
 चंग ुल
्म य
 डे र
व्या पार
 गुल ाल
 तेंद ुआ
 दी वानी
 ग ूं
 फ राह
 डे क
 समस्या एँ
 हाई कमान
 आयु र्विज्ञान
 सुपर वाइ
ै ंप
 वृद्धा वस्था
द िस
 घ राने
 उन् माद
ना ड
 ट ाय
 तु ष्ट
 संशोध नों
 उभर ती
 व ढ
 फै कल्टी
छा वर
 बे नि
at form
ang u
 घु सा
 मधु बनी
 सिलिक ॉन
 संगो ष्ठी
 स्वभाव तः
पृ ष्ठ
 खिड़क ियों
 अ डा
% ,
त्त िका
 दह ला
 पाये गा
ु ं
 व डे
 ए र
ड़ ते
नई दुनिया
 असर दार
्व न
सी एल
ंग्ला देश
  س
 प्रजा तियां
 सकु शल
ो त्री
 ज ार्ज
 ले टे
 s ub
 चा ही
. डी
 लाइस ेंस्ड
- किसी
 ता दा
 निच ोड़
 ता व
ary ana
 ती खे
अ प्र
 प्री व्यू
 सिव नी
H D
रा ध
 विक राल
 परवर िश
ज ॉ
 ख ोजना
र्ण य
 s erv
 उल झा
 असम ंजस
 s ch
स्ता नों
 खिलाफ ़
 शोध कर्ता
 धर्मा त्मा
प ोट
 प्रत्य ु
 अर शद
ूर् तिक
ens ion
 औप चारिकता
 राक्ष सों
िस िटी
 भर मार
 दर्शा ते
 वे टिंग
ज् नी
 चूह ों
 ख़ रीद
 वस ल्लम
- रिक
 शिव रात्रि
भ ्रम
 च ें
 बोल चाल
 भगवान् के
 परम िशन
 रवि न्द्र
% )
 अ वा
श्री नगर
 नियो क्ता
 उ गल
 वि हीन
मा इंड
 ह सीन
 चाहिए ः
ूं टी
ज ैक
15 8
iv al
os h
 माओ वादियों
 श शिक
ए यर
ह ारे
 पह ियों
 सुख विंदर
्यु दय
श्री लंका
 रि द्धि
 आति श
य ौ
 बे क
 र ंधावा
 पोल ार्ड
 फार्म ेसी
 मुर् गी
. आई
 च ूम
 सफ़ र
 झक झ
 P akistan
 प ाह
 कु ंबले
 a fter
 भ ए
 पा वे
जा दी
 D I
 क र्मा
 स्व रोजगार
 बे त
 आइ कन
 शास्त्र ार्थ
 डु बकी
 पह ेली
 यू नेस्को
 नाह न
र् कों
 अधिकार िता
 खु शन
 मूर् तियाँ
 शिव ानी
 p ost
 महाविद्यालय ों
 सिंह भूम
 शा ति
मुज फ्फर
ह प्र
 बह ना
-ब ारी
 ऑ र्थ
 पेश वा
 ब्रांड ों
ong ress
e el
्व र्ड
 पिथ ौरा
 प िंग
er a
 बैक अप
 पर वेज
 दबो चा
r en
 बि म्ब
ज िले
 दस वें
 त ने
 है म
 बम बारी
प्र ती
मु ग्ध
 स्नैप ड्रैगन
 समलै ंगिक
 यूनिवर्स ल
 सुधा कर
च नीय
 प्रा ति
 विध्व ंस
 बलू चिस्तान
 ला चार
 जटिल ताओं
 य व
 P ublic
 डु बो
 सुरक्षा त्मक
र्वा चित
  ব
C A
 स न्ध्या
 अधिकार िक
 यशो दा
 सु व्यवस्थित
वै क्सीन
 ठहरा व
 बि पाशा
J am
 S abha
 B engal
P R
ंग ला
 होने का
क्र िकेट
प्र स्थ
 आरंभ िक
 ओ रे
 चंद्र चूड़
 ल थ
on y
 मी मांसा
 एच आईवी
 मॉड र्न
 मुक दमों
 नि श्
 लड की
 सहि ष्णुता
 वैलिड िटी
 घूम ना
फ र्ट
ज िम
 व ाइट
 दे स
 गु ज़
 बहु मुखी
 नाय कों
 व ज़न
 A N
 चा ची
 वान र
 म धे
 जोड़ ती
 म ग्न
 E v
िवि जन
काल े
 अल्म ोड़ा
झ ू
 रे वेन्यू
िक् की
 पोल ियो
 चर् बी
ृ हीत
स्व त
ॉर् नी
ज ाह
ेंट ेशन
 गै सों
 ता त
नाव ली
 डि ज्नी
 स्त ब्ध
 कर तार
 रि फाइन
डु चेरी
 प्रतिनिय ुक्ति
 कॉ न्स
 स्था वर
 ट ॉक
 सु ग्रीव
 रे मेडी
 दश म
-व ्या
िवृ त्ति
ि आ
ंब न
 सुन क
यू क्रेन
 स्टी यरिंग
 गुरु जी
 कबू तर
भ िक्ष
ियों की
ाप ूर्वक
णा चार्य
 You Tube
 आप में
-ब ि
 हौ सले
 सं वर
 बचा ए
ेन्द्र िय
 पं वार
 आरटी ओ
uck now
 वेंकट ेश
 O ct
 वॉल ्यूम
 अपरि हार्य
 ट ोंक
 सम ो
पो स्ट
D O
 संस ारी
P akistan
 ख नि
 बी एल
it er
बन्ध न
 g r
भाव ों
 उस्ता द
 च ्य
id er
 बजा ते
 जावे गी
 गरु ड़
 पु श
 मांग लिक
स ्रो
 त हरी
व ाम
 ऑ र्
 कॉ लर
कुल म
 जा दुई
 बढ़ा ती
 अ वे
 छ िन्न
 बारे में
est ion
 हैंड ल्स
 सुन हरे
 अर से
 सिल ि
 क्रू जर
 व्यु त्पत्ति
ंड ित
 सुन सान
 प्रो वाइड
 मुरली धर
 कूट नीतिक
 गठ जोड़
 हस्त ियां
 पिला ने
م ا
 प लों
 कार्या त्मक
 कुर् बानी
 ओ मेगा
ूड ो
 र स्
 जी तन
 बर्त नों
्र ॉन
ournal ism
 शै ले
 Ad min
 परो सा
ौ ड़ा
 वि मुख
नि ष्
 S ports
-अ न
 मन्दिर ों
 मोती लाल
- नई
st agram
 चातु र्मास
 खेल ता
 धु एं
 आकांक्षा ओं
 In t
 एंड्र यू
आद रणीय
श त्रु
 ड च
 निर् विवाद
 सुब ्रमण्य
ने न्द्र
शी घ्र
 मंच ों
ो क्ति
ामु मो
पै थी
 अटक लों
 गुर ुत्वा
 बाग ़
 बी न
 बंद ियों
 In di
 बैरिक ेड
जे ता
ेंद ्री
N O
 ज ूट
 अभ िप
ाय मान
 व्यापक ता
 एक्साइ टेड
े ग
 C al
ुप र
 M et
 ज कड़
त्त ं
 बहु संख्यक
 अन िरुद्ध
तु ल्लाह
आ र्थिक
 श ूल
 महो बा
 मिठ ास
ail y
as ter
 दुष् परिणाम
ख पुर
 s har
 अंग द
S al
न् टी
 चु भ
 ट्र ाय
क् वार
 जु गाड़
 C oron
 य स्य
 अं बा
 रंग ोली
 a ct
 द ैव
 दीवार ें
 क ंद
 द ंते
ाइ ए
 माइन र
- आप
 सं जो
च्च य
 जाय ेंगी
 जा वा
 काया कल्प
िल िंग
 H ospital
 at t
 र क्ख
 मंड ली
 सक् सेस
 डिजी ज
 यथास ंभव
न्द ्री
 आरोप ण
धर्म ी
७ ३
 अक्ष म
 प्रताड़ ना
 ए टा
ह िम
 समाज शास्त्र
 मदर से
 पटा खों
 इश ारों
ड िस
 हे पेट
 एक्स पे
 कलक त्ते
/ वार्ता
 हता श
स्त ित्व
 हरिव ंश
 टी चिंग
 अं ब
पल ट
 सार्थ कता
 सामग्री ः
 बद री
 स्कॉर्प ियो
रे क्ट
 विल म्ब
 क्ला उड
ख ्वाह
 खान ों
 गोता खोर
 पल टने
 सू ती
16 7
 मृ णाल
 खेल कूद
ag r
 ताना शाह
ज ेल
ब िस
 वि हारी
ले रिया
 बाल ्टी
च ां
 सु शीला
 अर्थ शास्त्री
 थ्यो री
 राज पक्षे
सू चना
 सें गर
 अध र
 वीर ों
 नित ्यान
 चढ़ा या
एन टी
 L a
 द्र ष्टा
 बैठा या
स ही
in c
राम ायण
 अर्थव्यवस्था ओं
મ ા
 सं डे
-आ र्थिक
 आ षा
 ख ानी
ur y
 फोर ेंसिक
स्मा त्
 जरूरतम ंदों
 अस्प ृश्य
 एडिट िंग
 फिरोज ाबाद
 वे व
विष यक
 मुस्कुरा ते
 जी पीएस
 wh at
ुल ित
 क बी
 हो ई
 पे नल
ब ई
 फिज िशियन
 बुला ए
 फि गर
 इंड ो
 ट्रेंड िंग
 झी लों
 अमे ज़न
 हल का
- D
 आ ंचल
 जाती ं
 W ell
 बुर हान
ज िया
ज मी
  સ
व तार
सी ता
िप र
योग ्यता
 गुल जार
 माय नों
 नवनि र्वाचित
ण िकता
 फ्ल ॉ
Raj asthan
 द्रो ण
 H ow
 टि हरी
 जना देश
 tr ans
Y C
 रो मानिया
 p age
श्र ुति
iz ation
वा डा
 रा कांपा
 बह राइच
 खिला डि़यों
ल्ड िंग
 कमा ए
 ف ي
 एग्री कल्चर
 अ रा
 विभ क्ति
anc er
 र ील
से ज़
 बन ो
 कं पा
 जन मानस
सो र्स
 कार्तिक ेय
 अ जेय
 य ार्ड
 ने ह
वर िया
E N
 कर प्शन
15 9
 च ोल
द् गीता
 अंतर ंग
 वा ट्स
 लापर वाह
 अमी रों
U C
 का प
वा ची
 in c
 प्रभ ृति
 छिल के
 कॉ प
ब हार
ंग ो
 डीपी आर
स त्
 राज शाही
 मे ज़
जीव ियों
 जिज्ञ ासु
र ुप
र ै
ंध ाना
 जख ्म
एफ ए
ंघ ी
 श हा
 Sch eme
 मज़दूर ों
यो ः
ळ ा
ent ion
 अनिवार ्यता
कर्ण ी
 भिव ानी
ू ज
 अंगू ठे
C om
 जग न
 T ech
य ते
 ध ौल
 क़ ि
л и
ड मिक
 निकल ें
N L
त्व ना
ist ory
W S
 एक त्व
ज़ ील
ठ ो
 ह स्ती
 बह ला
 S eries
 अन् यान्य
वी र्य
 मन को
 बा बरी
at ic
2 24
 रे फ्रिज
 झु ंझ
पै थिक
 ब टर
ना ंद
 ही ल
 ठ ं
१८ ४
ect or
आईसी आई
फ ेड
 मे रु
 मेघ वाल
 ता ली
 इंगल ैंड
 श ार्ट
 हेल्थ केयर
 प्र गा
हा ड़ी
 भि ंड
 पेशा वर
- स्टार
 प िशा
शा खा
 A ug
 W HO
 v i
ुप ाल
 महक मे
 Y ear
 सो श
वार िस
 गो शाला
ir l
 प्रत ियां
प्रयाग राज
c y
र्मा ता
 हस्ता ंतरित
o id
 पी एफआई
सं जय
 पायलट ों
 अन बन
प्र स्तुत
 स्वी प
 रचनात्मक ता
 झां की
स् वि
 रु क्
पर्स न
 जिम्मे वारी
 कार्य शैली
 कप ाय
р е
 मु गलों
जन ित
 पांच वे
मह िम
 n ew
 चरण जीत
 वे ड
 विकास खंड
ak s
स ृ
 स्थाप त्य
iv er
 गो ष्ठी
 Y our
 One Plus
 आव श्य
 प्रे सी
 क़ ा
 प्रॉड क्ट
 पद वी
हि नी
 सब् जेक्ट
om an
आइ ए
 नज़ दीक
 हाहा कार
 लि ं
 सद् गुरु
 विभागा ध्यक्ष
 ध ृत
 है ैं
 ! !
 एव िएशन
ट ोक
स् सलाम
 बह ते
 नवीन ता
 जि स्म
 खी रे
धार ्मिक
बी ते
 का क
 प्र दाय
 सीपी आई
 स च्चि
 है एक
वि ष्णु
 देव की
 W ork
 d es
श्रे णी
 क्र ाफ्ट
 निकट ता
 घसी ट
 पाण िनि
 राशि ः
 कि ंव
 वै शाख
 आन ंदी
 सां केतिक
 स्टेप ्स
व ेंट
 के पी
 पि ंकी
पु ष्
न्व य
 निकले गा
 A sh
 क्रम श
 ब्रा वो
 विस्म य
 उम् दा
 पु ष्य
 से डान
ोप ास
 गलतफ हमी
/ दि
द ौड़
 य द
ल् लों
 निर्म म
 क्रे न
 स्क्रीन शॉट
अम ृत
ु वा
छ ि
 ब ियर
 रह स्यों
 उद्यम िता
 मु श
 कविता एँ
 पर्स ेंट
 झर ने
 एंटीबाय ोटिक
W orld
 मज हब
 लेब नान
नी चे
 अन भि
 बाज रा
 री जनल
har khand
 स्क् वा
इ ज़
 च क्का
 बू ढ़ी
 मुह ब्बत
 नि रु
बे किस्तान
 जि ंक
 अम रो
 N T
लोक सभा
 पूर्वा ग्रह
 सड क
  ح
ु ता
टे कर
 इ ने
 का ष्ठ
 पा षाण
 मो र्ट
 कौ ंसिल
 निष् फल
 आ बू
 यम राज
 आ ण
 ख त्री
 जान ो
 लॉ कर
निक े
ेंज र्स
 सला खों
 गा ढ़ा
 अखा ड़े
य ती
 च ाई
नी ल
 बिता ते
 द्वा दश
B P
 बा यें
ियो के
 इलेक्ट्र ोनिक
 एन् जॉय
ढ ों
 म लय
 त ड़
िय ोजित
ास ुर
 पहुंचा ते
फो न्स
 ह ॅ
 हु ज़
 ढ ो
 ब ्ली
 इ बाद
 मन सुख
आरसी टीसी
व्हा ण
य स
वन ंतपुरम
 न क्ष
 फ ंदा
 m ade
 वी रा
गुरु वार
 पैग ंबर
 प्रादुर् भाव
 ए सीपी
 पागल पन
 फिंगर प्रिंट
ंच रण
 मह ेश्वर
 मो टो
 टाल ने
 जमींद ार
 Edit ed
 को ल्
 सु कुमार
-प ृथ
 एड ्रेस
 नाथ न
 ता जे
 वार ंटी
े निया
 पह लों
 अ करम
 खोल ें
 पिए ं
 र ीत
 झ ोप
 M ov
 D o
 बचा ते
as es
 डी एल
प ेज
ब ुआ
 फ्र ाई
 कास्ट िंग
 जी ंद
 काठ मांडू
 जा किर
त् थी
में से
परिव र्तन
 सके त
ँ ट
 मा उंटे
चा व
 बॉक्स िंग
- थो
 उत्पा त
एफ पी
 साधारण तः
 पार्ट ्स
 जीर्ण ोद्धार
  ક
 St udi
or g
 पै स
 L aw
 जता ने
 नौ वें
 वेरिफ िकेशन
 Des ign
 फ ाइट
 चतुर्द शी
a use
u es
 अ जर
 जा ण
 साम ंत
 उपयोग ों
 B r
डो दरा
मू त्र
म िशन
 वे ष
 आर्क टिक
ने ज
 मना ही
एन आई
द लीय
 कॉ र्नर
 अल ंकृत
 बाल न
 अप्र ोच
 दान व
क्लेमर ः
श ्या
 ल ंगर
ch ar
ap t
 An s
 डॉक्ट रेट
- एम
 प ेंच
िया ज
 सी ंग
व च
 इंजी निय
 क ्य
 विश्व युद्ध
 वृक्ष ारोपण
 दो हे
 उप शम
 हॉट स्टार
तुम्ह ारी
र् ची
 फाय दों
 इज़ राइल
प ॉक्स
 मा पा
 तेज प्रताप
un ity
िश्र ण
. टी
 क सी
 बह ुप
 श्रे ण
ए एस
न र्स
 S l
 अर् बन
 तत्पश्चा त
व्य य
 स्वर ुप
िलि खित
 स्थ ाना
 सम्मान जनक
 चिड़िया घर
 सरे आम
 स ल्फ
 अ न्ह
बी ता
il es
टने स
 इव ेंट्स
 सा दे
 अब ु
 बै लिस्टिक
 जल ते
 स्वच्छ न्द
 C hief
 काफ िला
 What sApp
 गिर िडीह
 B i
 अलगाव वादी
. आ
िल ियर्स
 डि ब्बा
 N ot
 ग्राम ो
दु ःख
 होग ई
 में टल
 सं धू
 कुम् हार
 झ ंझ
le y
 न सीम
मल िन
 ع ن
सु ंदर
 एड वर्ड
 अवधारणा ओं
 बंट वारा
 पु निया
 बुला ते
 गनी मत
 लग ानी
ोन ो
 दूर दर्शी
 इस्र ाईल
म ई
 ह ्य
 ए म्
 गाइड लाइंस
ग ्रेट
त ूल
 रा श
 एव म
 संरचना त्मक
 सम्प दा
 सिक न्दर
 म ख
 व ड
 जन ित
 इंस ुलिन
-सा फ
गो लीय
 ब ोग
 बीएच यू
 कीटना शक
 लथ पथ
े टर
 प्रह लाद
 ढु लाई
 त ें
 ग्र न्
 असाम ाजिक
г о
 मन सा
 ता क़त
 लेख पाल
 पैकेज िंग
 वेंक ैया
स्प ोर्ट
 अम ूर्त
 स िए
ना ला
र्ग ों
 सुमित ्रा
 आधुन िकता
 छूट े
८ ५
को ला
on t
 कर्म का
क़ ीन
 न्यूय ार्क
 ए डल
 अम ूमन
 भाई जान
 भिज वा
सं शोधन
 किश मिश
लै ण्ड
 Part y
C l
्र व
 वन प्लस
 चश्म े
 दै वी
सं वेदन
 B ut
हर िया
al ia
 जल ाल
 अप वित्र
 फें की
  ;

भ ोजन
 ह बी
ान िक
 नि ष्ठ
क्ख ियों
 नाइ जीरिया
 हिच कि
 S R
 माता जी
 बद्री नाथ
 वन्द ना
H ow
J D
स न्न
जि ब
धिप ति
 रण धीर
 क्ल ोज
ंच ित्
हो नी
uk i
मृत ्यु
 U ttar
 स्वयंसे वकों
च र्
 से ठी
 उप हास
 व्यक्त िका
 ओटी पी
 मज़ा क
S ocial
 विन ियोग
या सी
 जमीन ों
C ongress
D P
 वि स्थापन
 अंधे री
 सि ंथ
 सन् यास
 Mar uti
वे सी
ag h
 के जी
 सा यं
 जिंद ल
श ू
भग व
 b et
op ra
 अप्स रा
 मु क्ता
 V ol
इ तिहास
पी ंस
मे ण्ट
 क्र िश्च
 अंग ुली
 हैच बैक
 अग्निव ीर
 मु ंड
 चरण बद्ध
कोट िक्स
 पी टने
 चुन कर
 सं भोग
 ची ता
ur g
 बेच ारा
if t
M ah
स म्बन्धी
 ख सरे
og raph
 वित्त मंत्री
दी म
 पोस्ट िंग
 भो क्ता
ही रो
सी बीआई
 जाय दाद
 यात्रा एं
 लौट ाने
 मतभेद ों
 जल मार्ग
 मवेश ी
 अविना शी
ेश ्याम
 सह ने
or p
यु गीन
 सैल ानियों
 स्क्र ब
 सेलिब्र ेशन
 अमान वीय
 pr ov
उ म्मी
 प्राथमिक ताओं
 आर एस
मीन ियम
 गों डा
 कु टिल
 हार ्वर्ड
 न र्व
 ने मि
 पंच नामा
 निष् पादित
ने ह
 जग दीप
 us es
 छ टा
 पा टल
्यू मर
 छाप ने
B ollywood
 रा त्र
 इंग्ल ैण्ड
ud e
 दाह िनी
R am
 जन् मो
 आली शान
 मा तृत्व
 महा देवी
 इंस्ट्र ू
 रिवा यत
 ध ज्ज
ैति ज
प ेशा
 स्व िस
 फोर लेन
- ची
 ड ोग
ां व
ou d
 Pl ay
 मूला ंक
 S C
 कट नी
वां स्ड
 खर गोश
 कि क
 हु वे
 तेज स
 मानवाधिकार ों
is ha
 the m
 Pr ime
ग ाल
स्प ॉट
 साझे दार
 रघु वर
 माल्य ार्पण
 र बा
 च व्हाण
वि हीन
 हा स्या
 उत्तर ार्ध
म ंज
स्प र्श
 बेह ोशी
- जी
 ब्रह्मा स्त्र
- K
त भी
 क्ष ोभ
 सुख ों
 उत्तरा धिकार
 अंद ेशा
- ढ
 सुन ें
 बन ारसी
माइ श
 झेल ने
कार े
पार ्टी
द्वी पीय
 ग ँ
 इमार ती
- देख
 पत् नियों
 ऑड िशन
 को ला
 तो ड़ी
ोर ियल
ूस िव
 एमओ यू
 मंत्र िपरि
 गुरुत्वा कर्षण
 व ड़ा
िप ति
 आवि र्भाव
 मौ र्या
 आर सी
 को ल्हा
-प्र त्य
w ord
 ए लेक्
 सब ा
 पक ने
 भाई चारे
 स्थाय ित्व
 का व्यों
 भा द्र
 बो रा
 दर म
 f irst
 फैला या
 स् नि
पह ला
 त ख्ता
 बो म्म
 भाई यों
un ch
 लैंड स्के
 डिव िलियर्स
ीय ू
 एयर बैग
 बू ंदी
 गीत कार
- A
क म्
 ड ैन
is ed
 अस ंगत
 रज क
- जब
रो वर
 संग ीन
 O TT
िक् शन
 स्नै क्स
 एंड्रॉ इड
ें टी
 ब ली
 ब र्मा
 फै श
 R em
-प ्रेम
 श्रा त्मा
 पार्श्व नाथ
 in f
 युग ों
 प्रतिभा ओं
 शाहरुख ़
n o
्व ास
 re qu
 वसूल ने
 काठ िया
 मुस्त फा
 राष्ट्र गान
 ईद गाह
 झ ाला
 नोट ्स
 h ous
 जुट ाई
 अवार्ड ्स
 रुद्रा क्ष
 आय ो
िश् चय
् ही
 स् मो
 क द्दा
 रामचरित मानस
ग ुड
बा ज़
 दा व
 कु ष्ठ
 जाय ज
 नई दुनिया
 बेरोजगार ों
 वि न्यास
 निर ंकुश
 ह ामी
न् ज
 वैल ेंटाइन
g n
 न ्यौ
it ive
 प्रत्य ारोपण
बाई ल
 मनोर थ
g ro
 फ कीर
 ला एं
उप रोक्त
ब िल्
 ज ेंडर
 उम रान
वै त
 जाट व
 च राई
 S BI
 क्वाली फायर
 ग ङ्गा
 च ॉ
 रेखा ओं
 वी रेन्द्र
 छाया वाद
 दिमा गी
 राम कुमार
 किसान ो
 केंद्र शासित
 प्रच ण्ड
 मित ्रा
 म या
 भिज वाया
 ड ंप
 ज़ बरद
 उल्लेख ित
 म िक्
चित ्रा
R T
iv en
 दा द
जि ंदर
 तीर्थया त्रियों
्य द
 कर णी
 f uture
-सम ृद्धि
 रक् खी
 गुन गुना
 उत् खनन
 ग द
१६ ७
 अभिन न्दन
महा भारत
 हे गड़े
 B an
 p ar
ur ity
 h ad
lo bal
y d
 प्रयोगशाला ओं
 Mah indra
 प्र वल
 फेड रल
 भील वाड़ा
 ईसाइ यों
 तादा त्म्य
 अ हा
ाइ ंड
 माल गाड़ी
 लु ईस
 खत ौनी
j a
 कि लर
व हाँ
 पर मे
 अव ज्ञा
 स्म ॉल
 इन् फ्ल
 M en
 दबा या
 नेवि गेशन
n ey
१७ ०
स्ला इड
७ ४
 न क़
 वे ज
 ग ढ़ी
 मिश ्री
 दरि द्रता
 स्मार्ट फ़ोन
 दिखला या
 आईएम डी
) '
ता क
 A D
सिंह जी
वि ज़न
 ली बिया
 आंक लन
 खोल ते
 छिपा कर
 विकि हाउ
 घोषणा एं
SH RI
ग ई
 स्ट ्रा
 बोल ियों
ur s
 कैश बैक
मार ाम
एफ ओ
 सोच िए
 गू ढ़
 X iaomi
 दुर्बल ता
ॉल ्यूशन
 पकड़ ना
 खंड ों
 Shah rukh
S at
सार ्व
 छीन ने
 जा ऊं
 बिग ड़े
 विवरण ों
 रोनाल्ड ो
आ काश
am b
ल ियन
िप ूर्वक
 contr ib
ic le
 उड़ा ते
 ex p
 आज़ म
 राज पाल
 M atch
 द्र ष्ट
 उ फान
 साम यिक
 comp li
" यह
ह ्य
 Vir al
 ए स्प
 खुल ेंगे
 परिपक्व ता
राव स्था
स ोल
 पं खों
 फ्ला ई
 बास्केट बॉल
 इन् फेक्शन
 रेफ्रिज रेटर
 अ ड़े
 बि न्द
 फिल्म फेयर
 तै ल
-दु ःख
 ग दर
 उग्र वादी
 पु नर
आर बी
 प्रश्न ः
 साधारण तया
व्या पक
 स्वि फ्ट
 म ड
म्म ट
 डाल ेंगे
ऑ र्डर
 ने चर
 प्रधाना ध्यापक
 सार्वभौ म
८ ४
 प्रभ ो
ंज ना
 एक्ट्रे सेस
? '

क्ल ूसिव
 स्लै ब
 मुक़ाब ले
 बांध ा
 झकझ ोर
 मिश िगन
 प्रमाण ों
 पहुँचा या
 घ िरी
 कल ियुग
 सिफारिश ें
 गंग ोत्री
 ह्री ं
 ज म्बू
 स ान्
 न र्
 शिल् पी
 बिगड़ ती
रिट ेज
ग ुरू
 ज ंजी
 प्रा ग
 कमांड ेंट
 ज िय
 महानि रीक्षक
 पु डुचेरी
ert is
н е
 द लिया
तर ूप
 हि चक
 साइ बेरिया
 Ch and
ंग िकता
 अट ॉर्नी
 फ र्ट
ता नों
 दे हली
प् न
 G ST
 लू टा
 प्रामा णिकता
 न ंदन
 महिला एँ
 राम लाल
 विध ायी
न वाज
जी निया
 गै स्ट्रो
म न्त्र
ास ि
-प्र शासन
 मुआ यना
 क ड़क
 च म्प
C r
स्थ ायी
 रस द
 फ्ल ो
 पशु धन
रस ता
च रों
 ब ही
 प्रे मा
 अन्त र्मु
 अल् लू
 पठ ार
िन ार
 बॉ न्
ार ंभ
 नि डर
-जा ते
  ●
 कु ली
 फ़ ौज
 हत्या ओं
 गुस्सा ए
ेश िया
ज़ ो
धु ंध
 परिस ंचरण
गिर ह
सम्म ान
 ग धे
- चा
 दा गे
 वन वास
un ic
 निभ ाना
गम ्य
 फु ले
 अड़ चन
 कास िम
  ک
ह ुड
 त हाँ
 च ाम
द् दे
 लगाए ंगे
 भगा ने
 जा वें
नी की
 श्रे या
 L ok
 कष्ट ों
 कुर् ता
ोपेड िक
अ खिल
 द फन
ंक ाल
िले ड
 आत्मक था
 ऋतु राज
पू रे
 डो मिन
 साम ंथा
 धर्म गुरु
 कस् बों
M umbai
ढ़ ते
 रे ती
 Eng lish
- या
@ j
क ंड
 वजह ों
 बर पा
 रत् नों
 मध्य वर्ती
 बाघ ों
 मु शर
 राल ोद
 मोह नीय
 शा क्य
 प्रमाण न
 अं कारा
 K is
११ १
 निर्व िरोध
 अत्याचार ों
 विंड ोज
 अडा णी
८ ६
ति हारी
 पै रो
 विज्ञ ानी
 त्रिव ेंद्र
 फ न
 स्टी फन
 चिड़ चि
 बेह ाल
 लाइन ें
-र चना
 ट पक
 वै ट
तन गर
 जय ललिता
 इंस्ट ॉल
hi le
लाइ फ
 जमु ई
 नी त
 फ्लोर ल
ारी करण
- वा
म द
िम ण्डल
 पांच वी
 पेश ेंट
-फ ु
l l
 H air
 बेयर स्टो
अ क्षय
ए शन
 न कुल
 सो प
 बू टी
िय ल्स
 वा क्
 त्र स्त
 आयात ित
 बिल्ल ियों
 हु माय
ज्ञ ों
ंड व
राव त
 इच्छा शक्ति
 खर गोन
 दिखी ं
 पेनल ्टी
 र ुत
 कट िंग
 आईसी आईसीआई
य ोजन
 आँ गन
ै ंट
 ल ास
 हल फ
-फ ूल
 मैन चेस्टर
 निशान देही
- ता
ले खा
 भू जल
भौ तिक
  ro
 बा ध
 वेणु गोपाल
ृ ष्ण
 बात को
 ना काब
 गो खले
 c ol
 चै त्य
 मरा ंडी
 दफ्त रों
 ग्रेग ोरी
- I
S hah
 बि ड़ला
 पूछ ती
१० १
ब न्दी
त्र िक
वान ्वित
 च ित्
 सु स्ती
 देव नागरी
लेख न
36 5
 रुझ ानों
 क्षेत्र ा
 दिमाग ़
 अस हमति
 काल का
 चौ राहों
 प्रश ान्त
रोल ॉजी
 झ ामुमो
 S MS
 पढ़ िए
erson al
 हाप ुड़
 लोज पा
 मह राज
िवे णी
 प्रति भूति
 आव क
 आत्मा के
 खी ंची
 सल् तनत
 राज ाने
 फहरा या
ता के
श्व ास
 अज गर
 रामल ला
 आइ लैंड
ट्र ैक
 जस वंत
 Raj asthan
 लैंग ्वेज
वा दि
 मार ो
 जे स
िक् ख
 नास िर
 Sc ience
 संभाल ते
घ ी
 दे हांत
कु ला
महा त्मा
 बेनि फिट
agr ann
ri y
ew media
 रेज िड
 स्थान पर
टे र
agrann ewmedia
an ing
 अन्तर िम
 साइट ों
 खनि जों
 जा ंघ
 प ढा
 परिच ायक
 जला पूर्ति
 Ass istant
i h
र्थ ः
 एन िम
 गुरु द्वारे
 अक्ष त
 गुम शु
 खिलौ ना
 compli ant
 फिर ौती
बन्ध ु
 Off ic
 वे दी
्यू जन
ग च्छ
 न वन
र्ड िनेटर
-फ ूट
 And roid
ड ्यू
 साबर मती
16 9
 आउट लेट
 हरकत ें
प त्
 के सों
 बु न्देल
ब न्द
 मन माने
 रा णे
भा ड़
र्ट न
श यो
कि शन
 मं की
-ज ाना
१८ २
 कंफ र्म
 यूज़ र्स
ent al
् हा
 क्षेत्र ो
 आय ोजक
, लेकिन
गे न
 द्व न्द्व
 नुक ़
 सां त्वना
थेन ॉल
 c ent
चन्द जी
@j agrannewmedia
 वाल ्व
li ament
 बंदरगाह ों
 सुहा ग
म ्व
ते ला
 फोटोग्रा फ
 M ore
 h ere
 यूपी आई
 एका धिकार
 न्यूज़ील ैंड
 आम ंत्रण
 ट्व िन
 Dep artment
ब ्रो
 नि मोनिया
 सद् गुण
 लेश ्या
 ल न्दन
 गौ हर
qu e
 कर ानी
ेय र्स
. आर
 आश िक
 बंध ी
 उसी के
 Dev elopment
 Sup er
 ई ट
 ब्र िक्स
ल क्ष
 भ ेष
मु झ
 विचार णीय
मा सा
 चार पाई
d h
पी स
 मंज़ ूरी
 S ir
 सूर्य वंशी
दित ि
 न्यूज़ ः
_ gro
 दे वन
ेल ाल
 ट्र ेंट
 बढ़ ें
 खिंच ाव
क्र मी
 आ सीन
 मास्टर माइंड
ध मान
 लोग ोंने
 फिक्स िंग
-रिक ्शा
 ठंड क
 पिछ ड़
 का व
ाइ जेशन
 शृ ङ्गार
 मिर र
 मा ण
 श ्रीय
 दिन द
 उत्तर काशी
 N ote
 बाय ोटेक
 मैक्स िको
 प र्प
 तर ु
नाइ ज़
 पांव टा
es ent
 कूद कर
orpor ate
व ई
 च क्की
 कार्य क्षमता
 दो न
मार ियों
 मैनेज िंग
 रिव र
 व धू
 ल ारा
 प्रव ृति
श्रीम ती
 कद्दा वर
भ ट
 लॉर्ड ्स
 प्रायोग िक
 रे वाड़ी
 ज्ञ ेय
ul es
 पुल ों
 R aw
 पल ंग
 मंग ोलिया
ह त्तर
 बे ज
 शब्द ार्थ
 रश्म िका
 याज्ञ वल्क्य
 विलिय म्स
 ज ंतु
 सर्व साधारण
S am
ન ે
 अ गा
an ath
 दल दल
 कट ने
 ज हीर
 घ िन
 कब् ज़ा
 लहर ें
 धूम िल
 जी नोम
 कार्य पालिका
नान गर
 ट्रे वल
 धमा कों
 सुप्र िया
 राइफ ल्स
 ज री
 ऑ ट
 द मोह
 अधिकार में
 जब से
 ल ूप
 आई आरसीटीसी
ourn ey
M R
 अन िता
" .

 बद नामी
 बरामद गी
 को नों
 रु ड़की
 ख़ तरा
 पौ त्र
 सुपर किंग्स
 रौ द्र
ळ ी
 उठा ती
न्स न
 अन् वय
 क वक
 र ज़
ेंद र
 उपन्यास कार
 contin ue
H e
 आ टो
 क्ष ैतिज
 यु न
 प्रा धिकार
 ग्रंथ ि
 मदर सा
टाइ गर
या ना
 बात का
 रो वर
 डे स्ट
 शाह जहाँ
 अनुप्रयोग ों
७ ७
 औ चक
 विद्या धर
 चढ़ा एं
 नोक िया
 ज़ े
माश ंकर
कै द
 ध ंस
 बै रक
 पि ज्जा
 विचार ो
कह ते
 कुटी र
 सु विध
 उल्ट े
 इम ्त
पुत ली
 ल टके
 च ंपा
 सै ंप
 दीख ता
 कंक ाल
 मैन्यु फैक्चरिंग
या त्
 का त्या
 राज पुर
ान् द
 घृ णित
 बोम्म ई
 ज हानाबाद
ह ूँ
 सी न्स
 गुरु ओं
 भ ंडा
 रो ता
ङ् गी
 गौर वान्वित
 कंट ्री
 भा वन
 इबाद त
पा ड़ा
 ज़ ोन
-प ह
 मश ाल
 फॉर ेंसिक
 रीड िंग
 सौ म्या
अ ल्लाह
 व जीर
 ख गोलीय
 ट ैन
 साल गिरह
 पर्यवे क्षण
 क ड
 उग्र वादियों
 n eed
नांद गांव
 यूएस बी
 च िंग
 वृ त्तियों
 के प
 सो लो
 बो स्टन
न्स िल
 नाला गढ़
ु व
 द बी
 उप मान
 ज्ञाना वरण
 ई को
 मंच न
 Con tr
 तर ंगों
एम ओ
 B al
 मुह ल्ले
 चक मा
 मे नन
 फाल् गुन
 जीवा श्म
 लाज वाब
 चिक ना
 बुढ़ ापे
कर के
 निपट ाने
ू वल
ज़ ोना
 नदी म
rou gh
iv o
 इंट रेस्ट
मि णी
 लिप िक
ख ास
 सी वरेज
ल ियां
 टू थ
 मधुर ता
 उबल ते
 सह कर्मी
 S ep
 छोट ू
ec k
 मोहन लाल
ले ना
 रै क
 ग़ ल
 शर्म सार
 कन् वेंशन
 बदाय ूं
औ द्योगिक
 बसा या
द ाल
z uki
 M g
ॉइंट मेंट
 इ ब्रा
ff er
 ड ्यूल
मै प
 रिट ेन
 राजकोष ीय
 निभा एंगे
 हल् द्वानी
 झा ड़ी
 एंट ्रेंस
 क नि
बोध न
 टिकट ॉक
ele br
 व ज़
्यू न
 रूस ियों
 त्याग पत्र
 मर्च ेंट
I B
णी त
 ख ्वाहिश
 रन वे
िडी ज
 पटर ियों
 का तिल
 च ान
 करने को
 सी आईएस
हे म
 ग्राफ िक्स
 रोज ा
 सी ढ़
 ब्र ोकर
 बाँ ट
 खंभ े
न् दि
 अभिय ोजक
 स्मार कों
च री
प्र िया
 कॉ टन
 प्रतिबिंब ित
el s
ला धार
 बी सी
 पी एल
 भाग ना
v ir
 भ द्रा
 बा कि
 नि न्द
मु द
 in to
खा बाद
 पिथौरा गढ़
। .

 जि ता
 ब्रॉड कास्ट
 आ च्छादित
ती क्षित
 पहु चे
 नक वी
 स द्द
 च ूस
ला पुर
ब र्न
 मु द
er r
 श स्त्रा
 मुद्रा ओं
 भिक्ष ुओं
 गुड़ गांव
 सिले बस
 पौ ड़ी
 चिप सेट
 रणनी तियों
 प्रशंस नीय
सा उथ
 हाम िद
 आ न्ध्र
 मो बाईल
 ह ला
 ड ों
 सो र
 पै ग़
 जु गल
 ब्र ैड
ॉप ्ट
 कास गंज
प ्रेस
 लि ओ
 सुरक्षा कर्मी
लाइ जेशन
ब ासा
ह ूं
 अप र्णा
स्त न
 पै राम
 शी तला
 स्फ ूर्ति
-समा ज
 We ather
ष्ठ ित
-स ौ
 विभी षण
 बा ंका
 सेंट र्स
 क्ल ार्क
 बरत नी
 आसार ाम
अभि नेता
अय ोध्या
g o
 इन् टर
 पार् लर
मंड लीय
 शरीर के
ap er
 अच्छ ाई
 रखने वाले
 रिक ी
 क्यू बा
 नग दी
 बर्क ले
 सा या
 बी म
 गो वंश
 त्याग कर
 लक् जरी
 जन रेशन
 फ़ाय दा
स्त म
 देने वाला
मेंट ्री
 or g
 गुमशु दगी
3 30
 अभ िलिखित
-प क्ष
्वी ट
 निभा ए
 चार ्टर
 समाज ों
 रोहता स
- t
 कै ंची
 मांग ता
 वशी भूत
 पह रा
 लॉ न
 अनुमान ों
 तिज ोरी
 मे यो
तु र्की
 फैश नेबल
त ूहल
द्व ैत
end er
 राध ेश्याम
 हवाईअ ड्डे
 म क़
 कै थल
 A f
 खुले गा
 अन्न पूर्णा
उम्मी द
d a
ंड ो
वि ज
 कल क्टर
 उच्च स्तरीय
स्म ि
वायर ल
 बहु गुणा
 नियुक्त ियों
श ों
स ्राव
 वर्ण ों
 चर स
 ऋण ों
 कस कर
द िव्य
 दर कार
 अन होनी
बिज ली
काशी य
 क्रिश्च ियन
म ूर्
ऽ ऽ
et ic
 ख ूंटी
 आत ुर
 एरि ज़ोना
 श मन
 अप ोलो
ीन िक्स
 अपेक्षा ओं
 सकी ं
प स
 स ः
ता ली
१६ ८
 डो भाल
 दिनद हाड़े
 बु ल्
 खेल ो
 K ashmir
बिया ई
 विला प
फ ्री
 बज ने
 मं े
 मस लों
 हरि हर
 ओ त
rib e
 स्व रों
 हि ंडन
 घर में
ठा क
ुअ र्ट
v e
 मॉ र्निंग
 Ad ity
 को सी
रा की
 मन मु
es ari
 पूछ ो
 रै पर
 जोन स
 शीतल हर
 सं वार
 पी डिया
 A ND
 काल में
 फाइ लों
 मुक्त क
िश िया
 फिर ते
 रेश मी
ન ા
 र ितु
 च ांस
-हो ते
 प्रबंध कों
 वु हान
भग ृह
and s
 ख़ु श
 की ल
 झ ल
 कट रा
 जन् मी
 लह ंगा
 स्कॉलर शिप
- फ़
 त ्रा
 पड़ कर
 अंश ों
 ब बीता
 आउट डोर
 चे री
इन के
-म ानी
-म ूल
कार ाम
 स्व स्थ्य
 दर्श ाने
i um
 र ्
 अभिले खों
 निक्ष ेप
 ق ال
 त राई
 छ ै
 सो हेल
बु निया
 तार क
 B ox
-------- --------
प रेटिव
न् तन
ब ध
म ज
 इ लिया
 शरीर को
 फ्र ान्स
 सार णी
 खंड ित
 विश ्
 सुधार क
 यकी नन
 हैश टैग
 ह र्ट
 मा फ़ी
 ढ लान
 R el
 धा बी
 धर्म ो
 शुद्ध ा
 नौकर शाही
 खाल िस्तानी
 आ ंग
 य दु
 सब में
 लड़ खड़ा
 फंसा ने
 गोड से
 सन् नी
 प्रतिल िपि
 मे स
 रिक वर
 res p
 फ टे
बी ए
 जु डी
 रै प
 चेक अप
 अन्तर िक्ष
 थ ें
 मनुष्य को
 एल एल
o th
 सर दारों
 हा व
 ची तों
 एसडी पीओ
 ख ाप
 अभ द्रता
 हर संभव
 अल् सर
р и
 न्यू क्ल
 सप्त मी
 उपद्र वियों
 ट्रिब्यू नल
क बीर
 ला एगा
 पै च
 नुक़ सान
 अप ि
 य वन
 राष्ट्र पिता
 नाच ने
 गड् ढा
द ली
ो ः
 तर जी
 जल ता
 CS K
 पह रे
 क्ला इंट
 र ट
 शन ैः
 मॉड ल्स
ता से
 पद्ध तियों
 पत्थर बाजी
 जहरी ला
 डि स्ट्री
 मंद सौर
 सप्ता हांत
c il
 सो फे
हु ए
 अर्धशत कीय
र ज
 हो ठों
 कर्म योग
 घा वों
 च ोक
 विनिर् दिष्ट
 लो म
 कीटा णु
ाय म
 अनु भूत
 बू ंदा
 डू ंगर
 न फ़
 करने वालों
 जान ि
 मुखौ टा
रो हित
 St ates
 जॉ इन
 चाइ नीज
 फिल्मा या
" '
ँ कि
 व िल्
 इ न्स
 मही न
एफ एस
 स खा
 ड्राइ वरों
स ठ
 निर् भी
 मस ौ
 ए आईएम
 जन शक्ति
 शै ंप
 अ टका
 च म्पा
 कॉन् सेप्ट
 वै या
शी ष
 धर्म के
 खु र्द
 कुश वाह
 रिफ ंड
 आईएसआई एस
क ब्र
ता नि
 श य्या
 श्री मान्
क ाला
 प ंस
 चौ ड़े
-अ भी
 परमान न्द
लाइ ज़
सि नी
 सफ दर
 इश ांत
 पट्ट ेदार
 पॉलिट िकल
 जीवन काल
प संद
 पार ियां
 उल् लू
 अन्त में
डर मा
तुम्ह ारा
घ रा
 बी के
 न्यूट्र िशन
 खुर् शीद
 मन चा
 कर ाह
 हा किम
" क्या
ौ च
 और ों
 वि मेंस
 D og
 बंद रों
 तम ंचा
 आर्य समाज
 अमर जीत
 किस् में
com m
 pl atform
M on
 जन ार्दन
 अस हि
 प्रतिक ार
टिल ्य
ै ंस
वा शिंगटन
 मै केनिकल
 पी सीबी
 ट्रांस प्लांट
 श कील
 देश द्रोह
स्फ ुट
 कृ पाल
 एल िम
 गेंदबा ज़
- वै
 नजर िए
 काल ान्तर
 घु माव
 पड़ी ं
 फिन लैंड
 भुट ्टो
 कु ंदन
 फार ूक
AN S
 संख्या त
 h im
 फल क
t d
 मि ख
 पीएच सी
la ce
 भ ड़के
ना भ
 अंतर् निहित
 इम ्युनिटी
 यूएस ए
  এ
 को बरा
क् निक
 M ax
लाह ल
 चरित ार्थ
 वे ध
वल दार
-राज नीतिक
- गो
 ब ग़
 उत् त
 बे री
 मार वाड़ी
 हल फना
 पूंजी गत
 काउंसिल िंग
ई ए
ओ ए
 भा कपा
 फोट ोज़
lo ck
 ख डी
 ला गे
 भाव ुकता
 मान वी
 B ab
 लह जे
 आ र्चर
 श बाना
नी ता
 जन म
 बंद ोबस्त
 पुरुष ो
 रचना कार
ब्र ू
 सिल् क
वी सी
्यान ु
 pr od
 ट्रां जेक्शन
- मे
 आफ त
ंब ना
 क्रिया न्वित
l ess
 डे यर
 N IA
 आस क्त
 त्र िलोक
 संपाद कीय
 जो को
 प्रोट ोटाइप
 मधुम क्खी
 रि हाय
 गुणा त्मक
ो मा
 बा थ
ष्ट ी
वि राट
सभा पति
-प्र शांत
ा णु
 नि ह
सु ध
50 6
 चिर ंजी
arn at
 ओ क
-प हल
 आनुवंश िक
 बुद्धि मान्
imach al
વ ા
क् शंस
 मह िल
 गु द
 धन वान
 H ot
 मैथ ुन
 चुंब कीय
  ત
मु द्रा
 आदि पुरुष
 d ay
 होम ्यो
 ट्रेड िशनल
 कस्टम र्स
 का इ
 इब् ने
indi a
 फो म
 दंते वाड़ा
S up
 त्र िवेणी
 क से
अ र्जुन
 अ दाय
 त्रि भुवन
D r
 थ के
 पिछ ड़ी
 श्रीमद् भागवत
 न्यूज़ क्लिक
 ख ोपड़ी
 करा एगा
 री जन
ज ून
 रे ह
वै या
erv ed
 एनडी टीवी
ه ا
 Y ogi
II I
 माइन स
 द लाई
घा ड़ी
िक ट
 रामानु ज
 उष्ण कटिबंधीय
 उप ार्जन
 वा या
शत क
 रु धिर
 रिक ्ति
 प्रौ ढ़
 सोन भद्र
 बढ ती
