{"[PAD]":0,"[UNK]":1,"[CLS]":2,"[SEP]":3,"[MASK]":4,"\t":5,"\n":6," ":7,"!":8,"\"":9,"#":10,"$":11,"%":12,"&":13,"'":14,"(":15,")":16,"*":17,"+":18,",":19,"-":20,".":21,"/":22,"0":23,"1":24,"2":25,"3":26,"4":27,"5":28,"6":29,"7":30,"8":31,"9":32,":":33,";":34,"<":35,"=":36,">":37,"?":38,"@":39,"A":40,"B":41,"C":42,"D":43,"E":44,"F":45,"G":46,"H":47,"I":48,"J":49,"K":50,"L":51,"M":52,"N":53,"O":54,"P":55,"Q":56,"R":57,"S":58,"T":59,"U":60,"V":61,"W":62,"X":63,"Y":64,"Z":65,"[":66,"\\":67,"]":68,"^":69,"_":70,"`":71,"a":72,"b":73,"c":74,"d":75,"e":76,"f":77,"g":78,"h":79,"i":80,"j":81,"k":82,"l":83,"m":84,"n":85,"o":86,"p":87,"q":88,"r":89,"s":90,"t":91,"u":92,"v":93,"w":94,"x":95,"y":96,"z":97,"{":98,"}":99,"~":100,"¡":101,"¢":102,"£":103,"¤":104,"¥":105,"¦":106,"§":107,"©":108,"«":109,"¬":110,"®":111,"°":112,"±":113,"¶":114,"·":115,"»":116,"¿":117,"À":118,"Á":119,"Â":120,"Ã":121,"Ä":122,"Å":123,"Æ":124,"Ç":125,"È":126,"É":127,"Ê":128,"Ë":129,"Ì":130,"Í":131,"Î":132,"Ï":133,"Ð":134,"Ñ":135,"Ò":136,"Ó":137,"Ô":138,"Õ":139,"Ö":140,"×":141,"Ø":142,"Ù":143,"Ú":144,"Û":145,"Ü":146,"Ý":147,"Þ":148,"ß":149,"à":150,"á":151,"â":152,"ã":153,"ä":154,"å":155,"æ":156,"ç":157,"è":158,"é":159,"ê":160,"ë":161,"ì":162,"í":163,"î":164,"ï":165,"ð":166,"ñ":167,"ò":168,"ó":169,"ô":170,"õ":171,"ö":172,"÷":173,"ø":174,"ù":175,"ú":176,"û":177,"ü":178,"ý":179,"þ":180,"ÿ":181,"Ā":182,"ā":183,"Ă":184,"ă":185,"Ą":186,"ą":187,"Ć":188,"ć":189,"ĉ":190,"ċ":191,"Č":192,"č":193,"Ď":194,"ď":195,"Đ":196,"đ":197,"Ē":198,"ē":199,"ĕ":200,"Ė":201,"ė":202,"Ę":203,"ę":204,"Ě":205,"ě":206,"ĝ":207,"Ğ":208,"ğ":209,"Ġ":210,"ġ":211,"Ģ":212,"ģ":213,"Ĥ":214,"ĥ":215,"Ħ":216,"ħ":217,"ĩ":218,"Ī":219,"ī":220,"ĭ":221,"Į":222,"į":223,"İ":224,"ı":225,"Ĵ":226,"Ķ":227,"ķ":228,"ĺ":229,"Ļ":230,"ļ":231,"Ľ":232,"ľ":233,"Ł":234,"ł":235,"ń":236,"Ņ":237,"ņ":238,"Ň":239,"ň":240,"ŋ":241,"Ō":242,"ō":243,"ŏ":244,"Ő":245,"ő":246,"Œ":247,"œ":248,"ŕ":249,"ř":250,"Ś":251,"ś":252,"Ŝ":253,"ŝ":254,"Ş":255,"ş":256,"Š":257,"š":258,"Ţ":259,"ţ":260,"Ť":261,"ť":262,"ũ":263,"Ū":264,"ū":265,"Ŭ":266,"ŭ":267,"Ů":268,"ů":269,"Ű":270,"ű":271,"Ų":272,"ų":273,"ŵ":274,"ŷ":275,"Ÿ":276,"ź":277,"Ż":278,"ż":279,"Ž":280,"ž":281,"ƈ":282,"Ə":283,"ƒ":284,"ƚ":285,"Ơ":286,"ơ":287,"Ư":288,"ư":289,"ǀ":290,"ǁ":291,"ǃ":292,"ǎ":293,"ǐ":294,"ǒ":295,"ǝ":296,"ǣ":297,"ǧ":298,"ǫ":299,"Ș":300,"ș":301,"ț":302,"Ȧ":303,"ȩ":304,"Ʌ":305,"ɐ":306,"ɑ":307,"ɒ":308,"ɔ":309,"ɕ":310,"ɖ":311,"ɗ":312,"ɘ":313,"ə":314,"ɚ":315,"ɛ":316,"ɜ":317,"ɡ":318,"ɢ":319,"ɣ":320,"ɨ":321,"ɩ":322,"ɪ":323,"ɱ":324,"ɳ":325,"ɴ":326,"ɵ":327,"ɾ":328,"ʀ":329,"ʁ":330,"ʂ":331,"ʃ":332,"ʇ":333,"ʈ":334,"ʉ":335,"ʊ":336,"ʋ":337,"ʌ":338,"ʏ":339,"ʒ":340,"ʔ":341,"ʙ":342,"ʜ":343,"ʝ":344,"ʟ":345,"ʤ":346,"ʧ":347,"ʹ":348,"ʺ":349,"ʻ":350,"ʼ":351,"ʾ":352,"ʿ":353,"˄":354,"ˆ":355,"ˇ":356,"ˈ":357,"ˉ":358,"ˌ":359,"ˎ":360,"ː":361,"˗":362,"ˮ":363,"̀":364,"́":365,"̃":366,"̄":367,"̅":368,"̈":369,"̊":370,"̍":371,"̎":372,"̐":373,"̒":374,"̓":375,"̔":376,"̕":377,"̣":378,"̥":379,"̧":380,"̴":381,"̵":382,"̶":383,"̽":384,"͓":385,"ͧ":386,"ͩ":387,"Ά":388,"Α":389,"Β":390,"Γ":391,"Δ":392,"Ε":393,"Ζ":394,"Η":395,"Θ":396,"Ι":397,"Κ":398,"Λ":399,"Μ":400,"Ν":401,"Ο":402,"Π":403,"Ρ":404,"Σ":405,"Τ":406,"Υ":407,"Φ":408,"Χ":409,"Ψ":410,"Ω":411,"ά":412,"έ":413,"ή":414,"ί":415,"α":416,"β":417,"γ":418,"δ":419,"ε":420,"ζ":421,"η":422,"θ":423,"ι":424,"κ":425,"λ":426,"μ":427,"ν":428,"ξ":429,"ο":430,"π":431,"ρ":432,"ς":433,"σ":434,"τ":435,"υ":436,"φ":437,"χ":438,"ψ":439,"ω":440,"ϊ":441,"ό":442,"ύ":443,"ώ":444,"϶":445,"Ѐ":446,"Ё":447,"Ђ":448,"Є":449,"Ѕ":450,"І":451,"Ј":452,"Њ":453,"Ў":454,"А":455,"Б":456,"В":457,"Г":458,"Д":459,"Е":460,"Ж":461,"З":462,"И":463,"Й":464,"К":465,"Л":466,"М":467,"Н":468,"О":469,"П":470,"Р":471,"С":472,"Т":473,"У":474,"Ф":475,"Х":476,"Ц":477,"Ч":478,"Ш":479,"Щ":480,"Ъ":481,"Ы":482,"Ь":483,"Э":484,"Ю":485,"Я":486,"а":487,"б":488,"в":489,"г":490,"д":491,"е":492,"ж":493,"з":494,"и":495,"й":496,"к":497,"л":498,"м":499,"н":500,"о":501,"п":502,"р":503,"с":504,"т":505,"у":506,"ф":507,"х":508,"ц":509,"ч":510,"ш":511,"щ":512,"ъ":513,"ы":514,"ь":515,"э":516,"ю":517,"я":518,"ё":519,"ѓ":520,"є":521,"ѕ":522,"і":523,"ї":524,"ј":525,"њ":526,"ћ":527,"ў":528,"ѣ":529,"Ѵ":530,"ѵ":531,"ґ":532,"ғ":533,"җ":534,"Қ":535,"қ":536,"ҡ":537,"ң":538,"ү":539,"ұ":540,"ҳ":541,"ҷ":542,"Һ":543,"һ":544,"ҽ":545,"Ә":546,"ә":547,"ӣ":548,"Ө":549,"ө":550,"ӯ":551,"Ա":552,"Է":553,"Ի":554,"Խ":555,"Հ":556,"Մ":557,"Շ":558,"Ս":559,"ա":560,"բ":561,"գ":562,"ե":563,"զ":564,"թ":565,"ի":566,"լ":567,"կ":568,"հ":569,"ղ":570,"ճ":571,"մ":572,"յ":573,"ն":574,"ո":575,"չ":576,"ս":577,"վ":578,"տ":579,"ր":580,"ց":581,"ւ":582,"ְ":583,"ִ":584,"ֵ":585,"ֶ":586,"ַ":587,"ָ":588,"ֹ":589,"ּ":590,"ֽ":591,"־":592,"ׁ":593,"ׂ":594,"א":595,"ב":596,"ג":597,"ד":598,"ה":599,"ו":600,"ז":601,"ח":602,"ט":603,"י":604,"ך":605,"כ":606,"ל":607,"ם":608,"מ":609,"ן":610,"נ":611,"ס":612,"ע":613,"ף":614,"פ":615,"ץ":616,"צ":617,"ק":618,"ר":619,"ש":620,"ת":621,"،":622,"ؚ":623,"؛":624,"؟":625,"ء":626,"آ":627,"أ":628,"ؤ":629,"إ":630,"ئ":631,"ا":632,"ب":633,"ة":634,"ت":635,"ث":636,"ج":637,"ح":638,"خ":639,"د":640,"ذ":641,"ر":642,"ز":643,"س":644,"ش":645,"ص":646,"ض":647,"ط":648,"ظ":649,"ع":650,"غ":651,"ـ":652,"ف":653,"ق":654,"ك":655,"ل":656,"م":657,"ن":658,"ه":659,"و":660,"ى":661,"ي":662,"ً":663,"ٌ":664,"ٍ":665,"َ":666,"ُ":667,"ِ":668,"ّ":669,"ْ":670,"ٓ":671,"ٔ":672,"ٖ":673,"٠":674,"١":675,"٢":676,"٣":677,"٤":678,"٥":679,"٦":680,"٧":681,"٨":682,"٩":683,"٫":684,"ٰ":685,"ٱ":686,"ٲ":687,"ٹ":688,"ٺ":689,"ټ":690,"ٽ":691,"پ":692,"ڀ":693,"ځ":694,"څ":695,"چ":696,"ڈ":697,"ډ":698,"ڊ":699,"ڌ":700,"ڏ":701,"ڑ":702,"ړ":703,"ږ":704,"ژ":705,"ڙ":706,"ښ":707,"ڠ":708,"ک":709,"ڪ":710,"ګ":711,"ڭ":712,"گ":713,"ڵ":714,"ں":715,"ڻ":716,"ھ":717,"ہ":718,"ۂ":719,"ۃ":720,"ی":721,"ۍ":722,"ێ":723,"ې":724,"ے":725,"ۓ":726,"۔":727,"ە":728,"۠":729,"۰":730,"۱":731,"۲":732,"۳":733,"۴":734,"۵":735,"۶":736,"۷":737,"۸":738,"۹":739,"܀":740,"܋":741,"ܐ":742,"ܒ":743,"ܓ":744,"ܕ":745,"ܗ":746,"ܘ":747,"ܚ":748,"ܛ":749,"ܝ":750,"ܟ":751,"ܠ":752,"ܡ":753,"ܢ":754,"ܣ":755,"ܨ":756,"ܩ":757,"ܪ":758,"ܫ":759,"ܬ":760,"ܲ":761,"ܵ":762,"ܸ":763,"ހ":764,"ނ":765,"ރ":766,"ބ":767,"ކ":768,"އ":769,"ވ":770,"މ":771,"ދ":772,"ތ":773,"ލ":774,"ގ":775,"ޔ":776,"ޖ":777,"ަ":778,"ާ":779,"ި":780,"ީ":781,"ު":782,"ޫ":783,"ެ":784,"ް":785,"߃":786,"ߝ":787,"ࠀ":788,"ऀ":789,"ँ":790,"ं":791,"ः":792,"ऄ":793,"अ":794,"आ":795,"इ":796,"ई":797,"उ":798,"ऊ":799,"ऋ":800,"ऌ":801,"ऍ":802,"ऎ":803,"ए":804,"ऐ":805,"ऑ":806,"ऒ":807,"ओ":808,"औ":809,"क":810,"ख":811,"ग":812,"घ":813,"ङ":814,"च":815,"छ":816,"ज":817,"झ":818,"ञ":819,"ट":820,"ठ":821,"ड":822,"ढ":823,"ण":824,"त":825,"थ":826,"द":827,"ध":828,"न":829,"ऩ":830,"प":831,"फ":832,"ब":833,"भ":834,"म":835,"य":836,"र":837,"ऱ":838,"ल":839,"ळ":840,"ऴ":841,"व":842,"श":843,"ष":844,"स":845,"ह":846,"ऺ":847,"ऻ":848,"़":849,"ऽ":850,"ा":851,"ि":852,"ी":853,"ु":854,"ू":855,"ृ":856,"ॄ":857,"ॅ":858,"ॆ":859,"े":860,"ै":861,"ॉ":862,"ॊ":863,"ो":864,"ौ":865,"्":866,"ॎ":867,"ॐ":868,"॑":869,"॒":870,"॓":871,"॔":872,"ॕ":873,"ॖ":874,"ॗ":875,"ॠ":876,"ॡ":877,"ॢ":878,"ॣ":879,"।":880,"॥":881,"०":882,"१":883,"२":884,"३":885,"४":886,"५":887,"६":888,"७":889,"८":890,"९":891,"॰":892,"ॱ":893,"ॵ":894,"ॺ":895,"ॻ":896,"ॽ":897,"ॾ":898,"ঁ":899,"ং":900,"ঃ":901,"অ":902,"আ":903,"ই":904,"ঈ":905,"উ":906,"ঊ":907,"ঋ":908,"এ":909,"ঐ":910,"ও":911,"ঔ":912,"ক":913,"খ":914,"গ":915,"ঘ":916,"ঙ":917,"চ":918,"ছ":919,"জ":920,"ঝ":921,"ঞ":922,"ট":923,"ঠ":924,"ড":925,"ঢ":926,"ণ":927,"ত":928,"থ":929,"দ":930,"ধ":931,"ন":932,"প":933,"ফ":934,"ব":935,"ভ":936,"ম":937,"য":938,"র":939,"ল":940,"শ":941,"ষ":942,"স":943,"হ":944,"়":945,"া":946,"ি":947,"ী":948,"ু":949,"ূ":950,"ৃ":951,"ৄ":952,"ে":953,"ৈ":954,"ো":955,"ৌ":956,"্":957,"ৎ":958,"ৗ":959,"ৠ":960,"০":961,"১":962,"২":963,"৩":964,"৪":965,"৫":966,"৬":967,"৭":968,"৮":969,"৯":970,"ৰ":971,"ৱ":972,"৳":973,"৷":974,"৹":975,"ਂ":976,"ਅ":977,"ਆ":978,"ਇ":979,"ਈ":980,"ਉ":981,"ਊ":982,"ਏ":983,"ਐ":984,"ਓ":985,"ਔ":986,"ਕ":987,"ਖ":988,"ਗ":989,"ਘ":990,"ਚ":991,"ਛ":992,"ਜ":993,"ਝ":994,"ਟ":995,"ਠ":996,"ਡ":997,"ਢ":998,"ਣ":999,"ਤ":1000,"ਥ":1001,"ਦ":1002,"ਧ":1003,"ਨ":1004,"ਪ":1005,"ਫ":1006,"ਬ":1007,"ਭ":1008,"ਮ":1009,"ਯ":1010,"ਰ":1011,"ਲ":1012,"ਵ":1013,"ਸ":1014,"ਹ":1015,"਼":1016,"ਾ":1017,"ਿ":1018,"ੀ":1019,"ੁ":1020,"ੂ":1021,"ੇ":1022,"ੈ":1023,"ੋ":1024,"ੌ":1025,"੍":1026,"ੑ":1027,"ੜ":1028,"੦":1029,"੧":1030,"੨":1031,"੩":1032,"੪":1033,"੫":1034,"੬":1035,"੮":1036,"੯":1037,"ੰ":1038,"ੱ":1039,"ੲ":1040,"ੳ":1041,"ੴ":1042,"ઁ":1043,"ં":1044,"ઃ":1045,"અ":1046,"આ":1047,"ઇ":1048,"ઈ":1049,"ઉ":1050,"ઊ":1051,"ઋ":1052,"એ":1053,"ઐ":1054,"ઑ":1055,"ઓ":1056,"ઔ":1057,"ક":1058,"ખ":1059,"ગ":1060,"ઘ":1061,"ઙ":1062,"ચ":1063,"છ":1064,"જ":1065,"ઝ":1066,"ઞ":1067,"ટ":1068,"ઠ":1069,"ડ":1070,"ઢ":1071,"ણ":1072,"ત":1073,"થ":1074,"દ":1075,"ધ":1076,"ન":1077,"પ":1078,"ફ":1079,"બ":1080,"ભ":1081,"મ":1082,"ય":1083,"ર":1084,"લ":1085,"ળ":1086,"વ":1087,"શ":1088,"ષ":1089,"સ":1090,"હ":1091,"઼":1092,"ઽ":1093,"ા":1094,"િ":1095,"ી":1096,"ુ":1097,"ૂ":1098,"ૃ":1099,"ૅ":1100,"ે":1101,"ૈ":1102,"ૉ":1103,"ો":1104,"ૌ":1105,"્":1106,"ૐ":1107,"ૠ":1108,"ૢ":1109,"૦":1110,"૧":1111,"૨":1112,"૩":1113,"૪":1114,"૫":1115,"૬":1116,"૭":1117,"૮":1118,"૯":1119,"ଁ":1120,"ଂ":1121,"ଃ":1122,"ଅ":1123,"ଆ":1124,"ଇ":1125,"ଉ":1126,"ଋ":1127,"ଏ":1128,"ଓ":1129,"କ":1130,"ଖ":1131,"ଗ":1132,"ଘ":1133,"ଙ":1134,"ଚ":1135,"ଛ":1136,"ଜ":1137,"ଝ":1138,"ଞ":1139,"ଟ":1140,"ଠ":1141,"ଡ":1142,"ଢ":1143,"ଣ":1144,"ତ":1145,"ଥ":1146,"ଦ":1147,"ଧ":1148,"ନ":1149,"ପ":1150,"ଫ":1151,"ବ":1152,"ଭ":1153,"ମ":1154,"ଯ":1155,"ର":1156,"ଲ":1157,"ଳ":1158,"ଵ":1159,"ଶ":1160,"ଷ":1161,"ସ":1162,"ହ":1163,"଼":1164,"ା":1165,"ି":1166,"ୀ":1167,"ୁ":1168,"ୂ":1169,"ୃ":1170,"େ":1171,"ୈ":1172,"ୋ":1173,"ୌ":1174,"୍":1175,"ୟ":1176,"୦":1177,"୧":1178,"୨":1179,"୩":1180,"୪":1181,"୫":1182,"୬":1183,"ୱ":1184,"ஃ":1185,"அ":1186,"ஆ":1187,"இ":1188,"ஈ":1189,"உ":1190,"ஊ":1191,"எ":1192,"ஏ":1193,"ஐ":1194,"ஒ":1195,"ஓ":1196,"ஔ":1197,"க":1198,"ங":1199,"ச":1200,"ஜ":1201,"ஞ":1202,"ட":1203,"ண":1204,"த":1205,"ந":1206,"ன":1207,"ப":1208,"ம":1209,"ய":1210,"ர":1211,"ற":1212,"ல":1213,"ள":1214,"ழ":1215,"வ":1216,"ஷ":1217,"ஸ":1218,"ஹ":1219,"ா":1220,"ி":1221,"ீ":1222,"ு":1223,"ூ":1224,"ெ":1225,"ே":1226,"ை":1227,"ொ":1228,"ோ":1229,"ௌ":1230,"்":1231,"௫":1232,"௭":1233,"௮":1234,"ఁ":1235,"ం":1236,"ః":1237,"అ":1238,"ఆ":1239,"ఇ":1240,"ఈ":1241,"ఉ":1242,"ఊ":1243,"ఋ":1244,"ఎ":1245,"ఏ":1246,"ఐ":1247,"ఒ":1248,"ఓ":1249,"క":1250,"ఖ":1251,"గ":1252,"ఘ":1253,"చ":1254,"ఛ":1255,"జ":1256,"ఝ":1257,"ఞ":1258,"ట":1259,"ఠ":1260,"డ":1261,"ఢ":1262,"ణ":1263,"త":1264,"థ":1265,"ద":1266,"ధ":1267,"న":1268,"ప":1269,"ఫ":1270,"బ":1271,"భ":1272,"మ":1273,"య":1274,"ర":1275,"ఱ":1276,"ల":1277,"ళ":1278,"వ":1279,"శ":1280,"ష":1281,"స":1282,"హ":1283,"ా":1284,"ి":1285,"ీ":1286,"ు":1287,"ూ":1288,"ృ":1289,"ె":1290,"ే":1291,"ై":1292,"ొ":1293,"ో":1294,"ౌ":1295,"్":1296,"ಂ":1297,"ಃ":1298,"ಅ":1299,"ಆ":1300,"ಇ":1301,"ಈ":1302,"ಉ":1303,"ಎ":1304,"ಏ":1305,"ಐ":1306,"ಒ":1307,"ಓ":1308,"ಕ":1309,"ಖ":1310,"ಗ":1311,"ಘ":1312,"ಚ":1313,"ಛ":1314,"ಜ":1315,"ಞ":1316,"ಟ":1317,"ಠ":1318,"ಡ":1319,"ಢ":1320,"ಣ":1321,"ತ":1322,"ಥ":1323,"ದ":1324,"ಧ":1325,"ನ":1326,"ಪ":1327,"ಫ":1328,"ಬ":1329,"ಭ":1330,"ಮ":1331,"ಯ":1332,"ರ":1333,"ಲ":1334,"ಳ":1335,"ವ":1336,"ಶ":1337,"ಷ":1338,"ಸ":1339,"ಹ":1340,"ಾ":1341,"ಿ":1342,"ೀ":1343,"ು":1344,"ೂ":1345,"ೃ":1346,"ೆ":1347,"ೇ":1348,"ೈ":1349,"ೊ":1350,"ೋ":1351,"ೌ":1352,"್":1353,"೦":1354,"೧":1355,"೫":1356,"೬":1357,"೮":1358,"೯":1359,"ം":1360,"ഃ":1361,"അ":1362,"ആ":1363,"ഇ":1364,"ഈ":1365,"ഉ":1366,"എ":1367,"ഏ":1368,"ഒ":1369,"ഔ":1370,"ക":1371,"ഖ":1372,"ഗ":1373,"ഘ":1374,"ങ":1375,"ച":1376,"ഛ":1377,"ജ":1378,"ഞ":1379,"ട":1380,"ഠ":1381,"ഡ":1382,"ണ":1383,"ത":1384,"ഥ":1385,"ദ":1386,"ധ":1387,"ന":1388,"പ":1389,"ഫ":1390,"ബ":1391,"ഭ":1392,"മ":1393,"യ":1394,"ര":1395,"റ":1396,"ല":1397,"ള":1398,"ഴ":1399,"വ":1400,"ശ":1401,"ഷ":1402,"സ":1403,"ഹ":1404,"ാ":1405,"ി":1406,"ീ":1407,"ു":1408,"ൂ":1409,"ൃ":1410,"െ":1411,"േ":1412,"ൈ":1413,"ൊ":1414,"ോ":1415,"ൌ":1416,"്":1417,"ൗ":1418,"൦":1419,"൯":1420,"ൺ":1421,"ൻ":1422,"ർ":1423,"ൽ":1424,"ൾ":1425,"ං":1426,"අ":1427,"ආ":1428,"ඇ":1429,"ඉ":1430,"ඊ":1431,"උ":1432,"ඌ":1433,"එ":1434,"ඒ":1435,"ඔ":1436,"ඕ":1437,"ක":1438,"ඛ":1439,"ග":1440,"ඝ":1441,"ඟ":1442,"ච":1443,"ඡ":1444,"ජ":1445,"ඥ":1446,"ට":1447,"ඨ":1448,"ඩ":1449,"ණ":1450,"ඬ":1451,"ත":1452,"ථ":1453,"ද":1454,"ධ":1455,"න":1456,"ඳ":1457,"ප":1458,"ඵ":1459,"බ":1460,"භ":1461,"ම":1462,"ඹ":1463,"ය":1464,"ර":1465,"ල":1466,"ව":1467,"ශ":1468,"ෂ":1469,"ස":1470,"හ":1471,"ළ":1472,"ෆ":1473,"්":1474,"ා":1475,"ැ":1476,"ෑ":1477,"ි":1478,"ී":1479,"ු":1480,"ූ":1481,"ෘ":1482,"ෙ":1483,"ේ":1484,"ෛ":1485,"ො":1486,"ෝ":1487,"ෞ":1488,"ก":1489,"ข":1490,"ค":1491,"ง":1492,"จ":1493,"ฉ":1494,"ช":1495,"ซ":1496,"ฌ":1497,"ญ":1498,"ฎ":1499,"ณ":1500,"ด":1501,"ต":1502,"ท":1503,"ธ":1504,"น":1505,"บ":1506,"ป":1507,"พ":1508,"ภ":1509,"ม":1510,"ย":1511,"ร":1512,"ฤ":1513,"ล":1514,"ว":1515,"ศ":1516,"ษ":1517,"ส":1518,"ห":1519,"อ":1520,"ะ":1521,"ั":1522,"า":1523,"ิ":1524,"ี":1525,"ื":1526,"ุ":1527,"ู":1528,"฿":1529,"เ":1530,"แ":1531,"โ":1532,"ใ":1533,"ไ":1534,"่":1535,"้":1536,"์":1537,"ํ":1538,"ກ":1539,"ຂ":1540,"ຄ":1541,"ງ":1542,"ຈ":1543,"ດ":1544,"ທ":1545,"ນ":1546,"ບ":1547,"ປ":1548,"ພ":1549,"ມ":1550,"ຣ":1551,"ລ":1552,"ວ":1553,"ຫ":1554,"ອ":1555,"ຮ":1556,"ະ":1557,"ັ":1558,"າ":1559,"ີ":1560,"ື":1561,"ູ":1562,"ຼ":1563,"ຽ":1564,"ເ":1565,"ແ":1566,"ໍ":1567,"་":1568,"།":1569,"༒":1570,"ཀ":1571,"ཁ":1572,"ག":1573,"ང":1574,"ཅ":1575,"ཆ":1576,"ཇ":1577,"ཊ":1578,"ཎ":1579,"ཏ":1580,"ཐ":1581,"ད":1582,"ན":1583,"པ":1584,"ཕ":1585,"བ":1586,"མ":1587,"ཙ":1588,"ཚ":1589,"ཛ":1590,"ཝ":1591,"ཞ":1592,"ཟ":1593,"འ":1594,"ཡ":1595,"ར":1596,"ལ":1597,"ཤ":1598,"ས":1599,"ཨ":1600,"ཱ":1601,"ི":1602,"ུ":1603,"ེ":1604,"ོ":1605,"ྐ":1606,"ྒ":1607,"ྔ":1608,"ྗ":1609,"ྙ":1610,"ྟ":1611,"ྣ":1612,"ྤ":1613,"ྦ":1614,"ྨ":1615,"ྩ":1616,"ྫ":1617,"ྰ":1618,"ྱ":1619,"ྲ":1620,"ླ":1621,"ྷ":1622,"࿐":1623,"က":1624,"ခ":1625,"ဂ":1626,"င":1627,"စ":1628,"ဆ":1629,"ဇ":1630,"ဉ":1631,"ည":1632,"တ":1633,"ထ":1634,"ဒ":1635,"န":1636,"ပ":1637,"ဖ":1638,"ဗ":1639,"ဘ":1640,"မ":1641,"ယ":1642,"ရ":1643,"လ":1644,"ဝ":1645,"သ":1646,"ဟ":1647,"အ":1648,"ဦ":1649,"ါ":1650,"ာ":1651,"ိ":1652,"ီ":1653,"ု":1654,"ူ":1655,"ေ":1656,"ဲ":1657,"ဳ":1658,"ဴ":1659,"ံ":1660,"့":1661,"း":1662,"္":1663,"်":1664,"ျ":1665,"ြ":1666,"ွ":1667,"ှ":1668,"၃":1669,"၄":1670,"၊":1671,"ၚ":1672,"ၵ":1673,"ၽ":1674,"ၾ":1675,"ၿ":1676,"ႆ":1677,"ႈ":1678,"ႊ":1679,"ႏ":1680,"႔":1681,"ა":1682,"ბ":1683,"დ":1684,"ე":1685,"ვ":1686,"თ":1687,"ი":1688,"კ":1689,"ლ":1690,"მ":1691,"ნ":1692,"ო":1693,"რ":1694,"ს":1695,"ტ":1696,"უ":1697,"ფ":1698,"ქ":1699,"ღ":1700,"ყ":1701,"შ":1702,"ხ":1703,"ᄁ":1704,"ᄂ":1705,"ᄃ":1706,"ᄄ":1707,"ᄅ":1708,"ᄆ":1709,"ᄇ":1710,"ᄈ":1711,"ᄉ":1712,"ᄊ":1713,"ᄋ":1714,"ᄌ":1715,"ᄍ":1716,"ᄎ":1717,"ᄏ":1718,"ᄐ":1719,"ᄑ":1720,"ᄒ":1721,"ᅠ":1722,"ᆬ":1723,"ላ":1724,"ሌ":1725,"ል":1726,"ሐ":1727,"ሔ":1728,"ሕ":1729,"መ":1730,"ሚ":1731,"ማ":1732,"ም":1733,"ረ":1734,"ሪ":1735,"ራ":1736,"ሬ":1737,"ር":1738,"ሮ":1739,"ሰ":1740,"ስ":1741,"ሶ":1742,"ሻ":1743,"ቀ":1744,"ቅ":1745,"በ":1746,"ቡ":1747,"ባ":1748,"ቤ":1749,"ብ":1750,"ቦ":1751,"ት":1752,"ች":1753,"ና":1754,"ን":1755,"አ":1756,"ኢ":1757,"ኦ":1758,"ካ":1759,"ክ":1760,"ዋ":1761,"ዓ":1762,"ዕ":1763,"ዝ":1764,"የ":1765,"ያ":1766,"ይ":1767,"ዮ":1768,"ደ":1769,"ዲ":1770,"ዳ":1771,"ድ":1772,"ገ":1773,"ጉ":1774,"ጋ":1775,"ግ":1776,"ጣ":1777,"ጵ":1778,"ፋ":1779,"ፍ":1780,"Ꭵ":1781,"Ꭶ":1782,"Ꭷ":1783,"Ꮄ":1784,"Ꮑ":1785,"Ꮗ":1786,"Ꮛ":1787,"Ꮢ":1788,"Ꮥ":1789,"Ꮧ":1790,"Ꮩ":1791,"Ꮪ":1792,"Ꮭ":1793,"Ꮴ":1794,"Ꮶ":1795,"ᐃ":1796,"ᐊ":1797,"ᐟ":1798,"ᐧ":1799,"ᑦ":1800,"ᑯ":1801,"ᒡ":1802,"ᒣ":1803,"ᒧ":1804,"ᓄ":1805,"ᓇ":1806,"ᓗ":1807,"ᓯ":1808,"ᖅ":1809,"ᖹ":1810,"ᛀ":1811,"ក":1812,"ខ":1813,"គ":1814,"ឃ":1815,"ង":1816,"ច":1817,"ឆ":1818,"ជ":1819,"ដ":1820,"ឌ":1821,"ត":1822,"ថ":1823,"ទ":1824,"ធ":1825,"ន":1826,"ប":1827,"ផ":1828,"ព":1829,"ភ":1830,"ម":1831,"យ":1832,"រ":1833,"ល":1834,"វ":1835,"ស":1836,"ហ":1837,"អ":1838,"ឯ":1839,"ា":1840,"ិ":1841,"ី":1842,"ឺ":1843,"ុ":1844,"ូ":1845,"ៀ":1846,"េ":1847,"ែ":1848,"ោ":1849,"ៅ":1850,"ំ":1851,"ះ":1852,"៉":1853,"៊":1854,"័":1855,"្":1856,"។":1857,"៖":1858,"៛":1859,"១":1860,"២":1861,"៤":1862,"៥":1863,"៦":1864,"៨":1865,"៩":1866,"ᠠ":1867,"ᠢ":1868,"ᠤ":1869,"ᠥ":1870,"ᠨ":1871,"ᠭ":1872,"ᠮ":1873,"ᠰ":1874,"ᠲ":1875,"ᠵ":1876,"ᠷ":1877,"ᡠ":1878,"ᡤ":1879,"ᡳ":1880,"ᣛ":1881,"᭄":1882,"ᮒ":1883,"ᮓ":1884,"ᮔ":1885,"ᮝ":1886,"ᮞ":1887,"ᮤ":1888,"ᮥ":1889,"᮪":1890,"ᱚ":1891,"ᱛ":1892,"ᱜ":1893,"ᱞ":1894,"ᱟ":1895,"ᱡ":1896,"ᱥ":1897,"ᱦ":1898,"ᱨ":1899,"ᱩ":1900,"ᱮ":1901,"ᱯ":1902,"ᱱ":1903,"ᱵ":1904,"ᱶ":1905,"ᱽ":1906,"ᳬ":1907,"ᴀ":1908,"ᴅ":1909,"ᴊ":1910,"ᴋ":1911,"ᴍ":1912,"ᴏ":1913,"ᴘ":1914,"ᴛ":1915,"ᴜ":1916,"ᴡ":1917,"ᵻ":1918,"ᷫ":1919,"ḇ":1920,"Ḍ":1921,"ḍ":1922,"ḏ":1923,"Ḥ":1924,"ḥ":1925,"ḫ":1926,"Ḳ":1927,"Ḵ":1928,"ḷ":1929,"Ṁ":1930,"ṁ":1931,"ṃ":1932,"ṅ":1933,"Ṇ":1934,"ṇ":1935,"ṉ":1936,"ṛ":1937,"Ṣ":1938,"ṣ":1939,"Ṭ":1940,"ṭ":1941,"ṯ":1942,"Ẓ":1943,"ẓ":1944,"ẕ":1945,"ẖ":1946,"Ạ":1947,"ạ":1948,"ả":1949,"Ấ":1950,"ấ":1951,"Ầ":1952,"ầ":1953,"ẩ":1954,"Ẫ":1955,"ẫ":1956,"Ậ":1957,"ậ":1958,"ắ":1959,"ằ":1960,"ẵ":1961,"ặ":1962,"Ẹ":1963,"ẹ":1964,"ẻ":1965,"ẽ":1966,"Ế":1967,"ế":1968,"Ề":1969,"ề":1970,"Ể":1971,"ể":1972,"Ệ":1973,"ệ":1974,"Ỉ":1975,"ỉ":1976,"Ị":1977,"ị":1978,"Ọ":1979,"ọ":1980,"Ố":1981,"ố":1982,"Ồ":1983,"ồ":1984,"ỗ":1985,"Ộ":1986,"ộ":1987,"Ớ":1988,"ớ":1989,"ờ":1990,"Ở":1991,"ở":1992,"Ợ":1993,"ợ":1994,"ụ":1995,"Ủ":1996,"ủ":1997,"Ứ":1998,"ứ":1999,"ừ":2000,"ử":2001,"ữ":2002,"ự":2003,"ỳ":2004,"Ỷ":2005,"ỷ":2006,"Ỹ":2007,"ỹ":2008,"ἀ":2009,"ἅ":2010,"Ἀ":2011,"Ἁ":2012,"Ἅ":2013,"ἐ":2014,"ἑ":2015,"ἔ":2016,"ἕ":2017,"Ἑ":2018,"ἡ":2019,"ἤ":2020,"ἥ":2021,"ἧ":2022,"Ἠ":2023,"Ἡ":2024,"ἰ":2025,"ἱ":2026,"ἴ":2027,"ἶ":2028,"Ἰ":2029,"Ἱ":2030,"Ἵ":2031,"ὀ":2032,"ὁ":2033,"ὅ":2034,"Ὀ":2035,"Ὁ":2036,"Ὄ":2037,"ὐ":2038,"ὑ":2039,"ὕ":2040,"Ὑ":2041,"ὴ":2042,"ὶ":2043,"ὸ":2044,"ὺ":2045,"ᾔ":2046,"ᾱ":2047,"ᾶ":2048,"ᾷ":2049,"ῆ":2050,"ῑ":2051,"ῖ":2052,"ῥ":2053,"ῦ":2054,"ῳ":2055,"ῴ":2056,"ῶ":2057,"ῷ":2058,"‎":2059,"‐":2060,"‒":2061,"―":2062,"‛":2063,"‟":2064,"†":2065,"‡":2066,"•":2067,"‪":2068,"‫":2069,"‬":2070,"‰":2071,"′":2072,"‹":2073,"›":2074,"※":2075,"⁃":2076,"⁄":2077,"⁝":2078,"₡":2079,"₣":2080,"₦":2081,"₩":2082,"₪":2083,"₫":2084,"€":2085,"₭":2086,"₮":2087,"₱":2088,"₹":2089,"₺":2090,"₽":2091,"₿":2092,"⃒":2093,"⃣":2094,"⃰":2095,"℗":2096,"℞":2097,"←":2098,"↑":2099,"→":2100,"↓":2101,"↔":2102,"↗":2103,"↘":2104,"↳":2105,"↵":2106,"↹":2107,"⇆":2108,"⇌":2109,"⇒":2110,"⇓":2111,"⇔":2112,"⇧":2113,"⇱":2114,"∀":2115,"∂":2116,"∆":2117,"∇":2118,"∈":2119,"∎":2120,"∑":2121,"−":2122,"∕":2123,"∗":2124,"∙":2125,"√":2126,"∞":2127,"∠":2128,"∣":2129,"∨":2130,"∩":2131,"∫":2132,"∶":2133,"∼":2134,"≃":2135,"≅":2136,"≈":2137,"≠":2138,"≡":2139,"≤":2140,"≥":2141,"≫":2142,"⊂":2143,"⊃":2144,"⊆":2145,"⊕":2146,"⊖":2147,"⊗":2148,"⊙":2149,"⊞":2150,"⊿":2151,"⋅":2152,"⋮":2153,"⋯":2154,"⌂":2155,"⌘":2156,"⌥":2157,"⎙":2158,"⏎":2159,"⏩":2160,"⏪":2161,"⏫":2162,"⏭":2163,"⏰":2164,"⏱":2165,"⏳":2166,"⏺":2167,"─":2168,"│":2169,"┐":2170,"┘":2171,"├":2172,"┬":2173,"┼":2174,"╝":2175,"╟":2176,"╣":2177,"░":2178,"▓":2179,"■":2180,"□":2181,"▪":2182,"▫":2183,"▬":2184,"▲":2185,"△":2186,"▶":2187,"▸":2188,"►":2189,"▼":2190,"▾":2191,"◆":2192,"◉":2193,"◊":2194,"○":2195,"◎":2196,"●":2197,"◘":2198,"◙":2199,"◦":2200,"◽":2201,"◾":2202,"⟳":2203,"⠀":2204,"⦁":2205,"⦴":2206,"⦿":2207,"⨯":2208,"⬆":2209,"⬇":2210,"⬜":2211,"⭐":2212,"⭕":2213,"⮞":2214,"ⴰ":2215,"ⴷ":2216,"ⴻ":2217,"ⴼ":2218,"ⴽ":2219,"ⵀ":2220,"ⵉ":2221,"ⵊ":2222,"ⵎ":2223,"ⵏ":2224,"ⵓ":2225,"ⵔ":2226,"ⵖ":2227,"ⵙ":2228,"ⵜ":2229,"ⵟ":2230,"ⵢ":2231,"ⵣ":2232,"、":2233,"。":2234,"〈":2235,"『":2236,"』":2237,"【":2238,"】":2239,"〒":2240,"〚":2241,"〜":2242,"え":2243,"こ":2244,"し":2245,"じ":2246,"す":2247,"た":2248,"で":2249,"ね":2250,"の":2251,"は":2252,"ば":2253,"ま":2254,"も":2255,"ゃ":2256,"る":2257,"ん":2258,"ア":2259,"ィ":2260,"イ":2261,"ウ":2262,"エ":2263,"ォ":2264,"オ":2265,"カ":2266,"ク":2267,"グ":2268,"ケ":2269,"ゴ":2270,"シ":2271,"ジ":2272,"ス":2273,"ズ":2274,"チ":2275,"ッ":2276,"ツ":2277,"テ":2278,"デ":2279,"ト":2280,"ド":2281,"ヌ":2282,"パ":2283,"ヒ":2284,"ビ":2285,"フ":2286,"ブ":2287,"ポ":2288,"メ":2289,"モ":2290,"ラ":2291,"ル":2292,"レ":2293,"ロ":2294,"ン":2295,"・":2296,"ー":2297,"Ꜣ":2298,"ꟷ":2299,"꠰":2300,"ꦗ":2301,"ꦧ":2302,"ꦮ":2303,"ꦱ":2304,"꧁":2305,"꧂":2306,"꫰":2307,"가":2308,"감":2309,"강":2310,"게":2311,"겠":2312,"계":2313,"고":2314,"곱":2315,"공":2316,"괜":2317,"구":2318,"국":2319,"그":2320,"글":2321,"기":2322,"김":2323,"까":2324,"끝":2325,"나":2326,"남":2327,"너":2328,"네":2329,"넷":2330,"녕":2331,"뉴":2332,"는":2333,"늡":2334,"니":2335,"다":2336,"덟":2337,"동":2338,"둘":2339,"둥":2340,"드":2341,"딩":2342,"떠":2343,"똥":2344,"뜸":2345,"로":2346,"루":2347,"리":2348,"림":2349,"마":2350,"만":2351,"맙":2352,"먹":2353,"면":2354,"무":2355,"바":2356,"박":2357,"반":2358,"배":2359,"부":2360,"사":2361,"산":2362,"삼":2363,"서":2364,"선":2365,"섯":2366,"성":2367,"세":2368,"셋":2369,"스":2370,"슬":2371,"습":2372,"시":2373,"신":2374,"십":2375,"쑴":2376,"아":2377,"안":2378,"야":2379,"양":2380,"어":2381,"었":2382,"에":2383,"여":2384,"역":2385,"열":2386,"예":2387,"오":2388,"올":2389,"외":2390,"요":2391,"용":2392,"워":2393,"월":2394,"위":2395,"육":2396,"의":2397,"이":2398,"인":2399,"일":2400,"입":2401,"자":2402,"작":2403,"잘":2404,"장":2405,"저":2406,"적":2407,"제":2408,"조":2409,"줌":2410,"중":2411,"지":2412,"찮":2413,"천":2414,"촌":2415,"추":2416,"춤":2417,"치":2418,"칠":2419,"컹":2420,"코":2421,"쿰":2422,"타":2423,"태":2424,"탱":2425,"투":2426,"틈":2427,"팔":2428,"팥":2429,"평":2430,"픽":2431,"하":2432,"한":2433,"할":2434,"합":2435,"항":2436,"해":2437,"행":2438,"홉":2439,"회":2440,"후":2441,"훔":2442,"흘":2443,"흥":2444,"흩":2445,"히":2446,"﴾":2447,"﴿":2448,"︂":2449,"︎":2450,"️":2451,"￼":2452,"�":2453,"𐎠":2454,"𐎱":2455,"𐎼":2456,"𐎿":2457,"𐡃":2458,"𐡅":2459,"𐡌":2460,"𐡓":2461,"𐡕":2462,"𓀠":2463,"🃏":2464,"🅔":2465,"🅗":2466,"🅘":2467,"🅝":2468,"🅞":2469,"🅟":2470,"🅧":2471,"🅰":2472,"🆕":2473,"🇦":2474,"🇧":2475,"🇨":2476,"🇩":2477,"🇪":2478,"🇫":2479,"🇬":2480,"🇭":2481,"🇮":2482,"🇯":2483,"🇰":2484,"🇱":2485,"🇲":2486,"🇳":2487,"🇵":2488,"🇶":2489,"🇷":2490,"🇸":2491,"🇹":2492,"🇺":2493,"🇻":2494,"🇿":2495," क":2496," स":2497," ह":2498," म":2499," प":2500,"्र":2501,"ें":2502," है":2503,"ार":2504," के":2505,"ने":2506," ब":2507," ज":2508,"या":2509," व":2510," अ":2511," द":2512," में":2513," र":2514," ल":2515,"ों":2516," न":2517,"र्":2518," की":2519,"ता":2520," को":2521," उ":2522," आ":2523,"ान":2524,"्य":2525," ग":2526," त":2527," से":2528," कि":2529," कर":2530," इ":2531," भ":2532," का":2533," औ":2534," और":2535,"िक":2536,"ना":2537," प्र":2538,"स्":2539," पर":2540," ए":2541," श":2542,"ाल":2543,"क्":2544," च":2545," हो":2546," य":2547," ने":2548," इस":2549," हैं":2550,"ही":2551,"िल":2552,"ित":2553,"न्":2554,"।\n":2555," थ":2556,"हा":2557,"ड़":2558,"ते":2559," जा":2560,"िय":2561,"के":2562,"िए":2563,"ाम":2564,"्व":2565," वि":2566,"िया":2567," भी":2568,"ति":2569," एक":2570,"ती":2571," फ":2572," ख":2573,"त्र":2574,"से":2575,"वा":2576,"ंग":2577,"हीं":2578,"्या":2579,"ला":2580," सा":2581," दे":2582," बा":2583," सम":2584,"री":2585," लिए":2586,"ले":2587,"रा":2588,"का":2589," अप":2590,"त्":2591,"्ट":2592,"कर":2593,"नी":2594," नहीं":2595," सं":2596," रा":2597," ।":2598,"सी":2599,"िन":2600,"ोग":2601," ही":2602,"िस":2603," हु":2604,"गा":2605,"ेश":2606,"कार":2607," किया":2608," ट":2609,"क्ष":2610," स्":2611," ले":2612,"ुर":2613,"की":2614," (":2615," था":2616," ड":2617," यह":2618," नि":2619," रह":2620,"ाय":2621,"ली":2622,"मा":2623," मु":2624," तो":2625," गया":2626," करने":2627," कार":2628," उस":2629,"ास":2630," पह":2631," अन":2632,"ारी":2633,"ां":2634," साथ":2635,"ियों":2636," उन":2637,"्म":2638," कु":2639,"न्ह":2640,"सा":2641,"ंद":2642," घ":2643," जो":2644," अध":2645," आप":2646,"िव":2647," सक":2648,"रे":2649,"भा":2650,"ल्":2651,"ाह":2652," या":2653,"में":2654,"द्":2655," ध":2656," सु":2657,"िर":2658," कहा":2659,"्री":2660,"ंड":2661," पू":2662,"था":2663," राज":2664,"ारा":2665," उन्ह":2666,"कि":2667,"दी":2668," वाल":2669,"िला":2670,"स्ट":2671,"ुल":2672,"ूप":2673," बाद":2674," अपने":2675," छ":2676,"भी":2677,"को":2678," दो":2679,"गी":2680,"्त":2681," सि":2682,"ष्ट":2683,"ढ़":2684," थी":2685,"जी":2686," तक":2687," लोग":2688," हम":2689," रहे":2690," मे":2691,"ंत्र":2692," दिया":2693,"देश":2694,"्रे":2695,"च्":2696,"वि":2697," वह":2698,"दा":2699,"ओं":2700," स्व":2701,"्ष":2702,"गे":2703,"तर":2704," उप":2705," जिस":2706,"ाइ":2707," ऐ":2708,"ार्":2709,"ंच":2710," हुए":2711," भा":2712,"रो":2713," मै":2714,"20":2715,".\n":2716," मह":2717,"टी":2718," '":2719," भार":2720," थे":2721," -":2722,"द्ध":2723," सी":2724," अधिक":2725," रहा":2726," पा":2727,"ाना":2728,"स्त":2729,"र्म":2730," गई":2731," मिल":2732," मा":2733,"ोज":2734," जी":2735," अनु":2736,"जा":2737,"गर":2738,"खा":2739,"ोंने":2740," बी":2741,"ानी":2742," सर":2743,"िश":2744,"ीन":2745," बार":2746,"टर":2747," वे":2748,"द्र":2749," कुछ":2750,"म्":2751,"वी":2752," वर्":2753," रही":2754,"पी":2755,"ये":2756," स्थ":2757," बता":2758," बना":2759," रूप":2760,"नों":2761,"पा":2762," चु":2763," सब":2764,"ौर":2765,"ेल":2766," दी":2767,"स्थ":2768,"किन":2769," चाह":2770," तर":2771,"ेट":2772,"र्व":2773," करते":2774," दू":2775," द्व":2776," उन्होंने":2777,"शन":2778," इन":2779," विश":2780,"ड़ा":2781," जब":2782,"क्त":2783,"ड़ी":2784," बात":2785," ला":2786," बह":2787," होने":2788," व्य":2789," लेकिन":2790," पहले":2791," कम":2792,"बा":2793,"दि":2794,"ंध":2795,"्यों":2796," साम":2797," सरकार":2798,"िंग":2799," कह":2800,"ाप":2801," \"":2802," इसके":2803,"ुत":2804,"हां":2805," जाता":2806," लगा":2807,"क्र":2808,"बर":2809," समय":2810," निर्":2811," जाए":2812," कोई":2813," अब":2814," उत्":2815," अपनी":2816," दिन":2817," देख":2818," लोगों":2819," सो":2820," प्रति":2821,"मान":2822," क्ष":2823,"चार":2824," बै":2825," जान":2826,"हर":2827,"्ञ":2828," द्वारा":2829," किसी":2830," गए":2831," कार्य":2832," टी":2833,"ूल":2834,"ंत्री":2835,"ड़े":2836," हि":2837,"वार":2838," वाले":2839," हुआ":2840," ये":2841," मो":2842," ओ":2843," पुल":2844," मौ":2845,"ष्":2846,"िप":2847,"र्ट":2848," होता":2849," ।\n":2850,"ूर":2851,"वं":2852,"कों":2853," पी":2854," काम":2855,"्स":2856," देश":2857," भारत":2858," नाम":2859,"वे":2860,"्ल":2861," बे":2862,"ोल":2863,"ुप":2864," तरह":2865," दु":2866," उनके":2867," बि":2868," पुलिस":2869," कै":2870," करना":2871,"ज़":2872,"क्षा":2873,"ृत":2874,"्यू":2875,"चा":2876," विक":2877,"क्ति":2878,"ोट":2879," हुई":2880,"ोक":2881," जै":2882,"रण":2883," ऑ":2884," कई":2885," सकता":2886,"जन":2887,"योग":2888,"in":2889,"पर":2890," बढ़":2891,"िका":2892," पु":2893,"ंह":2894," मान":2895,"िट":2896,"मे":2897," करें":2898,"ंस":2899,"च्छ":2900," तथा":2901,"धान":2902,"ंक":2903," स्ट":2904," माम":2905," रख":2906,"वन":2907,"ंट":2908," सभी":2909,"न्न":2910,"र्थ":2911,"श्":2912," जन":2913," साल":2914,"ंप":2915,"मी":2916," लग":2917," सू":2918,"ेत्र":2919,"िवार":2920," बहुत":2921," फिल":2922,"धार":2923,"च्च":2924,"तु":2925,"प्र":2926," लेकर":2927,"an":2928,"िये":2929," पहु":2930," सकते":2931,"भाव":2932," ना":2933,"ब्":2934,"मार":2935," हा":2936," कारण":2937," शुर":2938," मैं":2939," उन्हें":2940,"बी":2941," क्षेत्र":2942," पार":2943," ग्र":2944," अव":2945,"बंध":2946," फिर":2947,"जे":2948," क्या":2949," एवं":2950,"सार":2951," दूस":2952," गु":2953," आज":2954,"िल्":2955," उसके":2956," बताया":2957,"न्द":2958,"ोर":2959," होगा":2960,"स्ता":2961," मुख":2962,"िम":2963,"क्स":2964,"वाल":2965," अन्य":2966," निक":2967," दि":2968,"र्ण":2969," सिंह":2970," मन":2971,"तीय":2972," सह":2973," अभ":2974," हर":2975,"ीड":2976,"ज्ञ":2977," परि":2978," ता":2979," फिल्म":2980,"ारे":2981," अं":2982,"ून":2983," चल":2984," बु":2985," बन":2986,"er":2987,"नि":2988," शाम":2989," यु":2990,"पुर":2991," दौर":2992," वर्ष":2993," क्र":2994," पि":2995," दर्":2996,"डी":2997," वा":2998," राज्य":2999," करता":3000," हाल":3001," नी":3002," लि":3003," पै":3004,"र्स":3005,"ूम":3006," लिया":3007,"क्ट":3008," पहुंच":3009,"on":3010,"ोड़":3011," जाने":3012,"वर":3013,"द्य":3014,"th":3015,"दार":3016," खु":3017," चाहिए":3018,"्टी":3019,"ेष":3020," घर":3021," सबसे":3022,"ध्य":3023," क्यों":3024," उसे":3025," शिक":3026,"कारी":3027," बीच":3028," ठ":3029,"्रेस":3030,"फी":3031," दोनों":3032," पास":3033,"यर":3034," दौरान":3035,"दे":3036,"एस":3037," स्थित":3038,"दान":3039," टीम":3040,"मु":3041,"पू":3042," होती":3043," वै":3044,"ाज":3045,"त्व":3046," खिला":3047,"ाने":3048," ऐसे":3049,"जर":3050,"वल":3051," रुप":3052,"त्य":3053,"मंत्री":3054," उनकी":3055," जु":3056," मुख्य":3057,"स्था":3058," स्वा":3059,"त्म":3060," प्रा":3061,"ar":3062," ई":3063,"्ड":3064,"10":3065," जि":3066," फै":3067,"िल्ली":3068,"ियम":3069,"शी":3070,"्रीय":3071,"ाप्त":3072," )":3073," शुरू":3074,"at":3075," प्रकार":3076," प्रदेश":3077," झ":3078," इं":3079,"ेंद्र":3080,"एम":3081,"श्य":3082," आई":3083,"चना":3084,"es":3085,"म्म":3086,"एं":3087,"भाग":3088," शामिल":3089,"प्":3090,"सर":3091," भारतीय":3092,"19":3093,"ाई":3094," आय":3095,"गत":3096," तु":3097,"ियो":3098,"धी":3099," आपको":3100,"हार":3101," बो":3102," तीन":3103," श्री":3104,"नाव":3105,"चित":3106,"जार":3107," दिल्ली":3108," बारे":3109,"al":3110,"णा":3111," रो":3112," जर":3113,"र्ड":3114," वाली":3115,"हत":3116,"लों":3117,"ेज":3118," तै":3119," अपना":3120," बैठ":3121,"क्रम":3122," विश्व":3123," देने":3124," यहां":3125," अच्छ":3126," ब्र":3127," अल":3128," शु":3129,"ग्र":3130,"सान":3131," परिवार":3132," इसी":3133," ओर":3134," महिला":3135,"स्थ्य":3136," राष्ट":3137,"दर्":3138,"202":3139,"्यादा":3140," मामले":3141,"ार्थ":3142," महा":3143,"र्य":3144,"दन":3145,"माण":3146," ऐसा":3147," गां":3148,"ुक":3149," बच्च":3150,"टना":3151,"स्प":3152,"वान":3153," विशेष":3154,"लो":3155,"201":3156,"लय":3157,"टा":3158,"वाद":3159,"निया":3160," वहीं":3161," पूर्व":3162," अनुसार":3163,"or":3164,"आई":3165," पद":3166," आरो":3167,"ाली":3168,"ताओं":3169," कल":3170,"ेंगे":3171,"ुरु":3172," गो":3173," डि":3174," अध्य":3175,"ैन":3176," हू":3177," समझ":3178,"ख्या":3179," जारी":3180," किए":3181," शा":3182," अगर":3183," जिन":3184," प्राप्त":3185," S":3186,"हाँ":3187," ॥":3188," बद":3189," कॉ":3190,"en":3191," जाती":3192,"जू":3193," ज्यादा":3194," C":3195," जैसे":3196," जानकारी":3197," काफी":3198,"ोर्ट":3199," वो":3200," श्र":3201,"धा":3202," डॉ":3203," संबंध":3204,"करण":3205,"ोजना":3206,"ंब":3207," व्यक्ति":3208," इसे":3209,"न्द्र":3210,"00":3211,"is":3212," जिसमें":3213," सुर":3214,"धिक":3215," जाएगा":3216," ऊ":3217,"तिक":3218," होते":3219,"ियां":3220," आदि":3221," यू":3222,"भव":3223,"ेशन":3224,"ेंट":3225," हे":3226,"ोष":3227," व्या":3228,"ष्ठ":3229,"स्क":3230,"it":3231," चौ":3232,"लि":3233," मंत्री":3234,"?\n":3235," कांग":3236,"ोन":3237,"लिए":3238,"त्रा":3239," इससे":3240," संग":3241," सकती":3242,"झे":3243,"शा":3244," मार्":3245,"तन":3246," ली":3247," आव":3248," जीवन":3249," विकास":3250,"धि":3251,"..":3252," सामने":3253,"र्ष":3254," योग":3255," चुनाव":3256," क्योंकि":3257," लिये":3258," पार्टी":3259," व्यव":3260," उठ":3261,"क्टर":3262," कंप":3263," पड़":3264," स्प":3265," ट्र":3266,"ेंद":3267," होगी":3268," तैय":3269," कांग्रेस":3270,"सि":3271," चार":3272," तब":3273," खिलाफ":3274," सद":3275," शिक्ष":3276," अला":3277," इत":3278," अग":3279," विभाग":3280," जग":3281," रे":3282,"वाई":3283,"श्व":3284," उसकी":3285," स्क":3286," प्रश":3287,"णी":3288," स्वास्थ्य":3289," टे":3290,"ामी":3291," th":3292,"ुक्त":3293," यदि":3294," केवल":3295," कप":3296,"चे":3297,"्यालय":3298," :":3299,"श्यक":3300," सम्":3301," खा":3302," कुमार":3303,"िता":3304,"ाला":3305,"सम":3306,"ic":3307," चे":3308," अलावा":3309,"त्त":3310," राम":3311," A":3312," P":3313," उनका":3314," दें":3315," हों":3316,"िन्न":3317," भाग":3318,"हित":3319,"षा":3320," पूरी":3321," प्रे":3322,"व्य":3323,"ंत":3324," अधिकार":3325,"ायर":3326," कृ":3327,"िले":3328," लाख":3329," इसका":3330," पिछ":3331," कर्म":3332,"पूर्ण":3333," इसलिए":3334," अभी":3335,"ालय":3336," स्थान":3337,"ोध":3338,"ेद":3339,"ंबर":3340," इसमें":3341,"ूट":3342," आवश्यक":3343," अध्यक्ष":3344," बल्":3345," गिर":3346," छा":3347," अर्":3348,"यी":3349,"क्षण":3350," आर":3351," सफ":3352," मत":3353," सर्व":3354," आने":3355,"स्तान":3356," रुपये":3357,"काश":3358,"्रा":3359,"न्त":3360," मैच":3361," सुन":3362,"ची":3363," दर":3364,"पाल":3365," दूसरे":3366," मद":3367,"्यान":3368," करे":3369,"र्क":3370,"स्य":3371," जाते":3372," T":3373," आए":3374," धर्म":3375,"ासन":3376," M":3377," हाथ":3378," आगे":3379," दिखा":3380," आधार":3381," भर":3382,"राज":3383," उपयोग":3384," लोक":3385," एस":3386," घटना":3387," योजना":3388," करके":3389,"रिक":3390," याद":3391," अम":3392," ऑफ":3393,"सल":3394,"ृष्ट":3395," बड़ी":3396,"सभा":3397," दा":3398," मुझे":3399,"मेंट":3400,"तार":3401,"ित्र":3402,"ष्य":3403," करती":3404," आरोप":3405," करोड़":3406,"ीस":3407," पां":3408,"इस":3409,"तों":3410,"ूस":3411," जहां":3412," उत्तर":3413," कभी":3414," लड़":3415," जांच":3416,"ाइन":3417,"ोजन":3418," मांग":3419,"ांकि":3420," विचार":3421,"न्तु":3422," इंड":3423,"यन":3424,"ल्प":3425,"ण्ड":3426,"ज्ञान":3427,"डे":3428," मिला":3429," अलग":3430,"ियन":3431,"त्या":3432," मीड":3433,"त्री":3434," ची":3435," आम":3436," प्रधान":3437," प्रभाव":3438,"ियर":3439," मंत्र":3440,"श्च":3441,"िज":3442," ज्ञ":3443," चला":3444," आया":3445," पानी":3446," गा":3447," मीडिया":3448," करी":3449,"शल":3450," उसका":3451," हालांकि":3452," बनाने":3453," तैयार":3454,"मुख":3455,"ol":3456,"फ़":3457," इला":3458,"15":3459,"टे":3460,"ीक":3461," the":3462," उसने":3463," बॉ":3464," जिसके":3465,"रोना":3466," ऐसी":3467," I":3468,"्ला":3469,"ैंड":3470," बाहर":3471," शे":3472,"दों":3473," ध्यान":3474,"सं":3475,"न्ध":3476," भूम":3477,"जूद":3478," ढ":3479," ?":3480," पत्र":3481," स्थिति":3482," बड़े":3483," रिप":3484," पिछले":3485," इस्":3486,"ग्":3487,"जपा":3488,"ed":3489,"12":3490," वीड":3491," पता":3492," दर्ज":3493," खे":3494,"ताब":3495,"ंगे":3496,"काल":3497," प्रो":3498," भाव":3499,"बू":3500," दिनों":3501," खेल":3502,"स्या":3503,"ीर":3504," हमारे":3505," पढ़":3506," मिले":3507," विभ":3508," कोरोना":3509,"ीय":3510,"आर":3511," शहर":3512,"तम":3513," जाना":3514," बेह":3515," मोदी":3516,"हन":3517," वाला":3518,"शि":3519," किसान":3520,"ंज":3521," जनता":3522," सौ":3523,"रीर":3524,"र्फ":3525,"फ्त":3526," गांव":3527,"ion":3528," वीडियो":3529," रहने":3530,"as":3531," मदद":3532," अधिकारी":3533," मुख्यमंत्री":3534," परी":3535," माल":3536," कान":3537," विष":3538,"डा":3539,"भग":3540," नजर":3541,"स्थान":3542," निय":3543," वृ":3544,"द्धि":3545," सेवा":3546," जगह":3547," भाजपा":3548," करा":3549,"वास":3550," अमे":3551," समाज":3552," o":3553," हजार":3554," केंद्र":3555," मज":3556," डे":3557," वज":3558," जिला":3559," आपके":3560,"ताल":3561,"म्मी":3562,"तान":3563," मूल":3564," D":3565,"वरी":3566,"कु":3567," इसकी":3568,"ृति":3569," बड़ा":3570,"जय":3571," B":3572," !":3573,"वीर":3574," आद":3575," जबकि":3576," पे":3577," देते":3578," डी":3579," भग":3580," जल":3581," ज़":3582," निर्माण":3583," संख्या":3584," बंद":3585," दूर":3586,"त्ति":3587," तहत":3588,"ायक":3589,"र्मा":3590," राष्ट्र":3591,"जों":3592,"इन":3593," पं":3594," पूरा":3595," ते":3596,"ुन":3597," पो":3598,"्याण":3599," जीत":3600,"इट":3601,"स्थित":3602," नियम":3603," दिए":3604," होना":3605,"ध्यम":3606," R":3607," मार":3608," कंपनी":3609," मही":3610," खान":3611,"ंगल":3612," प्रव":3613,"र्या":3614," न्यू":3615," दुनिया":3616," छोड़":3617,"दर्शन":3618," विध":3619,"बाद":3620,"ेंस":3621," व्याप":3622," गये":3623," वजह":3624,"त्ता":3625," रिपोर्ट":3626,"ायत":3627," उम्मी":3628,"ुआ":3629,"मत":3630," कल्याण":3631," शब्":3632," विभिन्न":3633,"बे":3634,"200":3635,"यास":3636," सम्म":3637," शरीर":3638,"मन":3639," लिख":3640," नौ":3641," जरूर":3642," करीब":3643," लगे":3644,"द्व":3645," रन":3646," सुरक्षा":3647," मि":3648,"and":3649," उम्मीद":3650," नही":3651," .":3652," शिक्षा":3653," स्कूल":3654," हूं":3655," चि":3656," महत्व":3657,"्ले":3658,")\n":3659," कार्यक्रम":3660," कुल":3661," कौ":3662," जिले":3663,"-प":3664," करेंगे":3665,"तः":3666," देव":3667," वहां":3668," नेता":3669," शिव":3670," कहते":3671," बाल":3672," पूछ":3673," लेने":3674," हिस्":3675,"ंदर":3676,"ूर्":3677," यही":3678,"मो":3679," जिससे":3680," लगभग":3681," कहना":3682,"पति":3683," अर्थ":3684," s":3685," पांच":3686,"बल":3687,"re":3688," निर्देश":3689,"बह":3690," जाय":3691,"ालन":3692," नगर":3693," समस्या":3694,"दय":3695," नए":3696," देखा":3697,"रु":3698," लॉ":3699," अस्प":3700," विषय":3701," मेरे":3702,"ाइल":3703,"त्रों":3704,"न्म":3705," प्रकाश":3706,"ल्ड":3707," N":3708," बस":3709," पत्":3710,"र्चा":3711," पाकि":3712," सिद्ध":3713," फ़":3714," आग":3715," c":3716," रात":3717,"िश्":3718,"ुट":3719,"हि":3720," बिना":3721," आस":3722,"di":3723," धन":3724," सच":3725," मिली":3726,"ing":3727," नई":3728," पहली":3729,"ेक":3730," मौत":3731,"ैल":3732," न्या":3733,"ष्ण":3734," मुताब":3735," स्था":3736," मुताबिक":3737," w":3738,"हम":3739," सके":3740,"30":3741," राष्ट्रीय":3742,"वाह":3743," तुम":3744," हमें":3745," मी":3746," डाल":3747," मंत्रालय":3748," खुद":3749," विधान":3750,"रों":3751," अस":3752," अति":3753,"माल":3754," तरफ":3755,"रि":3756," लाभ":3757," माध्यम":3758,"शत":3759," of":3760,"कान":3761,"le":3762," प्रत्य":3763," जल्":3764,"त्मक":3765," दूसरी":3766," घोष":3767,"हास":3768," कैसे":3769," उत्पा":3770," H":3771,"-अ":3772," बैठक":3773," स्तर":3774,"om":3775,"युक्त":3776,"त्मा":3777," गै":3778,"50":3779,"11":3780," बच्चों":3781,"ग्री":3782,"र्च":3783,"यान":3784,"एल":3785," वन":3786," लिखा":3787," पुर":3788,"राब":3789," एन":3790," मां":3791,"ंगा":3792," f":3793," उपल":3794," उसी":3795,"नाथ":3796,"्यो":3797," शी":3798," रोक":3799,"हाय":3800," सामान":3801,"ल्स":3802," होकर":3803," प्रमुख":3804," मंद":3805," वायर":3806," व्यवस्था":3807," विरो":3808," सूचना":3809,"थम":3810," भाषा":3811," जाएगी":3812," जे":3813," समान":3814,"हरा":3815," कोश":3816," स्थाप":3817," पृ":3818,"18":3819,"िटी":3820,"रूप":3821," ज्ञान":3822," डा":3823," राजनी":3824," /":3825," लक्ष":3826," गुरु":3827,"वासी":3828,"यं":3829,"ठन":3830,"भार":3831," अभि":3832," अच्छा":3833," थीं":3834,"िली":3835," देखने":3836,"र्ग":3837,"द्यालय":3838,"कर्":3839," लो":3840," उपलब्":3841," प्रधानमंत्री":3842,"मारी":3843," बजे":3844,"कट":3845," रखा":3846," t":3847," उद्":3848,"िस्ट":3849," पूरे":3850," शादी":3851,"ात":3852," बर":3853," ट्रे":3854," जम":3855,"am":3856,"टक":3857," पेश":3858," फैस":3859,"लता":3860,"म्प":3861,"िक्ष":3862,"ou":3863," ठीक":3864," प्रदान":3865," गयी":3866," खबर":3867," खरी":3868," माना":3869," संघ":3870,"लाह":3871," राशि":3872,"चान":3873," अंतर":3874," भू":3875,"ित्":3876," वाप":3877," गेंद":3878," बढ़ा":3879," चुके":3880,"वेदन":3881," जिसे":3882," पीछ":3883," पाकिस्तान":3884,"चर":3885,"षण":3886," सेना":3887,"िकल":3888,"तिहास":3889," भगवान":3890,"द्योग":3891,"स्त्र":3892," गुण":3893,"क्शन":3894,"-क":3895," अफ":3896," उठा":3897," महीने":3898,"ws":3899,"स्तु":3900,"लाई":3901," सोशल":3902," नर":3903," अस्पताल":3904,"),":3905,"पु":3906,"धन":3907," लेख":3908," दृष्ट":3909," छोट":3910," सदस्य":3911,"ंका":3912," हूँ":3913,"्वी":3914," तस्":3915," अनुभव":3916," शर्मा":3917," परीक्षा":3918," बोर्ड":3919," b":3920," सिर्फ":3921," लगातार":3922," एम":3923," सहाय":3924," कोर्ट":3925,"िकेट":3926," पिता":3927," यादव":3928," एक्स":3929," प्रदर्शन":3930," गिरफ्त":3931," युव":3932,"म्ह":3933," E":3934," धार":3935,"ड़क":3936," बनाया":3937,"ॉल":3938," मध्य":3939," मौजूद":3940," दिव":3941,"्रम":3942,"एन":3943,"ांत":3944," मंदिर":3945," नीति":3946," सहित":3947," मनु":3948,"14":3949,"बार":3950," दिख":3951," लाइ":3952," तौर":3953,"13":3954,"ुड":3955," हिंद":3956," जन्म":3957," समा":3958," आदेश":3959,"क्षि":3960," कित":3961," उपलब्ध":3962," बैंक":3963,"ेंड":3964," शो":3965,"ंटे":3966," सुबह":3967,"शु":3968,"नो":3969," अंग":3970," सीट":3971," p":3972," तरी":3973," गांधी":3974," होंगे":3975,"ान्त":3976,"क्रिया":3977,"वर्":3978," रंग":3979," फर":3980," जीव":3981," माह":3982," कोशिश":3983,"गल":3984,"वरण":3985," दिल":3986," ऊपर":3987," ऋ":3988,"भर":3989,"टन":3990,"पन":3991," पक्ष":3992," लाल":3993," चिक":3994,"क्षित":3995," प्रतिशत":3996,"गढ़":3997,"तक":3998,"ेड":3999," परिव":4000," अच्छी":4001," समित":4002," अंत":4003," बल्कि":4004," रु":4005," रहते":4006," इस्ते":4007," संच":4008," समु":4009," राजा":4010," इस्तेमाल":4011," चर्चा":4012,"ित्व":4013," रुपए":4014," किस":4015,"ूब":4016,"17":4017," रखने":4018," अधिकारियों":4019," मिश":4020," शुरुआ":4021," टेस्ट":4022," यहाँ":4023," अर":4024,"ra":4025," समर्थ":4026," उम":4027,"श्म":4028," मैंने":4029," चाहते":4030," राह":4031,"षि":4032,"बन्ध":4033,"रीज":4034," यात्रा":4035," क्ल":4036," देता":4037,"लिया":4038," K":4039," सै":4040,"न्होंने":4041," पंच":4042,"णाम":4043," मृत":4044," सवाल":4045," तेज":4046," शक्ति":4047,"चन":4048," विधानसभा":4049," G":4050," पूर्ण":4051," पक":4052," लगी":4053,"ent":4054," कर्":4055,"दाय":4056," उच्च":4057," पीछे":4058," यून":4059," सीमा":4060,"ूह":4061," वाह":4062,"चल":4063,"र्थिक":4064,"et":4065," शब्द":4066," गति":4067," प्रयास":4068," कार्र":4069," काल":4070," रहता":4071," रि":4072,"कृत":4073,"16":4074," चुकी":4075," in":4076," मौके":4077," गं":4078," बच्चे":4079,"ंबई":4080," उल्":4081," शेयर":4082,"खंड":4083,"वादी":4084," महत्वपूर्ण":4085," अथ":4086,"िकों":4087,"नीय":4088,"नर":4089,"मै":4090,"25":4091," नव":4092,"डल":4093," लगाया":4094," एक्ट":4095,",\n":4096," महारा":4097,"स्तव":4098," खास":4099," कार्रवाई":4100," अप्र":4101," बचा":4102," दक्षि":4103,"ूरी":4104," सर्":4105,"ार्ड":4106," बदल":4107," भाई":4108," F":4109," जवा":4110," रेल":4111,"ोप":4112," तस्वीर":4113," विप":4114," पस":4115,"कल":4116," सांस":4117," तुम्ह":4118,"विधा":4119," आर्थिक":4120,"लब":4121," बनाए":4122," मामला":4123,"न्हें":4124," देना":4125," चा":4126,"ch":4127," संप":4128," शि":4129," पुरु":4130,"दम":4131,"ड़ों":4132," सरकारी":4133,"ृह":4134,"ित्त":4135," प्रयोग":4136," बज":4137," पोस्ट":4138," and":4139," सैन":4140," दल":4141," विदेश":4142," इतना":4143,"जेपी":4144," चुका":4145," पर्या":4146," थाना":4147," फ्र":4148," पड़ा":4149,"ंद्र":4150," रव":4151,"स्व":4152,"भीर":4153," m":4154," मिलने":4155," परिष":4156," बने":4157," प्रक्रिया":4158," सार":4159," रोग":4160," पुरुष":4161," इंडिया":4162," लगता":4163,"वुड":4164," थो":4165,"ज्":4166,"ट्ट":4167,"ायल":4168," क्रिकेट":4169," देशों":4170," शाह":4171," लौ":4172," बोल":4173,"ॉप":4174,"ियाँ":4175," प्रेम":4176," सही":4177," स्पष्ट":4178,"धिकार":4179," तीस":4180," व्यक्त":4181,"ोजित":4182,"मता":4183,"सू":4184," सुख":4185,"ेंद्रीय":4186,"लर":4187," दौ":4188," हत्या":4189," बिज":4190," वही":4191," अने":4192,"सु":4193," इंटर":4194," देखते":4195," ख़":4196,"यू":4197,"िशा":4198,"us":4199," गि":4200,"उन":4201," आख":4202,"तरा":4203," विरोध":4204,"ंसा":4205," संर":4206," युद्ध":4207,"एक":4208,"रिका":4209," किये":4210,"भू":4211," चलते":4212," रू":4213," निकल":4214,"गम":4215," बेट":4216," कहीं":4217,"el":4218," उससे":4219,"ाजिक":4220," हास":4221,"तंत्र":4222," ड्र":4223," गल":4224," मना":4225,"फा":4226,"धर":4227," आपकी":4228," रिक":4229," आवश्यकता":4230,"्यु":4231,"पि":4232," बिहार":4233," जिसका":4234," बीजेपी":4235,"वें":4236," नंबर":4237," उद":4238," प्रशासन":4239,"देव":4240," ब्ल":4241," पत्नी":4242," हमारी":4243,"लीवुड":4244," नीचे":4245," फे":4246," अवसर":4247,"रात":4248," महिलाओं":4249," रोज":4250,"il":4251," परेश":4252,"24":4253," राज्यों":4254," सुविधा":4255," विद्य":4256,"क्सी":4257," गिरफ्तार":4258," कमी":4259," युवा":4260," बल्ले":4261,"ांस":4262,"गू":4263,"ad":4264," बाजार":4265," कला":4266," तत्":4267," मार्ग":4268," जल्द":4269," सोम":4270," सामान्य":4271," किसानों":4272," भे":4273,"धे":4274," दिखाई":4275,"जाब":4276," भूमि":4277,"हाल":4278," चीन":4279," परिणाम":4280,"-सा":4281," विकेट":4282," पश्च":4283," बयान":4284,"काब":4285," जरूरत":4286,"वीं":4287," पसंद":4288," भु":4289,"मति":4290,"ोस":4291,"\"\n":4292,"ंडी":4293," शुरुआत":4294," उत्प":4295," मेरी":4296," केंद्रीय":4297," फोन":4298," बच":4299,"गार":4300," सामाजिक":4301," आन":4302,"यह":4303,"od":4304," वर्ग":4305," मंगल":4306,"ँच":4307," त्र":4308,"मर":4309,"ोरी":4310," मॉ":4311,"लू":4312," ।।":4313,"्रो":4314," बेहतर":4315,"ेशा":4316," गण":4317," अथवा":4318," वी":4319," संक्रम":4320,"तिम":4321," श्रे":4322,"स्कार":4323,"जें":4324," अमेरिका":4325,"्यता":4326," सहयोग":4327," जवाब":4328,"हरी":4329," खरीद":4330," किन्तु":4331,"किल":4332,"लेज":4333," गंभीर":4334," संभाव":4335," लें":4336," टै":4337,"22":4338,"ंख":4339,"विद्यालय":4340," मनुष्य":4341," वर्षों":4342,"ंभ":4343,"झा":4344," जय":4345," परन्तु":4346," मार्च":4347," पति":4348,"iv":4349," निकाल":4350,"ोह":4351,"रिया":4352," प्रत्येक":4353," स्वयं":4354," W":4355," जून":4356," फीस":4357," आत्म":4358,"एफ":4359," अर्था":4360," आत":4361," हासिल":4362," आरोपी":4363," रहती":4364,"ews":4365," शान":4366,"ur":4367,"एँ":4368," ताकि":4369," कौन":4370," h":4371," प्रभ":4372," एड":4373,"हे":4374," n":4375,"ठी":4376," शिकायत":4377," वास्तव":4378," दक्षिण":4379," मुंबई":4380," वेब":4381,"लाइन":4382," राहुल":4383," विस्त":4384," बल्लेबा":4385,"ियल":4386," साइ":4387," अनेक":4388," छो":4389,"हित्य":4390," साध":4391,"तमान":4392," मुकाब":4393," L":4394,"गु":4395,"यों":4396," हार":4397," भर्":4398," रस":4399," मामलों":4400," उद्देश":4401,"ेन":4402," पहुंचे":4403," a":4404," इतिहास":4405," जित":4406," सात":4407," हिस्सा":4408," विधायक":4409," आयोजित":4410," फैसला":4411,"पक":4412," खूब":4413," वस्तु":4414," पेट":4415,"म्ब":4416,"ियान":4417," सम्मान":4418," पड़े":4419,"वेश":4420," वापस":4421," सोच":4422," बल":4423,"लेख":4424,"तियों":4425,"ुओं":4426,"-ब":4427,"्ति":4428," ,":4429," प्य":4430," छोटे":4431," In":4432," सड़क":4433,"धानी":4434,"रिक्त":4435," भारी":4436," शुक्र":4437," फॉ":4438," हमेशा":4439,"राव":4440,"टल":4441,"दर्श":4442," संबंधित":4443,"ct":4444," फल":4445," ग्राम":4446,"किंग":4447," कवि":4448,"कुल":4449," मिन":4450," डॉक्टर":4451,"ष्ट्रीय":4452," तुल":4453," निकाय":4454," पुत्र":4455," राय":4456," तेल":4457," भेज":4458,"बंधन":4459,"गो":4460,"ांति":4461," वालों":4462,"र्तन":4463,"खी":4464," निर्धार":4465," चरण":4466," प्ले":4467," सित":4468," उम्मीदवार":4469," घंटे":4470," अतिरिक्त":4471,"विड":4472,"ूं":4473," जमा":4474," घोषणा":4475," देर":4476," नोट":4477," नागर":4478," अहम":4479," तम":4480," वक्त":4481," हाई":4482," खो":4483," प्रतिनि":4484,"वाले":4485,"दु":4486," सलाह":4487," पाया":4488," दुर्":4489,"रल":4490," उसमें":4491," वर्ण":4492,"-स":4493," करेगा":4494," निर्ण":4495,"न्स":4496," दृष्टि":4497," ति":4498," उपस्थित":4499,"ेत":4500," मोह":4501,"ानि":4502," बनी":4503," संस्क":4504,"न्दी":4505," कानून":4506," साह":4507," धो":4508,"फे":4509," पुन":4510," रै":4511," मुद्":4512," रक्षा":4513," कीमत":4514,"श्वर":4515," नया":4516," पंजाब":4517,"श्न":4518," पाए":4519," जाये":4520,"कत":4521,"ay":4522," मजबू":4523," साहित्य":4524," माता":4525," स्वी":4526," चुन":4527," सप":4528," आश":4529," क्षेत्रों":4530," l":4531," सिर":4532," वहाँ":4533," वर्तमान":4534,"ानीय":4535," to":4536," जिम":4537," निवासी":4538," पाठ":4539," भूमिका":4540," अद":4541,"ील":4542," भर्ती":4543," मश":4544,"ंदा":4545," चै":4546," पड़ता":4547,"जु":4548," पहचान":4549," आवेदन":4550," कृषि":4551," अन्":4552,"प्ता":4553,"स्वा":4554," करवा":4555,"100":4556," यानी":4557," साफ":4558," ब्रह":4559," सोमवार":4560,"ir":4561,"वृ":4562,"र्जी":4563," ग्रह":4564,"!\n":4565," पूजा":4566,"ॉन":4567," कार्यालय":4568," संयुक्त":4569,"ङ्":4570," मई":4571,"ष्ट्र":4572," मर":4573,"्वर":4574,"च्छा":4575," उत":4576," आता":4577,"र्न":4578," बिल":4579," कठ":4580," जेल":4581," व्यापार":4582," उद्देश्य":4583,"शनल":4584," केन्द्र":4585," अख":4586," वार":4587,"लग":4588,"ंगी":4589," मेरा":4590," बुध":4591," लागू":4592," नियंत्र":4593," बारिश":4594,"सत":4595,"ित्य":4596,"id":4597,"ंडल":4598,"खन":4599,"ov":4600," पहला":4601,"करी":4602," कट":4603," कराया":4604,"ामीण":4605,"अप":4606,"सन":4607," फोट":4608," डिज":4609," संस्था":4610," लगाने":4611," स्थानीय":4612," विश्वविद्यालय":4613," पैदा":4614,"नेट":4615," एंड":4616," सुधार":4617,"स्ताव":4618," राष्ट्रपति":4619,"क़":4620," दूसरा":4621,"ation":4622," रज":4623," रण":4624,"ैक":4625," पट":4626," तरीके":4627,"साय":4628," चले":4629,"िक्स":4630," स्थापित":4631,"िकी":4632," एल":4633," अपरा":4634,"क्ता":4635,"ग्रह":4636," अंदर":4637," गर्म":4638,"तो":4639,"ूपी":4640,"ामा":4641," सीएम":4642," विश्वास":4643," सें":4644," अन्त":4645," वृद्धि":4646," ग्रामीण":4647," अर्थात्":4648," राजनीतिक":4649," जनवरी":4650," तय":4651,"र्श":4652," गुज":4653," प्रार":4654,"दू":4655,"्रीम":4656," प्रभावित":4657,"विध":4658," आते":4659,"असल":4660," सहायता":4661," .\n":4662," प्रशिक्ष":4663," Th":4664," दवा":4665," अप्रैल":4666,"्मिक":4667,"साइट":4668," प्रस्ताव":4669," निर":4670," मिलता":4671,"est":4672," आदमी":4673,"चार्य":4674," बदला":4675," सम्बन्ध":4676," मानव":4677," रहेगा":4678," गर्":4679,"केट":4680," अगले":4681,"ीत":4682," समूह":4683," बेहद":4684,"ृत्व":4685," जैसी":4686," अभियान":4687," जाएंगे":4688," स्वीकार":4689," तला":4690," समर्थन":4691," सांसद":4692," दिस":4693,"स्टर":4694," दिशा":4695,"ॉक":4696," जैसा":4697,"ब्ल":4698," संभावना":4699," शुक्रवार":4700," सत्य":4701,"os":4702," नुक":4703," चाल":4704,"स्तुत":4705," शै":4706,"फर":4707," प्रवेश":4708," उनसे":4709," भावना":4710," निर्णय":4711," इलाज":4712," पृथ":4713,"वै":4714," समिति":4715,"म्भ":4716,"40":4717," आपका":4718," अभिने":4719," सचिव":4720," राजस्थान":4721,"साद":4722," रिली":4723," शन":4724,"विष्य":4725," विवाद":4726,"ot":4727," जानते":4728," हमने":4729,"कारा":4730," निर्धारित":4731,"िरी":4732,"र्गत":4733," पदार्थ":4734,"ूर्ति":4735," मेड":4736," हॉ":4737," जरूरी":4738,"सिद्ध":4739," उम्र":4740," देखकर":4741,"कर्ष":4742,"ड़ने":4743,"कर्म":4744," लेते":4745,"स्म":4746," गृह":4747,"्रोल":4748," उत्पन्न":4749," सीरीज":4750," ठा":4751,"ाहरण":4752," मंगलवार":4753," संगठन":4754," हिन्द":4755," आयोजन":4756," \"\n":4757," प्रमाण":4758," प्रण":4759," डिग्री":4760,"...":4761,"21":4762,"उस":4763," रविवार":4764," अंतिम":4765," नुकसान":4766," कथ":4767,"तृत्व":4768," ट्रेन":4769," इनके":4770,"मार्ट":4771," नो":4772," शासन":4773,"दर":4774," सल":4775," कराने":4776," न्याया":4777," तेजी":4778," ती":4779," देकर":4780," कमा":4781,"ॉर्ड":4782," प्रती":4783," रचना":4784," भविष्य":4785,"दारी":4786,"तरी":4787," युवक":4788,"ध्या":4789," नियमों":4790," जाकर":4791," चित्र":4792," बिजली":4793,"सित":4794," जिनमें":4795,"ित्सा":4796," चाहिये":4797," समी":4798,"ड़ियों":4799," उल्लेख":4800,"वत":4801," बंग":4802," चाहता":4803,"स्ट्रे":4804," सुना":4805,"उट":4806," गौर":4807," मिनट":4808," बुधवार":4809," उद्योग":4810,"चीन":4811,"प्त":4812," नेताओं":4813,"स्ती":4814,"सों":4815,"इड":4816," मौसम":4817," सार्व":4818," अंक":4819,"स्यों":4820," जुलाई":4821,"स्वास्थ्य":4822," न्याय":4823," पीएम":4824," कदम":4825,"न्त्र":4826," नम":4827," एयर":4828,"राने":4829," जिम्म":4830,"श्मीर":4831," जमीन":4832," आठ":4833,"23":4834," शनिवार":4835,"बि":4836," वेबसाइट":4837," रूस":4838," सामना":4839,"पूर्व":4840," दर्शन":4841,"नु":4842," प्यार":4843,"ोलन":4844," फाय":4845," समेत":4846," टाइ":4847," पॉ":4848," उनको":4849," आयु":4850,"फ्ट":4851,"िक्":4852,"ak":4853,"१९":4854," इनमें":4855," वायरल":4856," शुभ":4857," दरअसल":4858," बाव":4859,"ंटी":4860,"घा":4861,"ब्र":4862," अमेरिक":4863," ओवर":4864," छह":4865,"टने":4866,"िकता":4867," अगस्त":4868," मू":4869," आत्मा":4870," खत्म":4871," जुड़े":4872," दुकान":4873,"उंड":4874," ऑन":4875," आयोग":4876,"स्ट्रेलिया":4877," पौ":4878," हेतु":4879,"िष्ट":4880," हमला":4881,"प्तान":4882,"im":4883," सदस्यों":4884,"हरे":4885," इंग":4886," प्ल":4887," देवी":4888," नेतृत्व":4889," नदी":4890," कपूर":4891,"जो":4892," कार्ड":4893,"ॉय":4894,"ंता":4895," चिकित्सा":4896," बेटी":4897,"मैं":4898," प्रकाशित":4899,"क्सर":4900,"न्दर":4901," उदाहरण":4902," मजबूत":4903," परम":4904," प्रथम":4905,"ठा":4906," किलो":4907," बॉलीवुड":4908," छात्र":4909," महान":4910,"फल":4911," राजधानी":4912," कॉलेज":4913," पाल":4914,"ायी":4915," सफलता":4916,"un":4917," फीसदी":4918," निवेश":4919,"स्तक":4920," अच्छे":4921,"कर्ता":4922," रेलवे":4923," संचालन":4924,"दीप":4925,"िवर्स":4926," लक्ष्य":4927," O":4928," री":4929,"वाला":4930," फी":4931," सभा":4932," धी":4933," डाय":4934," जैन":4935," नरेंद्र":4936," विजय":4937," हिन्दी":4938," दावा":4939,"-साथ":4940,"्वि":4941," विन":4942,"स्ते":4943," चर":4944," पालन":4945,"यु":4946,"खे":4947," भोजन":4948," हटा":4949," भीतर":4950," पीड़":4951," यूपी":4952," मात्रा":4953," सूर्य":4954," कही":4955," खिलाड़ी":4956," घा":4957," बनने":4958," दोष":4959," स्म":4960," देती":4961," छात्रों":4962," उनमें":4963,"पे":4964," गेंदबा":4965," निश":4966," फरवरी":4967," रखते":4968,"कृति":4969,"ag":4970," गौ":4971," वायरस":4972,"जनिक":4973," अध्ययन":4974,"जल":4975," मल":4976,"न्व":4977," दश":4978," शव":4979,"ांक":4980," सारे":4981," खाद्य":4982," लेना":4983,"ूबर":4984," व्यवहार":4985," परिषद":4986," बावजूद":4987," मुश्":4988,"ut":4989," लंब":4990,"चारी":4991,"चीत":4992,"ृदय":4993,"ानों":4994," विज्ञान":4995," सफल":4996,"िको":4997," आवा":4998," बहु":4999,"बाइल":5000," वैसे":5001," इंस्ट":5002," प्रय":5003," खाने":5004," उत्पादन":5005," रिलीज":5006,"ंथ":5007,"26":5008," गुप":5009," शानदार":5010,"ियार":5011,"नल":5012,"फ्":5013," कोविड":5014,"000":5015,"जाम":5016,"ड्ड":5017,"ंतर":5018," योग्य":5019,"शिया":5020,"रीब":5021," सुपर":5022," समाप्त":5023,"टो":5024," आतंक":5025," आती":5026," उपाय":5027," गे":5028," लड़ा":5029,"िफ":5030," सत":5031," संभव":5032," मानस":5033,"खनऊ":5034," जिसकी":5035,"ायद":5036," द्र":5037," सार्वजनिक":5038,"ंतु":5039," सुरक्षित":5040," प्रश्न":5041," बातचीत":5042,"-द":5043," अत्य":5044,"क्षक":5045," श्रद्ध":5046," वोट":5047,"स्ल":5048," धारा":5049,"-अलग":5050," ट्वी":5051,"चारियों":5052," दस":5053," अक्ष":5054," निजी":5055," प्रस":5056," साब":5057," वाय":5058," पहुंचा":5059,"जित":5060," रोड":5061," केस":5062,"एच":5063,"जरी":5064," संस":5065," पहल":5066," जहाँ":5067,"्मण":5068," अनुर":5069,"नेस":5070," सन्":5071," एक्सप":5072,"ूक":5073,"श्री":5074,"बोध":5075," मिलेगा":5076,"क्रे":5077,"जि":5078," अश":5079," मुश्किल":5080," बातें":5081,"ter":5082,"कम":5083," घायल":5084," पर्य":5085," अनुमति":5086,"कारों":5087," संस्थान":5088," d":5089,"सब":5090," क्षमता":5091," यूनिवर्स":5092,"लेक्ट":5093," सत्ता":5094," टिक":5095," इन्":5096,"र्जा":5097,"म्न":5098,"ग्राम":5099," कहानी":5100,"म्बर":5101," पारी":5102," एफ":5103,"28":5104," परेशान":5105," निगम":5106," विस्तार":5107,"ौल":5108," स्वरूप":5109,"राम":5110," तारी":5111,"चि":5112,"ार्क":5113,"ाइड":5114," दिसंबर":5115," स्वतंत्र":5116,"पास":5117,"शील":5118," शीर्ष":5119," जाति":5120,"प्ताह":5121,"िश्चित":5122," खर्च":5123," U":5124," V":5125," शराब":5126,"em":5127,"नियों":5128," पश्चिम":5129," प्रशिक्षण":5130,"ंकर":5131," नार":5132," अक्सर":5133," सजा":5134," खराब":5135,"ल्ल":5136,"च्चा":5137,"नई":5138,"भारत":5139," ट्वीट":5140,"यो":5141,"27":5142," मैदान":5143," प्रतिक":5144,"श्चित":5145," प्रिय":5146," मुला":5147,"िटल":5148,"lo":5149," राजनीति":5150," तुर":5151,"ियोजना":5152,"थि":5153," इंग्ल":5154," पंचायत":5155," गैर":5156," अदाल":5157,"ul":5158," अपराध":5159," लै":5160," जरिए":5161," गाय":5162," मोबाइल":5163," गुजरात":5164,"द्या":5165," वरि":5166,"म्स":5167," खुश":5168,"ूड":5169," कप्तान":5170," नियंत्रण":5171," कर्मचारियों":5172," पूर्":5173," परिवर्तन":5174,"ंश":5175," आईपी":5176," इतनी":5177,"्न":5178," लड़की":5179,"दिक":5180," उपा":5181," तुलना":5182," पल":5183," बेटे":5184," दबा":5185," तैयारी":5186," शायद":5187," इलाके":5188,"ab":5189," परियोजना":5190," मगर":5191," बाइ":5192," विरा":5193," संत":5194," अंग्रे":5195," ताप":5196," निभा":5197," तकनी":5198,"ूरत":5199," गलत":5200," क्रम":5201," दोस्त":5202," जोर":5203," स्टार":5204,"-म":5205," फ्ल":5206," हृदय":5207,"ce":5208," विकसित":5209," बदलाव":5210," तभी":5211," प्रस्तुत":5212," हमारा":5213," व्यापक":5214," आइ":5215," ब्रह्म":5216,"त्तर":5217,"og":5218,"ाये":5219," वरिष्ठ":5220," हथ":5221,"क्षी":5222,"जनों":5223," संक्रमण":5224,"न्या":5225," फोटो":5226,"धिकारी":5227,"र्प":5228," अवधि":5229," विशेषज्ञ":5230," यूनिवर्सिटी":5231,"ियोग":5232," लं":5233,"कृ":5234,"त्न":5235,"ार्ज":5236," अग्र":5237," शास":5238," चढ़":5239," क्व":5240,"ंडा":5241,"मीटर":5242," इच्छा":5243," ब्रिट":5244,"up":5245,"यम":5246," करनी":5247,"्राम":5248," वाहन":5249,"ूँ":5250,"वस्था":5251,"हो":5252," आंद":5253,"्प":5254,"दास":5255," चाहे":5256," ऑस्ट्रेलिया":5257,"र्त":5258,"शे":5259,"-सम":5260,"हान":5261," आंक":5262," गुरुवार":5263," निम्न":5264,"िनियम":5265," निकायों":5266," प्रतिनिध":5267," लॉन्":5268,"ज़र":5269," रखना":5270,"ics":5271,"धुन":5272,"ौती":5273," विल":5274,"ट्र":5275,"जब":5276," महाराष्ट्र":5277,"indi":5278," करो":5279,"कर्ताओं":5280," बढ़ाने":5281,"स्टम":5282,"वाही":5283," सूची":5284," मूल्य":5285," प्राचीन":5286," प्री":5287,"ल्क":5288," यूरो":5289," प्रसिद्ध":5290,"्यास":5291," नै":5292," टीवी":5293,"धारण":5294,"ंदी":5295," फैंस":5296,"लेट":5297," सामग्री":5298," अली":5299,"bs":5300," किन":5301," घु":5302," नौकरी":5303,"भाल":5304,";\n":5305,"ॉट":5306," अदालत":5307," तू":5308,"ियत":5309,"क्टूबर":5310," लंबे":5311,"हली":5312," स्टेशन":5313,"ियाणा":5314," स्थापना":5315,"ंव":5316,"आप":5317," विमान":5318," खुला":5319," असर":5320," प्रचार":5321," बिल्":5322," दर्श":5323," फा":5324,"ess":5325,"ध्यक्ष":5326," J":5327,"जेंसी":5328," पहुंची":5329," विवाह":5330," कृष्ण":5331," प्रसाद":5332," अमेरिकी":5333," सप्ताह":5334,"उंट":5335," )\n":5336," फिलहाल":5337,"ig":5338," उचित":5339," मृत्यु":5340," बजट":5341,"ायण":5342," करेगी":5343,"खर":5344,"ेश्वर":5345,"वाली":5346," जता":5347,"सिंह":5348,"ेक्षा":5349,"60":5350,"ानु":5351,"फार":5352,"199":5353," दृ":5354," उत्पाद":5355,"बद्ध":5356," मनो":5357," मतलब":5358,"१०":5359," डेट":5360," पर्व":5361," बंगाल":5362," निश्चित":5363,"त्त्व":5364," तत्व":5365," ऑनलाइन":5366," योगी":5367,"सेना":5368," सुप":5369,"ष्टि":5370," सकें":5371," मिट":5372,"सूस":5373," खोल":5374," साबित":5375,"वंबर":5376," दिला":5377," भेजा":5378," चयन":5379," अक्टूबर":5380,"्ता":5381," अधिनियम":5382," सितंबर":5383,"न्थ":5384,"राष्ट्रीय":5385," उसको":5386," मौका":5387," हाद":5388," हित":5389," स्वामी":5390,"ंघ":5391," व्यक्तिगत":5392,"राह":5393," अतः":5394," इंत":5395,"त्रियों":5396," एक्ट्रेस":5397," बुला":5398," खोज":5399," भेद":5400," पूछा":5401," छोटी":5402,"मित":5403,"tr":5404," आपने":5405,"ैर":5406," कार्यों":5407," बनाई":5408,"-प्र":5409," विशिष्ट":5410," प्राथम":5411," दिवस":5412," माँ":5413," मुकाबले":5414,"ष्टा":5415,"ापन":5416," आये":5417," मेडिकल":5418," लगाए":5419,"ap":5420," कोच":5421," श्रम":5422," विकल्प":5423," नवंबर":5424," ?\n":5425," रिज":5426,"नाम":5427," पैसे":5428,"कुर":5429," डर":5430," फिल्मों":5431,"रान":5432," वीर":5433," जिन्हें":5434,"केश":5435," चंद्र":5436,"त्ती":5437," रिश्":5438,"्रिया":5439," मिलती":5440,"्रीन":5441,"िलों":5442,"द्रा":5443," लोकसभा":5444," वर्णन":5445," रिकॉर्ड":5446," हल्":5447," सुनिश्चित":5448," प्रणाली":5449,"सीसी":5450," ट्वि":5451," बनाकर":5452,"29":5453,"all":5454," जिन्होंने":5455," दिये":5456," अध्या":5457," मालिक":5458," मिलकर":5459," बताते":5460," फाइन":5461,"शिप":5462," हवा":5463,"रेट":5464,"श्चा":5465," सिल":5466," इन्हें":5467," धार्मिक":5468,"चिका":5469,"निक":5470,"ro":5471," मं":5472," दर्द":5473,"av":5474," त्या":5475," महसूस":5476,"्मी":5477," तीनों":5478,"'\n":5479," सारी":5480," आखिर":5481,"ज़ा":5482," चम":5483,"फ्र":5484,"मि":5485," क्रिया":5486," बिक":5487,"दूर":5488," निष्":5489," दोप":5490," श्रा":5491," घोषित":5492," गठ":5493,"म्मद":5494," ग्रहण":5495," नामक":5496," मरी":5497," लखनऊ":5498,"लैंड":5499," आंदोलन":5500," स्मार्ट":5501," सेवन":5502,"गतान":5503," मिस":5504," शांति":5505," प्राय":5506," संगठ":5507," रखी":5508," इंग्लैंड":5509," वैज्ञान":5510," बिग":5511,"वली":5512," जोड़":5513,"ers":5514," कल्प":5515," भो":5516," धर":5517,"जीत":5518," गठन":5519,"खित":5520,"्रह":5521," Re":5522," अका":5523,"ंदगी":5524," पुस्तक":5525,"कालीन":5526,"ेप":5527," ट्विटर":5528,"प्रिय":5529," कब्":5530," राहत":5531," दूध":5532,"सव":5533," हल":5534," इलेक्ट":5535,"धुनिक":5536,"दिन":5537," हट":5538,"और":5539,"कू":5540," अनुमान":5541," आउट":5542," रेड":5543," आसपास":5544," पूछता":5545," स्त्री":5546," वायु":5547," भुगतान":5548," Hindi":5549,"ेंज":5550,"लोड":5551,"क्या":5552," पार्ट":5553," समार":5554," संसार":5555,"पद":5556," घट":5557,"नियर":5558,"स्लिम":5559," याचिका":5560,"थे":5561," मात्र":5562," रखें":5563," भूल":5564," खड़े":5565," पाने":5566," सत्र":5567," बीते":5568," विदेशी":5569," प्रकृति":5570,"काम":5571," we":5572," क़":5573," भिन्न":5574," आकर्ष":5575,"सो":5576," प्ला":5577," संके":5578," थाने":5579," हरियाणा":5580," न्यायालय":5581," एव":5582,"तीश":5583,"िसा":5584," उपकरण":5585,"है":5586," फूल":5587,"वधान":5588," वित्त":5589," संपर्क":5590," चली":5591,"--":5592," लाइन":5593," हमले":5594,"गन":5595,"तौर":5596," कब":5597,"िसर":5598,"कीय":5599," देंगे":5600," ॥\n":5601," चुना":5602," तुरंत":5603,"कात":5604," बैठे":5605," निर्म":5606,"hi":5607,"नगर":5608," तह":5609," धीरे":5610," दम":5611," g":5612," लौट":5613," खाना":5614," प्रत":5615," विवे":5616," रहें":5617,"धु":5618," आधारित":5619,"न्ना":5620,"देशक":5621," सलमान":5622," क्लिक":5623,"dia":5624," तीसरे":5625," ईश्वर":5626," पकड़":5627," लॉन्च":5628,"ामद":5629," समारोह":5630,"-ज":5631,"शाली":5632," हिंदी":5633,"शोध":5634," इतने":5635,"31":5636," आनंद":5637," तोड़":5638," कर्मचारी":5639,"राय":5640,"क्कर":5641," मुक्त":5642," पर्यावरण":5643," समझा":5644," मॉडल":5645," कोहली":5646,"१६":5647,"har":5648," लक्षण":5649," गोली":5650,"बो":5651," बर्":5652,"ांश":5653," ब्राह":5654," उत्तरा":5655," शुद्ध":5656," पृथ्वी":5657," :\n":5658,"ल्ट":5659," मित्र":5660," तापमान":5661,"ेय":5662,"धिकारिक":5663," भवन":5664," ग्राह":5665," जल्दी":5666," चीनी":5667," बाकी":5668," ऊर्जा":5669," पुरस्कार":5670," चिंता":5671," कश्मीर":5672," तलाश":5673," रजिस्ट":5674," लाने":5675,"35":5676," कैम":5677," रहना":5678," गाँ":5679,"कुमार":5680,"पान":5681," जवान":5682," जिलों":5683," ठाकुर":5684," अरब":5685," सिस्टम":5686," ग्रे":5687,"गण":5688,"',":5689," पीड़ित":5690,"२०":5691," संस्कृति":5692," तथ":5693,"-समय":5694," आकर":5695,"संख्या":5696,"लाल":5697," बीमारी":5698,"दो":5699,"रित":5700," कंपनियों":5701," पाई":5702," गुर":5703," यूक्रे":5704," भ्र":5705,"्रिय":5706," संजय":5707,"देशों":5708," लु":5709,"70":5710,"धरी":5711," आँ":5712," दान":5713," समुदाय":5714," प्राइ":5715,"फोन":5716," टा":5717,"स्वर":5718,"भि":5719," गोल":5720," छुट":5721,"ाप्ति":5722," इनकी":5723,"um":5724,"ञ्":5725,"ाले":5726," हथियार":5727,"वां":5728," पूछताछ":5729,"फो":5730," संघर्ष":5731," पर्याप्त":5732," बू":5733,"ite":5734," हिंसा":5735," हालत":5736,"डर":5737," बाइक":5738," मुस्लिम":5739,"जीव":5740," आसान":5741," अपेक्षा":5742," डिप":5743," ज्यो":5744," छि":5745," आंख":5746,"पाद":5747," चैन":5748," कथा":5749,"णे":5750,"थी":5751," आधिकारिक":5752," चाहती":5753," जिनका":5754,"म्मू":5755,"चक":5756,"भाषा":5757," पुराने":5758," मास":5759," रूसी":5760," बेच":5761,"चानक":5762," इलेक्ट्र":5763,"बीर":5764," संरक्षण":5765," मैने":5766," उपचार":5767," पहन":5768," उड़":5769," news":5770,"स्ट्री":5771," चोट":5772," हैंः":5773," टिकट":5774,"लिखित":5775,"गति":5776," किलोमीटर":5777," विराट":5778,"ज्ज":5779," रहेंगे":5780,"१८":5781," वर":5782," कहने":5783," पड़ी":5784," मिश्र":5785," पदों":5786," कोल":5787," प्लान":5788," उक्त":5789," श्रेणी":5790," सहायक":5791,"PA":5792," त्व":5793," थोड़ा":5794," पशु":5795,"्टर":5796," सक्रिय":5797," घरे":5798," रखे":5799," पैर":5800," लड़ाई":5801," काव्य":5802," कारो":5803," प्रबंधन":5804,"ंकी":5805," जागर":5806,"टिंग":5807,"िनी":5808,"वट":5809,"ment":5810," हाथों":5811," माइ":5812," क्ला":5813,"बीआई":5814," पव":5815," हिस्से":5816," परिस्थित":5817," शब्दों":5818," News":5819," व्":5820," अचानक":5821," सुनवाई":5822," गाड़ी":5823,"ेदारी":5824," अंतर्गत":5825," युग":5826," उन्":5827," चलने":5828,"वेद":5829," प्रभारी":5830,"कल्प":5831," तैना":5832,"ंजन":5833," संबोध":5834," प्राण":5835," टिप":5836,"निर्":5837,"धारा":5838," जिनके":5839," नेट":5840,"यात":5841," बीमार":5842,"ीप":5843," विद्यालय":5844," दुः":5845," संग्रह":5846," पहा":5847,"साइ":5848,"ोने":5849,"बु":5850," दोपहर":5851," समाधान":5852," छूट":5853," जिसने":5854,"ai":5855," टीका":5856,"ies":5857," धम":5858," महामारी":5859," मिलेगी":5860," आईपीएल":5861," संरचना":5862," प्राकृत":5863,"द्दी":5864," वित":5865," आखिरी":5866," करियर":5867," एशिया":5868," चौधरी":5869,"कारात्मक":5870,"वृत्त":5871,"िमी":5872," वर्षीय":5873," प्लेट":5874," संचाल":5875," मुलाकात":5876,"ate":5877,"गंज":5878,"विधान":5879," रोकने":5880," प्रतिक्रिया":5881," रहेगी":5882,"बाल":5883," कमरे":5884," किर":5885,"शाला":5886,"ारों":5887,"लिये":5888,"क्षम":5889,"80":5890," अवस्था":5891," मिलते":5892,"्रत":5893,"कोर":5894," नाग":5895," घरेलू":5896," भीड़":5897," सुप्रीम":5898," सुनी":5899," छोड़कर":5900,"त्कार":5901,"लोक":5902," जमकर":5903," स्थानों":5904," बुद्धि":5905," मरीजों":5906,"ोषण":5907," चलता":5908," कितने":5909," मीटर":5910,"ac":5911," कितना":5912,"चु":5913," मशीन":5914,"दियों":5915,"कद":5916," अध्यक्षता":5917," वैक्सी":5918,"पुरी":5919," समस्त":5920," प्रकट":5921," सेंटर":5922," बौ":5923,"फॉ":5924," सीजन":5925," मैचों":5926," धा":5927," समस्याओं":5928," जू":5929," चारों":5930,"ौन":5931," लड़क":5932," मालूम":5933," खड़ा":5934," आरोपियों":5935," स्थल":5936," पहुँच":5937," होनी":5938,"जनक":5939,"ेंडर":5940," संकेत":5941," मानते":5942," हिमा":5943," डॉलर":5944," पृष्ठ":5945," चोरी":5946,"द्द":5947,"स्वरूप":5948," मतदान":5949,"स्वी":5950,"थर":5951,"पो":5952,"र्ज":5953," अमित":5954," खी":5955," प्रत्या":5956," खुल":5957,"डेट":5958," मुझ":5959,"िके":5960," प्रतिष्ठ":5961," ब्राह्मण":5962,"सलमान":5963," गरीब":5964," खिलाड़ियों":5965,"ity":5966," कड़ी":5967," होंगी":5968,"रद":5969," आसानी":5970,"छा":5971,"ts":5972," ब्रे":5973," तमाम":5974," लॉक":5975,"रीन":5976," अफ्री":5977,"op":5978," अना":5979," समुद्र":5980," परिजनों":5981," संकट":5982," जुड़ी":5983," योगदान":5984," पेट्रोल":5985,"स्कृत":5986," अवै":5987," दूरी":5988," आर्ट":5989," आधुनिक":5990," विवरण":5991,"रुद्ध":5992," हिंदू":5993," ज्योति":5994,"व्यवस्था":5995," सारा":5996," काट":5997," डिजाइन":5998," सां":5999," सम्प":6000,"ive":6001," मस":6002," उतर":6003," सीधे":6004," बंध":6005," विशाल":6006," महो":6007," संगठनों":6008," लोकप्रिय":6009,"खों":6010," एजेंसी":6011," भौ":6012," गी":6013,"ुष":6014,"दर्भ":6015,"िल्म":6016,"ंदन":6017,"ण्य":6018," अपील":6019," समाचार":6020,"पूर्वक":6021," सुंदर":6022," समितियों":6023," प्रजा":6024," समझौ":6025," सन":6026," भक्त":6027," फैसले":6028," प्रभा":6029,"राग":6030,"दारों":6031,"ग्न":6032,"ढ़ी":6033," अल्":6034," शूट":6035," निरा":6036," सीटों":6037," बल्लेबाज":6038," रोहित":6039," इनका":6040," परिच":6041,"पट":6042," होटल":6043,"ॉजी":6044," अखिल":6045," रवि":6046," जम्मू":6047," लागत":6048," सदा":6049," वर्ल्ड":6050,"स्त्री":6051," ज़र":6052," रक्त":6053," कंट":6054," प्रतिबंध":6055,"ेक्ट":6056," ग्रन्थ":6057,"बादी":6058," चक्र":6059," अंतरराष्ट्रीय":6060,"िक्र":6061," देखें":6062,"ितीय":6063,"500":6064," जहा":6065," झार":6066," संगीत":6067," अके":6068,"ेलन":6069," com":6070," इन्द्र":6071," लेखक":6072," विद्यार्थ":6073," घूम":6074," India":6075," संसद":6076," टूट":6077," पुष्टि":6078,"वती":6079,"त्तीस":6080," ऊंच":6081,"डाउन":6082,"सेज":6083," दबाव":6084," व्यवसाय":6085," चेहरे":6086," मानना":6087,"45":6088," बढ़ने":6089," विधि":6090,"नाक":6091," नागरिक":6092," जिम्मेदारी":6093,"han":6094,"if":6095," on":6096," असम":6097,"मैन":6098," पैसा":6099," निरी":6100,"ित्तीय":6101," समीक्षा":6102," अवैध":6103,"तल":6104," मान्यता":6105,"।\"":6106," विद्या":6107," पश्चा":6108,"णि":6109,"49":6110,"्याज":6111,"मल":6112," सवार":6113," मेह":6114,"ूनी":6115," खाते":6116," महाराज":6117,"मह":6118," सूत्रों":6119," जनसंख्या":6120," रास्ते":6121," भगवान्":6122," खुशी":6123," कक्षा":6124," नारा":6125,"वासियों":6126," झू":6127,"ृष्टि":6128," विभा":6129,"ंडर":6130," कितनी":6131," कमज":6132,"ाइट":6133," ट्रै":6134," सालों":6135," पटना":6136," बातों":6137," v":6138," मस्":6139,"ठे":6140,"विंद":6141,"मात्र":6142,"क्य":6143,"ok":6144,"।\"\n":6145," त्याग":6146," कॉन्":6147," अभिनेता":6148," संस्कृत":6149," मकान":6150,"नाटक":6151," फुट":6152,"स्को":6153," नेशनल":6154,"जूदा":6155," किश":6156," हरा":6157,"ॉस":6158," वेद":6159," पटेल":6160," गैस":6161," कल्पना":6162," सख":6163,"ुरा":6164," re":6165,"लीन":6166,"्रेट":6167,"धिकरण":6168,"ताप":6169," आजा":6170,"ow":6171," निर्मा":6172,"भो":6173," आकार":6174," for":6175,"ज़ी":6176,"ly":6177," बहा":6178," सब्":6179," आदित्य":6180," ऑफिस":6181," स्वागत":6182," बरामद":6183,"भूम":6184," शिकार":6185," इंद":6186,"फारिश":6187," संबंधी":6188," मिथ":6189," एका":6190," विद्व":6191," अय":6192," आवास":6193," दिखाया":6194," वित्तीय":6195," =":6196," नष्ट":6197,"घर":6198,"पोर्ट":6199," रिश्ते":6200," जला":6201,"्यादि":6202," सक्षम":6203," सिफारिश":6204,"-अप":6205,"bsite":6206," न्यूज":6207," तृ":6208,"पात":6209," पाप":6210,"तिहासिक":6211,"अल":6212," अत":6213," कपड़े":6214," सका":6215," भय":6216," ड्राइ":6217,"तलब":6218," अवश्य":6219," पराम":6220," फायदा":6221,"ith":6222," विज्ञ":6223," [":6224," website":6225,"्लो":6226," परीक्षण":6227,"टका":6228,"दाता":6229," ध्व":6230," सैन्य":6231,"माने":6232," बरा":6233," मुद्दे":6234," हिन्दू":6235," देगा":6236,"गरी":6237,"हु":6238,"लिंग":6239," नामांक":6240," भले":6241," पुरानी":6242,"टरी":6243," पद्ध":6244," लगने":6245,"-श":6246," मौजूदा":6247," आशा":6248," बिल्कुल":6249," निर्वा":6250,"क्का":6251," गतिविध":6252,"ode":6253," ग्रुप":6254,"जर्स":6255,")।":6256," दाम":6257," शिक्षक":6258,"ia":6259,"ेर":6260," इका":6261," वॉ":6262," बोला":6263," रम":6264," संक्रमित":6265,"ब्दी":6266," इंतजार":6267," कठिन":6268," उत्सा":6269," परेशानी":6270," प्रसार":6271," बैं":6272,"न्यास":6273," प्रतियोग":6274," गुप्ता":6275," व्यक्तियों":6276," शौ":6277,"डु":6278,"ha":6279," आवाज":6280," निम्नलिखित":6281,"ट्यू":6282," पश्चिमी":6283," फाइनल":6284,"जान":6285," मजदूर":6286,"198":6287," हैः":6288," रेट":6289," वनडे":6290," This":6291," अशोक":6292," टू":6293," साहब":6294," साझा":6295,"ड्":6296,"वो":6297," संशोध":6298," होम":6299," गंगा":6300," अनुरूप":6301," संदर्भ":6302," परामर्श":6303," शोध":6304,"por":6305," खेले":6306," मुसलमान":6307," मानसिक":6308,"ान्":6309," स्वभाव":6310," शेष":6311," उल":6312," is":6313," कराई":6314," गईं":6315," यूक्रेन":6316,"जिए":6317," तस्वीरें":6318," लिस्ट":6319," खंड":6320," तनाव":6321," घरों":6322," जर्म":6323,"नान":6324," मंच":6325," इस्ल":6326," पंड":6327," जायेगा":6328," स्टेट":6329," इन्होंने":6330," खेला":6331,"जिट":6332," सम्मेलन":6333," सूत्र":6334," नवीन":6335," मोहम्मद":6336," भोग":6337," देखना":6338,"त्तीसगढ़":6339,"ित्स":6340,"विक":6341," प्रतिनिधित्व":6342," कहता":6343," आलो":6344," सिटी":6345,"धर्म":6346," कार्यकर्ताओं":6347," बुरा":6348," पत्रकार":6349,"ollo":6350," दुख":6351," युवाओं":6352,"एसएस":6353,"विश्व":6354," पढ़ें":6355,"ेंशन":6356," इसको":6357," मनी":6358," साधारण":6359," सागर":6360," झारखंड":6361," बनाना":6362," अनुस":6363," स्कूलों":6364,"लंका":6365," पढ़ाई":6366," वजन":6367," कविता":6368,"वण":6369," सर्वे":6370," बोली":6371," खूबस":6372,"ल्ला":6373,"90":6374," बोले":6375," हादसे":6376," संबोधित":6377,"ेदार":6378,"कृष्ण":6379," परिसर":6380," मरीज":6381," शास्त्र":6382," निर्भर":6383," वैज्ञानिक":6384,"त्रि":6385,"st":6386," एच":6387," सोने":6388," निश्च":6389," आदर्श":6390,"लान":6391," लेता":6392," अधिकांश":6393," लगाई":6394," पदा":6395," बहन":6396," उम्मीदवारों":6397," रोजगार":6398," महत्त्व":6399," हवाई":6400,"राण":6401," follo":6402," संवाद":6403,"भूत":6404,"ंडे":6405," बढ़ती":6406," हाउस":6407,"र्द":6408,"घु":6409," हरि":6410," खुलासा":6411," क्":6412," खाली":6413,"राज्य":6414," प्राकृतिक":6415,"एसपी":6416,"१२":6417," सव":6418,"लम":6419," लाइफ":6420," सिने":6421," प्राधिकरण":6422," त्वचा":6423," बाबा":6424," बल्लेबाजी":6425," जानने":6426,"ाफ":6427," इत्यादि":6428," बोर्डों":6429," छोटा":6430,"ंदे":6431,"शास्त्र":6432,"वक":6433," ऐतिहासिक":6434,"ंग्ला":6435," देखता":6436," St":6437," आबादी":6438," परिषदों":6439,"न्तर":6440,"ज्ञा":6441,"दरा":6442," प्रोफ":6443," नामांकन":6444," समानता":6445,"िशन":6446," विरुद्ध":6447,"बारी":6448,"ङ्ग":6449," लगाकर":6450," सीख":6451," अह":6452," सूर":6453," नियमित":6454," शता":6455," DN":6456," दीप":6457," नये":6458,"ंजी":6459," गाने":6460,"प्रदेश":6461," सपा":6462,"-वि":6463," पड़ेगा":6464," उदय":6465,"ैया":6466,"स्तानी":6467,"ेंट्स":6468," अंग्रेजी":6469," डाला":6470," नीतीश":6471,"गज":6472," लुक":6473," नती":6474," औष":6475," फैला":6476," पहुँ":6477," माने":6478," Eth":6479,"ार्ग":6480," अफ्रीका":6481," मंडल":6482,"दल":6483," फें":6484," इसलिये":6485," आर्य":6486," Code":6487,"बत":6488," संय":6489," तैनात":6490," गाँव":6491,"ष्णु":6492," वार्ड":6493," ज्व":6494," नवा":6495,"र्डर":6496," विरोधी":6497,"डिंग":6498,"75":6499," छात्रा":6500," सेट":6501," जिंदगी":6502," वापसी":6503," काउ":6504," तट":6505," प्रवृ":6506," चुनौती":6507," ब्रां":6508,"पल":6509," वास्तविक":6510," एंटी":6511," भरो":6512," वाहनों":6513," मार्केट":6514," प्रौ":6515," अनुदेशों":6516," थोड़ी":6517," दस्ता":6518,"ri":6519,"सबुक":6520," मुह":6521,"ताव":6522," जंग":6523," चीज":6524," जाएं":6525," वैक्सीन":6526," ढंग":6527," सफाई":6528," पहुंचने":6529," प्रारंभ":6530," तप":6531," प्राप्ति":6532," इंस्टा":6533," पद्धति":6534,"स्ट्र":6535," इलाकों":6536," अकाउंट":6537,"माश":6538," हिमाचल":6539," खेती":6540,"्वा":6541," तारीख":6542," जितना":6543," तुम्हारे":6544,"-च":6545,"्राष्ट्रीय":6546," Ethics":6547," टुक":6548," कले":6549,"िग":6550," डिजिटल":6551," रिट":6552,"पत्र":6553," कार्यवृत्त":6554," लगती":6555,"our":6556,"१५":6557," ट्रांस":6558," तथ्य":6559,"वत्ता":6560," एज":6561," follows":6562," झा":6563," मुकाबला":6564," प्रसन्न":6565," कर्नाटक":6566," अजय":6567," DNPA":6568," हिसा":6569,"हीन":6570," अभिन":6571," छाप":6572," हफ्":6573," निदेशक":6574,"ट्स":6575," पेज":6576,"बॉ":6577,"....":6578," गर्मी":6579," कमे":6580," कहां":6581,"द्यपि":6582,"कता":6583," e":6584," बुद्ध":6585,"ख्यात":6586," सरकारों":6587," दास":6588," बचाने":6589," कथित":6590,"वर्ती":6591," अन्तर":6592," पवित्र":6593,"क्ल":6594," अनुक":6595," साधन":6596," निकाला":6597," फिट":6598,"197":6599," श्रीलंका":6600,"पथ":6601," प्रार्थ":6602," दौरे":6603,"वेट":6604," शहरों":6605," संविधान":6606," जगत":6607," प्रगति":6608," बढ़ावा":6609,"ज़ार":6610," भव":6611,"ore":6612," अर्ज":6613," स्कोर":6614," संपत्ति":6615," दुःख":6616," मूर्":6617," नियुक्त":6618,"शाह":6619,"-ए":6620," स्पेश":6621," वैश्व":6622,"क्षेप":6623," स्थिर":6624," दाख":6625," कव":6626," प्रदर्श":6627,"ोग्राम":6628," अभ्यास":6629," आकाश":6630," धारण":6631," शख":6632," मानक":6633," किनारे":6634," सड़":6635,"नै":6636," कने":6637," इंडस्ट्री":6638,"आज":6639,"देन":6640,"ग्ध":6641,"िना":6642," कार्या":6643," कारोबार":6644," योजनाओं":6645,"टिल":6646," आचार्य":6647," ऐप":6648," स्वतंत्रता":6649," सुन्दर":6650," फार":6651," भक्ति":6652," इंजन":6653,"कृष्ट":6654," कृत":6655," पूर्वी":6656," डायरे":6657," स्वच्छ":6658," लॉकडाउन":6659," प्रोज":6660," गुल":6661," अट":6662," तुम्हें":6663," मारे":6664," कमेटी":6665," as":6666," मिट्टी":6667," चिकित्स":6668," मिश्रा":6669," बाग":6670," इंजी":6671," वेतन":6672," परिवहन":6673," हफ्ते":6674," भरा":6675,"गाह":6676," सिद्धान्त":6677," छत्तीसगढ़":6678,"्यवाद":6679," पात्र":6680,"भाष":6681,"तला":6682," सर्ट":6683,"पित":6684," कैप":6685,"रीत":6686,"म्परा":6687," एकत्र":6688," माहिर":6689,"काता":6690,"णु":6691," यात्रियों":6692,"रणा":6693,"-व":6694," हां":6695," बध":6696," सिनेमा":6697," माया":6698," अर्थव्यवस्था":6699," बौद्ध":6700," बांग्ला":6701," प्रियंका":6702," गुणवत्ता":6703," रोल":6704," मुकद":6705," चन्द्र":6706,"ंटर":6707," वर्मा":6708," उठाया":6709,"पेट":6710," सश":6711," निकट":6712," अधिकतम":6713,"कै":6714," स्टूड":6715,"-भ":6716," परंतु":6717," किरदार":6718,"घटना":6719,"िकोण":6720," चां":6721,"तना":6722," इंस्टाग्राम":6723," अमर":6724," घंट":6725," फैल":6726," चैनल":6727," बेहत":6728,"किसी":6729," खतरा":6730," जनरल":6731," मनाया":6732," कू":6733," कमजोर":6734," रनों":6735," दर्शकों":6736,"िकेशन":6737,"ss":6738," पोल":6739," इंस":6740," लीग":6741," मिशन":6742," व्रत":6743," जॉ":6744," हिसाब":6745,"मती":6746," प्रेस":6747," सुनकर":6748," ब्रिटिश":6749,"अब":6750,"भूमि":6751," मुद्रा":6752," आराम":6753," पथ":6754," एक्टर":6755," फो":6756," उतार":6757,"फोट":6758," आपूर्ति":6759," हेल्":6760," पाँच":6761," स्वस्थ":6762,"ॉम":6763,"नेशनल":6764,"36":6765," अनिवार":6766," गौरतलब":6767," डाटा":6768," बिक्री":6769," वेस्ट":6770,"ंखला":6771," टिप्प":6772,"बाजी":6773,"ण्":6774," तमिल":6775," चतु":6776,"वह":6777," गीत":6778,"लाइ":6779," प्रभु":6780," हस्ता":6781,"डि":6782,"रुण":6783," एप":6784,"ूंगा":6785,"रावट":6786,"न्वयन":6787," रिस":6788,"जरीवाल":6789," Y":6790," रॉय":6791," बराबर":6792," रेखा":6793," व्याख्या":6794,"पत":6795,"िमिट":6796,"श्र":6797,"बारा":6798,"धीरे":6799," पुनः":6800," पोर्ट":6801," आगामी":6802," रणनी":6803," विपक्ष":6804," फसल":6805," दरवा":6806," उन्न":6807," भ्रम":6808,"rom":6809," वार्":6810," अर्जुन":6811,"उथ":6812," सभ":6813,"ारीरिक":6814,"फॉर्म":6815," !\n":6816," स्ट्र":6817," रानी":6818," गिरावट":6819," बालों":6820," अक":6821,"ction":6822,"एंगे":6823," दलों":6824,"स्करण":6825," वकी":6826," विविध":6827," टैक्स":6828," मेहन":6829," किताब":6830," श्रृ":6831," सर्वो":6832," अनुकूल":6833," कमल":6834,"वर्क":6835," विद्यमान":6836," दस्तावे":6837," वैश्विक":6838," खेलने":6839," डो":6840," ऋण":6841," डेटा":6842,"लाब":6843," फ़िल्म":6844,"िएशन":6845," आना":6846," विना":6847," प्रि":6848,"99":6849," सम्मानित":6850," पांडे":6851," कहे":6852," कार्यवाही":6853," टेली":6854,"साई":6855,"घ्र":6856," प्रदेशों":6857,"यल":6858,"ुक्ति":6859," केजरीवाल":6860," द्रव्य":6861,"्राज":6862," अब्":6863," with":6864," विपरीत":6865," तत्काल":6866," गू":6867," कौशल":6868," गुजर":6869," प्रोड":6870,"क्रो":6871,"ेन्द्र":6872," हस्त":6873," '\n":6874,"पीड":6875," अभिनेत्री":6876,"दाबाद":6877," सकेंगे":6878,"बाई":6879," परा":6880," नागरिकों":6881," ज्यादातर":6882," पुष्":6883,"ैनिक":6884,"मय":6885," तिव":6886," पर्":6887," उत्तराखंड":6888,"वाने":6889," दूसरों":6890," फायदे":6891," विश्ले":6892,"न्नई":6893," बांध":6894," फॉर्म":6895," प्रत्यक्ष":6896," राजी":6897," गठबंधन":6898," यद्यपि":6899,"ंसर":6900,"-फ":6901," साथी":6902," कार्यकर्ता":6903," खड़ी":6904,"हिर":6905," एसपी":6906," शूटिंग":6907," जानता":6908," महिलाएं":6909," शारीरिक":6910,"-पिता":6911," अस्त":6912,"ंची":6913," रास्ता":6914," लाया":6915," Pr":6916," ऐलान":6917,"त्सा":6918," बजाय":6919," किंग":6920," दाय":6921," मिलाकर":6922," शासित":6923," बेहतरीन":6924," इधर":6925," सुझा":6926,"क्षर":6927," प्रोजेक्ट":6928,"रू":6929," बांग्लादेश":6930," नोटिस":6931,"हल":6932," दशक":6933," ऑटो":6934," यूरोप":6935," इंजीनियर":6936,"कुछ":6937," किमी":6938,"ैक्ट":6939," सोन":6940," एक्सप्रेस":6941," मंजू":6942," नज़र":6943," इंडियन":6944,"ियस":6945," रखता":6946," स्वीक":6947,"व्या":6948," परम्परा":6949,"ष्टाचार":6950,"-न":6951," उद्ध":6952," मछ":6953," --":6954,"्वे":6955," सर्टिफ":6956," यश":6957," बढ़ते":6958,"िड":6959," निधन":6960,"-आ":6961,"स्टिक":6962,"द्योगिक":6963,"ोड":6964," देखी":6965," युक्त":6966," अग्":6967,"स्कृतिक":6968," गहरा":6969,"-बार":6970," यो":6971," निशाना":6972," चौहान":6973," टॉप":6974,"सेस":6975,"कोर्ट":6976,"बन":6977,"र्निया":6978," पंजी":6979,"ढ़े":6980," बीज":6981," संस्कार":6982," एसोस":6983,"१४":6984,"olog":6985," पेड़":6986," दीपक":6987," प्रावधान":6988," प्रारम्भ":6989," लिप":6990,"रत":6991," अनिवार्य":6992,"ानिस्तान":6993," प्रतिनिधि":6994," इमर":6995," माहौल":6996," तीर्थ":6997,"ld":6998," कुकी":6999," बें":7000,"-धीरे":7001," सेल":7002," गतिविधियों":7003," शुल्क":7004," up":7005," शत्र":7006," जानी":7007,"शेष":7008," तिवारी":7009," क्रे":7010," लंबी":7011," लगते":7012," कम्प":7013,"पीय":7014,"पालन":7015," खुली":7016,"१३":7017," रोमा":7018," शैली":7019," संसा":7020," पार्क":7021," शाखा":7022," विस्तृत":7023," शख्स":7024,"िरा":7025," all":7026,"ain":7027,"ॉर्ट":7028,"ूत":7029," गह":7030,"१७":7031," हुये":7032," कैलि":7033," संदेश":7034," सिव":7035," भट्ट":7036," दृष्टिकोण":7037,"32":7038,"वर्ष":7039," अमृत":7040," लूट":7041," प्रबंध":7042,"ोलॉजी":7043," चोर":7044,"oc":7045," be":7046," धमकी":7047," अक्षय":7048," प्रार्थना":7049,"बान":7050,"च्चे":7051," शताब्दी":7052,"स्तर":7053," दिलच":7054," उपस्थिति":7055," साव":7056," अनिल":7057," जीतने":7058,"वों":7059," सड़कों":7060,"तन्त्र":7061," मांस":7062," अफग":7063,"म्मत":7064," मुंह":7065," अज":7066," पढ़ने":7067," हाँ":7068," मोटर":7069," अपडेट":7070," सुल":7071," तिथि":7072,"न्य":7073,"ूसरे":7074," हजारों":7075,"ुस्तान":7076," नाराज":7077," सहमति":7078," सैनिकों":7079," ग्रंथ":7080,"व्र":7081,"ala":7082," कहाँ":7083," अधीन":7084,"पीट":7085,"त्ते":7086,"यत":7087," बताने":7088," आशी":7089," दुर्घटना":7090," पत्थर":7091," डांस":7092," पार्":7093,"ख्य":7094,"धीन":7095," फायर":7096," उल्ल":7097,"ब्ल्यू":7098," यूजर":7099," बढ़कर":7100," प्रयत्न":7101," विचारों":7102,"उन्होंने":7103," चीजों":7104,"्मा":7105,"ist":7106," चेक":7107," अभाव":7108," कहला":7109," सरल":7110," घटनाओं":7111,"संग":7112," लोगो":7113,"चित्र":7114," परमाण":7115," न्यून":7116," हालात":7117,"ंपरा":7118," गर":7119," पीने":7120," चालक":7121," बचाव":7122,"ep":7123,"षेक":7124,"ब्यू":7125," मेहनत":7126,"शय":7127," सौं":7128," प्रयोजन":7129,"थाम":7130,"रक":7131,"रोज":7132,"वरों":7133," सीमित":7134,"हारी":7135," चलाने":7136,"श्चर्य":7137," आलोचना":7138," अश्व":7139," स्मार्टफोन":7140," चैंप":7141,"33":7142," वास":7143," बुरी":7144," अल्प":7145," इम":7146," निश्चय":7147," ग्रामीणों":7148," तार":7149," लाखों":7150,"भेद":7151," यूजर्स":7152," एक्":7153," उधर":7154," रिया":7155," दीवार":7156," खरीदने":7157," प्रवक्ता":7158," पदार्थों":7159," धोनी":7160," प्रतिभा":7161,"घाटन":7162,"क्ष्म":7163," मृतक":7164,"श्रे":7165,"ant":7166," अग्रवाल":7167," बदमाश":7168," द्वार":7169," खींच":7170," आनन्द":7171,"००":7172," स्क्रीन":7173,"िमिटेड":7174," शह":7175," फरार":7176,"-सी":7177,"रुख":7178,"प्शन":7179,"नामेंट":7180,"ेड़":7181," तकनीकी":7182," टूर्":7183,"चन्द्र":7184," Pol":7185," वितरण":7186," फेसबुक":7187,"डो":7188," टो":7189," अधि":7190," कमाई":7191," विधाय":7192," इस्ती":7193," दर्शा":7194,"यक":7195," अंध":7196," भाषण":7197," चाय":7198," अनुप":7199," मचा":7200," दुष्":7201," साउथ":7202," लिखी":7203," नेपाल":7204," अहमद":7205," विशेषता":7206," व्याव":7207," कारणों":7208,"्याम":7209," झु":7210,"सच":7211," दया":7212," प्राथमिक":7213," उत्तरी":7214," सेंट":7215," सर्वा":7216," सेवाओं":7217," दोनो":7218," बधाई":7219,"दराबाद":7220," लड़कियों":7221," साम्राज":7222," पाते":7223," इंटरनेट":7224," निम":7225," चार्ज":7226," पीठ":7227," तीसरी":7228," यथा":7229," टूर्नामेंट":7230," उत्तम":7231," गोर":7232," गिल":7233," बढ":7234,"ांसी":7235," जागरूक":7236," नज":7237," त्रि":7238," मुद्दों":7239,"व्यू":7240," कुकीज":7241,"फिया":7242," मुख्यालय":7243," लम्":7244,"सीय":7245," चेन्नई":7246," समझने":7247," स्टेड":7248," दौरा":7249,"34":7250," जुड़ा":7251," कहती":7252," तल":7253," सदन":7254," करण":7255,"िमा":7256," अखिलेश":7257," कोलकाता":7258," राज्यपाल":7259," संचालित":7260," The":7261," आवश्यकताओं":7262,"हूर":7263," चरित्र":7264,"ार्ट":7265," खूबसूरत":7266," लिखे":7267," एडम":7268," नाटक":7269," काले":7270," शिक्षकों":7271,"पक्ष":7272," जिम्मेदार":7273,"ine":7274," परंपरा":7275,"भाग्य":7276,"निय":7277," रहीं":7278,"इयों":7279," स्टेडियम":7280," ]":7281," हनु":7282," लहर":7283," अपलोड":7284," सेक्टर":7285,"चरण":7286,"माग":7287," ताकत":7288," तंत्र":7289,"ॉर्क":7290,"काने":7291," अत्यन्त":7292,"मेट":7293," कृपा":7294," सिक":7295," कार्":7296,"रेखा":7297,"ंघन":7298," बढ़े":7299," गुस्":7300,"ook":7301," लक्ष्मी":7302," भोज":7303," प्रत्याशी":7304," चौक":7305," अग्नि":7306," उद्य":7307,"ew":7308," खत":7309," ममता":7310,"ill":7311," यथ":7312,"भूति":7313," आतंकवाद":7314," टेक्":7315," द्वितीय":7316," बढ़ो":7317," विष्णु":7318,"रासत":7319," तर्क":7320,"300":7321," विट":7322," मंजूरी":7323," खुले":7324," विषयों":7325," किरा":7326," प्रतियोगिता":7327,"रोध":7328," जिनकी":7329," मन्द":7330,"्रेशन":7331," गेंदबाज":7332," अंजाम":7333," आश्चर्य":7334," सॉ":7335," खबरों":7336," दिग्":7337," बैठा":7338," दशा":7339," निरीक्षण":7340," जताई":7341," इंटरनेशनल":7342," बॉक्स":7343," कॉल":7344," लड़के":7345," नियुक्ति":7346,"्यूटर":7347," रुक":7348," संकल्प":7349,"सुर":7350,"यां":7351,"इसके":7352," मधु":7353," प्रभावी":7354," पावर":7355," भि":7356," बदलने":7357,"सील":7358," बिजनेस":7359," वृक्ष":7360,"पूर":7361," नदार":7362," रोकथाम":7363," खतर":7364," Ch":7365," घुस":7366," सीबीआई":7367," फ्री":7368," y":7369,"धीश":7370," शतक":7371," भ्रष्टाचार":7372,"वत्":7373," समर्प":7374," शीघ्र":7375," सोना":7376,"ष्म":7377," पुरुषों":7378," नदारद":7379," पंडित":7380,"मेल":7381," भरोसा":7382," गौतम":7383," वस्तुओं":7384," केरल":7385," डाउन":7386,"ष्क":7387," तिर":7388," रैली":7389," पड़ती":7390," क्षण":7391," हिरासत":7392,"जिद":7393," ठे":7394," संभाल":7395,"37":7396,"िव्य":7397,"end":7398," बदले":7399," भागी":7400," घाट":7401," स्रो":7402,"िकाओं":7403,"ंदाज":7404,"ht":7405," सांस्कृतिक":7406," हाईकोर्ट":7407," उत्पादों":7408," देवता":7409,"केशन":7410," सौंप":7411,"एक्स":7412," स्टोर":7413," प्रतीत":7414," निर्माता":7415," वाता":7416," ।।\n":7417,"ik":7418," बच्चा":7419,"जै":7420," प्रोत्सा":7421," चीजें":7422,"परेशन":7423,"जात":7424," चू":7425,"र्की":7426,"प्रदाय":7427," उत्कृष्ट":7428,"द्योगिकी":7429," फॉलो":7430," उद्घाटन":7431," बजा":7432," शाहरुख":7433,"नन":7434," प्रताप":7435," सम्य":7436," सफेद":7437," मेक":7438,"द्दीन":7439,"राइ":7440," श्रृंखला":7441," from":7442," जीता":7443,"ya":7444," कंट्रोल":7445," बच्ची":7446," लाइस":7447," उल्लंघन":7448," महीनों":7449," कामया":7450," प्रतिमा":7451," श्रद्धा":7452,"मेर":7453,"38":7454,"बूर":7455," असं":7456,"मीर":7457," अज्ञ":7458,"196":7459," विज्ञापन":7460," बेल":7461," मनोर":7462," नेटवर्क":7463,"ांतर":7464," जंगल":7465," मशहूर":7466," लक":7467," इरा":7468,"मूल":7469,"सिक":7470," अंतर्राष्ट्रीय":7471,"ब्लिक":7472,"मंद":7473,"यें":7474," निप":7475," कार्यान्वयन":7476," परमाणु":7477," बॉस":7478," ज़्यादा":7479," अफसर":7480," शही":7481," प्रायः":7482," वस":7483," पर्यटन":7484,"जीलैंड":7485," तत्त्व":7486," दौड़":7487," देखे":7488," मूर्ति":7489," धन्यवाद":7490," क्षेत्रीय":7491," कन्या":7492," न्यूनतम":7493," सकारात्मक":7494,"गरानी":7495," औसत":7496," हटाने":7497," ग्राहकों":7498,"त्प":7499," जुट":7500,"-कभी":7501," खि":7502,"्यूटी":7503," आहार":7504," चुनावों":7505," सकी":7506," मात":7507,"कां":7508," रॉ":7509," ब्रिटेन":7510," लेंगे":7511," सुनील":7512,"ैट":7513," प्रेरित":7514,"48":7515," चंद":7516," युवती":7517," पहलुओं":7518,"स्पर":7519," उपयुक्त":7520," कं":7521," परमा":7522," जयपुर":7523," विनियम":7524," मुक्ति":7525,"प्ले":7526," जाल":7527," यात्री":7528," दृश्य":7529," अदा":7530," तकनीक":7531,"११":7532," निगरानी":7533," आइए":7534," कां":7535,"वंत":7536,"गुण":7537," क्यो":7538," माय":7539," जड़":7540,"ology":7541," डिस्":7542,"करे":7543," सर्विस":7544," भोपाल":7545," मास्टर":7546,"देह":7547," हिम":7548,"डॉ":7549," इश":7550," चित्त":7551," सूक्ष्म":7552," ओपन":7553," नारायण":7554,"नेश":7555," वातावरण":7556," वकील":7557," महात्मा":7558," Con":7559," रद्द":7560," हैदराबाद":7561,"ec":7562," मंज":7563," आश्व":7564," एंट":7565," उपभो":7566," बचने":7567," खून":7568,"क्के":7569," संशोधन":7570,"ice":7571," ब्लॉक":7572,"तीत":7573," सचिन":7574," समाजवादी":7575," विधायकों":7576," भरी":7577," आशंका":7578," मनोज":7579," कथन":7580," हरी":7581,"ub":7582," लेन":7583," चैंपियन":7584,"ंधान":7585," लिमिटेड":7586," पश्चात्":7587," मिलियन":7588," बताई":7589,"150":7590,"ST":7591," तरीका":7592,"वाय":7593," सकेगा":7594," जाम":7595," आतंकी":7596," पत":7597," उतना":7598," तिल":7599,"गांव":7600," इसीलिए":7601,"ोद":7602," सुश":7603," उल्लेखनीय":7604," गिरफ्तारी":7605," पेंशन":7606," संस्करण":7607,"िएंट":7608,"तावनी":7609," एसोसिएशन":7610," मैन":7611," प्रेरणा":7612," अवि":7613," हिस्सों":7614," यज्ञ":7615," जगहों":7616,"बीसी":7617," उत्साह":7618," शास्त्री":7619," संबंधों":7620," दोबारा":7621," गौरव":7622," बाढ़":7623,"टेड":7624,"रस":7625," बेटा":7626," ताजा":7627,"195":7628," अस्थ":7629," प्रौद्योगिकी":7630," अभ्य":7631,"टीवी":7632," सुझाव":7633," कैंसर":7634,"ard":7635," टिप्पणी":7636," दाखिल":7637," मारने":7638,"स्स":7639," समृ":7640," ट्रक":7641," ब्लैक":7642," फंड":7643," चेतावनी":7644," साधु":7645,"भारतीय":7646,"esh":7647," स्त":7648,"art":7649," फाइ":7650," गेंदबाजी":7651," बट":7652," उठाने":7653," आंखों":7654," लगाते":7655," जबरद":7656," गुप्त":7657,"55":7658," अमरी":7659," परिचय":7660,"ood":7661,"न्द्रीय":7662," टक्कर":7663," इजा":7664," सपना":7665," भरे":7666," सैक":7667,"In":7668," इस्लाम":7669," मजबूर":7670," आदित्यनाथ":7671," दिक्":7672," कानूनी":7673," सहज":7674," हर्ष":7675," लिंक":7676," ज्ञात":7677,"एआई":7678," पर्स":7679," ब्याज":7680," वर्षा":7681,"दीय":7682," भौतिक":7683,"पण":7684,"टिव":7685," वचन":7686," अस्तित्व":7687," लीटर":7688,"गीय":7689," बनकर":7690,"ह्न":7691," ईरान":7692," बनाते":7693,"ासा":7694,"जिटिव":7695,"पुरा":7696," लव":7697,"्यूज":7698," ग़":7699," रखकर":7700," विपक्षी":7701,"स्पति":7702,"न्धी":7703," सम्पूर्ण":7704," हनुमान":7705,"वानी":7706," शांत":7707," अभिय":7708,"लन":7709," हेल्थ":7710," प्रतीक":7711,"ट्":7712," मोहन":7713," कर्त":7714," स्मृति":7715," अनुपालन":7716," अन्तर्गत":7717," बैंकों":7718," न्यूजीलैंड":7719," टीमों":7720,"सीबी":7721,"िद":7722," शक्त":7723," अनुसंधान":7724,"मुझे":7725," राजेश":7726,"aj":7727," निकले":7728," एकता":7729,"रेज":7730,"क्षेत्र":7731,"ढ़ा":7732,"ामिन":7733," काला":7734,"ोध्या":7735," अनुरोध":7736," साम्राज्य":7737,"uj":7738," रिल":7739," परिवारों":7740," प्राइवेट":7741,"are":7742," हार्":7743," करवाया":7744," सिया":7745," पाता":7746,"ड्डा":7747," संस्थापक":7748," क्लब":7749,"हत्या":7750," कस":7751," बुलाया":7752," परिस्थितियों":7753,"ँस":7754," फेंक":7755," इमार":7756,"न्हा":7757," अधी":7758,"दुर":7759," मारपीट":7760,"हस":7761," मेट":7762,"भु":7763," दोस्तों":7764," बिता":7765," सिंग":7766," r":7767," पर्वत":7768,"लीय":7769,"रेन्द्र":7770," चिन्":7771,"श्रेष्ठ":7772," प्रदू":7773,"iss":7774," तीसरा":7775,"्तिक":7776," बिंद":7777,"ूली":7778," चुनावी":7779," निर्यात":7780," k":7781," सैनिक":7782,"त्सव":7783," जमान":7784," उर्फ":7785,"सचिव":7786," गले":7787," विद्युत":7788," बम":7789," बनाये":7790,"ैव":7791," ऊँ":7792,"अगर":7793,"।।":7794," गेट":7795,"atest":7796,"सेन":7797," निर्मित":7798," स्टाइल":7799,"वीय":7800," आह":7801,"-ग":7802," भाग्य":7803," जापान":7804," निवास":7805," किशोर":7806," डिवा":7807," चुप":7808," शत्रु":7809," बच्चन":7810," बुल":7811,"लिस्ट":7812," वार्ता":7813," ऑपरेशन":7814," राजीव":7815,"फिक":7816," ऋष":7817,"प्रति":7818,"फोर्निया":7819,"खाने":7820,"-दूसरे":7821,"ध्याय":7822," सिविल":7823,"मार्ग":7824,"न्दा":7825,"डिट":7826," अरविंद":7827,"ख़":7828,":\n":7829," आग्रह":7830," मौल":7831," चीज़":7832," ।\"":7833," जाहिर":7834," सेक":7835," जोड़ी":7836," ट्रेनिंग":7837,"वाया":7838," सौर":7839,"फान":7840," वर्क":7841,"मुख्य":7842,"ाँ":7843," स्वर":7844," निकालने":7845,"ुसार":7846," स्ना":7847," काली":7848,"सागर":7849," स्टाफ":7850," रिजल्ट":7851," रवाना":7852," खेत":7853,"स्थल":7854," घो":7855," विवेक":7856," निकलने":7857," गुना":7858," गवर्":7859," उन्होने":7860,"ال":7861," आयुक्त":7862," अफगानिस्तान":7863," छु":7864," निर्वाचन":7865," पायल":7866," हद":7867," जितनी":7868," विज":7869," धूम":7870," am":7871," जाया":7872," upd":7873," स्नान":7874," बाहरी":7875," अंश":7876,"ated":7877,"194":7878,"क्सीजन":7879," सुनने":7880," सबको":7881," सेल्स":7882," औषध":7883,"ियंस":7884," ख्या":7885,"भाविक":7886,"ीकरण":7887," अकेले":7888,"उत्तर":7889," इंसान":7890,"बिनेट":7891,"तू":7892," नॉ":7893," द्वीप":7894,"रानी":7895," गैंग":7896,"सिड":7897,"चलित":7898,"टीन":7899," स्थायी":7900," विद्यार्थियों":7901,"ौली":7902," मुकदमा":7903,"ev":7904,"उप":7905," तहसील":7906," j":7907," आदेशों":7908,")।\n":7909," खेली":7910," प्रीम":7911," मानी":7912," आएंगे":7913," परमेश्वर":7914,"ेदी":7915," तीव्र":7916,"दित":7917," तारीफ":7918," दैनिक":7919,"साम":7920," +":7921," ब्रा":7922," गेम":7923," कब्जा":7924," उपाध्यक्ष":7925," इंटरव्यू":7926,"ंत्रित":7927," गेंदों":7928," खार":7929," आमतौर":7930," सम्भव":7931," विजे":7932,"शान":7933," बुनिया":7934," जाओ":7935,"बिल":7936," सेहत":7937," इकाई":7938,"दृ":7939,"शक्ति":7940," देखभाल":7941," राग":7942," पॉजिटिव":7943,"याग":7944," बलों":7945,"ish":7946," उपन्यास":7947," टन":7948," बालक":7949," रूपरेखा":7950," by":7951," सीता":7952," लड़ने":7953,"लक":7954," पाकिस्तानी":7955," डायरेक्टर":7956," लाइसेंस":7957," कर्मियों":7958," प्रवृत्ति":7959," ओम":7960," क्षति":7961," महज":7962," विश्लेषण":7963,"ूनों":7964," मुनि":7965," स्तरों":7966,"\",":7967," बढ़ता":7968," सख्त":7969," मच":7970," इनकार":7971,"टकों":7972,"ोव":7973," नमक":7974," उन्हीं":7975," दिमाग":7976," छाया":7977," नौकर":7978," सच्चा":7979," गणेश":7980,"-एक":7981,"द्भ":7982," दुश्म":7983,"स्कर":7984,"pp":7985,"पुरुष":7986," शोर":7987," कैलिफोर्निया":7988," समझते":7989,"ाराण":7990," कोट":7991," एकमात्र":7992," शिविर":7993," न्यायाधीश":7994," डॉक्टरों":7995," सोचा":7996," रिसर्च":7997," एयरपोर्ट":7998,"शः":7999,"पै":8000," नोडल":8001," मध्यम":8002," प्रकरण":8003," बाधा":8004," राजपू":8005," अर्ध":8006," बढ़ोतरी":8007,"दाताओं":8008,"ंपर":8009,"त्तियों":8010,"दिष्ट":8011," ख़बर":8012," बैठकों":8013,"एससी":8014," संतोष":8015," औद्योगिक":8016," चौथे":8017," दोषी":8018," भंड":8019,"क्रमण":8020," पड़ने":8021," उपदेश":8022," अभिषेक":8023,"इंग":8024,"खिम":8025," योग्यता":8026," छोड़ने":8027," &":8028," पैमाने":8029," हंग":8030,"बै":8031,"सरकारी":8032," भरने":8033,"ेंगी":8034," सुर्":8035," विस्":8036," कपिल":8037," जात":8038,"ेंसी":8039,"रह":8040," धातु":8041," सबके":8042,"ाइम":8043," किंतु":8044,"क्की":8045," श्रेष्ठ":8046," टक":8047," चमक":8048," रोगी":8049,"ुण":8050," घे":8051," ऑल":8052," कैबिनेट":8053,"मतों":8054," ब्रांड":8055," #":8056," सिलस":8057,"ind":8058," कंग":8059," आएगा":8060,"रियर":8061," परिप":8062," सीटें":8063,"फ्रेंस":8064,"ff":8065," हेड":8066," गिरा":8067,"वाणी":8068,"नाडु":8069,"ईओ":8070," फर्":8071," बनता":8072," गोद":8073," बाबू":8074," मनीष":8075,"la":8076," ऋषि":8077," नींद":8078," गांवों":8079,"ाराणसी":8080,"क्ष्य":8081,"एमसी":8082," मृ":8083," व्हा":8084,"दात":8085,"महा":8086," सिंध":8087," सुनाई":8088,"ग़":8089," हाइ":8090,"स्वामी":8091,"न्ट":8092," खतरनाक":8093," तुम्हारी":8094," इलेक्ट्रिक":8095,"ोटे":8096," कष्ट":8097," आजादी":8098,"ून्य":8099," सिक्":8100," उड़ान":8101," शपथ":8102,"ial":8103," जानना":8104,"ल्लाह":8105,".in":8106," दिल्लीः":8107,"श्त":8108," तस्वीरों":8109,"यदि":8110," विटामिन":8111," एग्":8112," सफर":8113," गार्ड":8114,"oun":8115,"44":8116," पाठ्य":8117," ठहरा":8118," स्वाद":8119," अभिव्य":8120," भरपूर":8121,"क्क":8122,"विश्वास":8123," कैंप":8124," लिखित":8125," गलती":8126," अयोध्या":8127," कलर":8128," फर्जी":8129,"जीवन":8130," शरण":8131," पच":8132," देगी":8133,"इंट":8134," अधिकतर":8135," इव":8136," जोखिम":8137," फ्रांस":8138,"बानी":8139,"65":8140," नित":8141," उज्ज":8142," समक्ष":8143,"चर्स":8144," लेती":8145," बन्द":8146," हड़":8147,"परि":8148," कैमरा":8149," सीसी":8150," शहरी":8151," कमेंट":8152," स्किन":8153," लिहा":8154," इमरान":8155," दायर":8156," मारा":8157," गुणों":8158," संस्थानों":8159," अपर":8160," दब":8161," अपमान":8162," यूरोपीय":8163," जमानत":8164," चलाया":8165," स्पेशल":8166," मन्दिर":8167," अधीक्षक":8168,"र्ति":8169," एसडी":8170," घंटों":8171," बीमा":8172," मध":8173,"ide":8174," पढ़ा":8175,"रिएंट":8176," धु":8177," नक्स":8178," केन्द्रीय":8179," तुलसी":8180," मास्क":8181," राजस्व":8182," मध्यप्रदेश":8183," दावे":8184," जस्ट":8185," कलाकार":8186," wh":8187,"च्छेद":8188,"400":8189," सर्वश्रेष्ठ":8190," नु":8191,"ath":8192," न्यूज़":8193,"फ्तार":8194,"मस":8195,"मावली":8196," जिक्र":8197," महासचिव":8198,"खण्ड":8199," भूप":8200," महोदय":8201," राव":8202," पदक":8203," कानपुर":8204," परिश":8205,"ip":8206,"वृत्ति":8207," देह":8208,"icy":8209,"ध्यात्म":8210," दिलचस्प":8211," होली":8212,"ेस":8213," मेर":8214," प्लेटफॉर्म":8215,"39":8216," फिल्में":8217,"तुम":8218," रुचि":8219," वंश":8220," कीमतों":8221," राकेश":8222," मजा":8223," न्यूय":8224,"स्टार":8225," सराह":8226,"रेन":8227," झग":8228,"ंकन":8229," नाश":8230," ग्रा":8231,"एसटी":8232," आकर्षित":8233,"पया":8234," मंडी":8235,"ma":8236," गोल्ड":8237,"-कश्मीर":8238," शंकर":8239,"बॉलीवुड":8240," डालकर":8241," एक्टिव":8242," बतला":8243," मिथ्या":8244," इंदौर":8245,"ड्र":8246," मरा":8247," रूम":8248," बैठकें":8249,"qu":8250," X":8251,"्यूल":8252," नक":8253,"ेयर":8254,"मंडल":8255," शुरुआती":8256," दह":8257," जुड़":8258,"गोल":8259," मेल":8260," हैरान":8261," स्वाभाविक":8262," प्रख्यात":8263,"कोट":8264," विस्फोट":8265," जायगा":8266,"ww":8267," आंकड़ों":8268," टाइम":8269," घोट":8270," सुविधाओं":8271,"प्रा":8272," मान्य":8273," हस्ताक्षर":8274," रहस्य":8275,"ुलर":8276," कुर्":8277,"ढा":8278,"ंसक":8279," जलवा":8280," स्वर्ण":8281,"ृत्य":8282," शिखर":8283,"कर्मियों":8284," स्की":8285," साक्षा":8286," कवर":8287," क्रोध":8288," मुझसे":8289,"रीय":8290," पेपर":8291," कुर":8292," कर्ज":8293," करार":8294," डीजल":8295," अज्ञात":8296," साज":8297," नाय":8298,"वश":8299," दिग्गज":8300," संचार":8301,"अर":8302," इंट":8303," उर्":8304,"िमला":8305,"ारण":8306," latest":8307," con":8308," पुण्य":8309,"विभाग":8310," कब्जे":8311," सिद्धांत":8312," उपयोगी":8313," छवि":8314,"िताभ":8315," निच":8316," मंड":8317," प्रदर्शित":8318," छापे":8319," डालने":8320," पेशे":8321," जनपद":8322," कार्मिक":8323," धोखा":8324," निकला":8325," मोक्ष":8326," लीड":8327," मानने":8328,"फेसर":8329,"orld":8330," ष":8331,"one":8332,"पंच":8333," जगत्":8334," लोन":8335,"कंप":8336," कहकर":8337," यूनिट":8338," शहीद":8339,"मार्टम":8340," अन्दर":8341," अत्यधिक":8342," सत्या":8343," छू":8344," गीता":8345," काउंस":8346," मछली":8347," हॉस्प":8348," दलित":8349," छुट्टी":8350," रणनीति":8351," जरा":8352," पवन":8353," इस्तीफा":8354," जर्मनी":8355," सीर":8356," खिल":8357," आत्महत्या":8358," क्लास":8359," क्यू":8360,"तें":8361,"ach":8362," खतरे":8363," अगली":8364," बर्फ":8365," बारी":8366," Sh":8367," शिवसेना":8368," पड":8369," समन्व":8370," पोस्टमार्टम":8371,"ंडीज":8372," आश्र":8373," तत्कालीन":8374," pol":8375,"जिस":8376,"नाइ":8377," आधा":8378,"ंकार":8379," मेट्रो":8380," सूरज":8381,"uc":8382," बाँ":8383," दिखाने":8384," अभ्यर्थ":8385,"पादन":8386," बुनियादी":8387," टेक्न":8388,"ॉड":8389," आपत्ति":8390," बनर्जी":8391," इच्छ":8392,"जलि":8393,"धिकारियों":8394," बन्ध":8395," प्रदूषण":8396,"्टन":8397,"सीपी":8398," परमात्मा":8399," पीड़िता":8400," कैसा":8401," An":8402," सैकड़ों":8403," सम्ब":8404,"ाइयों":8405," फं":8406," कार्यकाल":8407,"द्धा":8408," अंदाज":8409," नित्य":8410," अधिव":8411," प्रोग्राम":8412," ऑक्सीजन":8413," राजकुमार":8414," गोरख":8415," अजी":8416," पिछली":8417," समीप":8418,"'s":8419," कार्तिक":8420," रहित":8421," मैनेज":8422,"-छ":8423," सेमी":8424," चोप":8425,"विज्ञान":8426,"नम":8427,"ang":8428," साधना":8429," कोत":8430,"जुर्ग":8431,"्रु":8432," शान्ति":8433," एक्शन":8434," मतभेद":8435,"बंदी":8436," असली":8437,"क्ला":8438," उड़ा":8439," डिवाइस":8440," प्रमो":8441,"ड़िया":8442," जटिल":8443," यहीं":8444,"आईए":8445," जीवित":8446," राज्यसभा":8447," जवानों":8448,"धारी":8449,"वालों":8450," हार्दिक":8451,"गुरु":8452," जबरदस्त":8453,"47":8454," ओल":8455," चावल":8456,"त्तम":8457,"वास्तव":8458," तमिलनाडु":8459,"ग्व":8460,"खार":8461,"र्मी":8462,"फ़ी":8463," हंस":8464,"लोनी":8465," अभ्या":8466," सुर्ख":8467," वें":8468," कठोर":8469,"टीआई":8470," नाथ":8471,"ert":8472,"ग्रस्त":8473," अनुसू":8474," पाठक":8475," कुशल":8476," बोलने":8477," पहुँचा":8478," उत्पत्ति":8479,"कट्":8480," फ्ला":8481," आफ":8482," बाह":8483,"तालों":8484," विनो":8485," प्रतिदिन":8486," श्व":8487,"एडा":8488,"gov":8489," पुराना":8490," स्वतन्त्र":8491," समझौते":8492," त्यो":8493," दीपिका":8494,"एगा":8495," हेम":8496," मानें":8497,"मुंबई":8498," महत्त्वपूर्ण":8499,"कस":8500," कोय":8501," निल":8502," निः":8503," स्वर्ग":8504,"वाना":8505," जोड़ा":8506," जोशी":8507," जन्मदिन":8508,"णं":8509," कार्यक्रमों":8510," that":8511," रखती":8512," विशेषज्ञों":8513,"ण्डल":8514,"42":8515,"लेकिन":8516,"िसू":8517,"वारी":8518," पदाधिकारी":8519," गोपाल":8520," खाता":8521," जनजा":8522," अध्याय":8523,"द्वीप":8524," मोर्चा":8525," नील":8526," निरंतर":8527,"ुप्त":8528,"ंगाई":8529," टीकाकरण":8530," विधेय":8531," आजकल":8532,"मांड":8533," मिलावट":8534," ढां":8535," शिल्":8536,"नियां":8537,"डिया":8538," खारिज":8539,"िने":8540,"वेयर":8541," बीएस":8542," स्टो":8543,"कीन":8544," पायलट":8545," रकम":8546," सिन्हा":8547," पूंजी":8548," प्रोफेसर":8549," फॉर":8550,"राष्ट्र":8551," बीमारियों":8552," ग्रीन":8553,"क्यू":8554," कायम":8555,"काया":8556,"aking":8557,"ुति":8558," संपाद":8559," सीधा":8560,"सीन":8561," PM":8562," आज्ञ":8563," एरिया":8564," भरत":8565,"कोल":8566," उद्यम":8567," अत्या":8568," तत्वों":8569," नरेन्द्र":8570," केंद्रित":8571," हक":8572," प्रशंसा":8573," Policy":8574," श्रद्धाल":8575,"-सरकारी":8576,"हाबाद":8577," पाएंगे":8578,"ost":8579,"राक":8580," साझे":8581," नैतिक":8582," जाग":8583,"-त":8584," लगाना":8585," व्यक्तित्व":8586," भेजे":8587," गाना":8588,"दिग्ध":8589,"कर्मी":8590," खोलने":8591," कलेक्टर":8592,"अपने":8593,"रन":8594," वारदात":8595,"षे":8596,"समा":8597," समर्पित":8598," निशान":8599," जितने":8600," अभिनय":8601," प्रेमी":8602,"प्रधान":8603,"लोत":8604," अस्पतालों":8605,"ोगे":8606," ताल":8607," बुजुर्ग":8608," रिजर्व":8609,"हिता":8610," इकट्":8611," ब्रह्मा":8612," उपकरणों":8613," बृह":8614," पहुंचाने":8615," लापर":8616," वाण":8617," सदी":8618,".gov":8619,"ऊँ":8620," सहयोगी":8621," रफ्तार":8622," ऑफर":8623," बैटरी":8624," पत्रकारों":8625," आरम्भ":8626," कृपया":8627," आरंभ":8628," लिखने":8629," रिपोर्ट्स":8630,"इंड":8631,"ोसी":8632," लकड़ी":8633," साइट":8634,"ah":8635,"ायन":8636,"-र":8637," वाराणसी":8638," साढ़े":8639,"वेल":8640," प्रोफेशन":8641,"ौज":8642," न्यूयॉर्क":8643,"नीत":8644," मील":8645,"प्री":8646,"ary":8647," बहस":8648," कर्तव्य":8649,"।।\n":8650," केश":8651," खबरें":8652," समझौता":8653,"वाड़ा":8654,"्वल":8655," धूप":8656,"ोंके":8657," आरोपित":8658," चोपड़ा":8659,"िमंडल":8660,"ष्यों":8661,"ोम":8662," शुरूआ":8663,"स्ति":8664,"rad":8665," सपोर्ट":8666,"काय":8667,"46":8668," मांगी":8669,"द्भुत":8670,"शासन":8671,"प्ति":8672,"-उ":8673," निपटने":8674," कोरिया":8675," इंच":8676," कठिना":8677," पारित":8678," कंप्यूटर":8679,"ions":8680,"॥\n":8681," बनाता":8682,"आईआर":8683,"ष्णा":8684," घाटी":8685,"विधि":8686,"म्मच":8687," तुर्की":8688," ब्रेक":8689," सृष्टि":8690,"ंडीगढ़":8691," एंज":8692,"-धारा":8693," ड्रेस":8694,"डीए":8695," उत्स":8696," धरती":8697," मरने":8698," आक्रमण":8699,"ूद":8700," इसने":8701," पुनर्":8702," आरक्षण":8703," मुद्दा":8704," असल":8705," सम्रा":8706,"ast":8707," चेयर":8708," महावीर":8709," कोर":8710," अमिताभ":8711," ऑप":8712,"able":8713,"भावना":8714," नर्स":8715,"ports":8716," मस्जिद":8717," आंध":8718,"ates":8719," भाषाओं":8720," अन्न":8721," मजदूरों":8722," तुम्हारा":8723," जोन":8724," दुर्ग":8725," भूत":8726," more":8727," समझना":8728," चीफ":8729," दृढ़":8730," इन्हीं":8731," आवं":8732," विनियमों":8733,"जारी":8734," काशी":8735," मण":8736," चम्मच":8737," देखो":8738," गणना":8739," जीते":8740,"द्री":8741," किरण":8742," रमेश":8743," गहलोत":8744," फार्म":8745," मंग":8746," वस्त्र":8747," रिश":8748," विजेता":8749,"ॉज":8750,"प्रकाश":8751," हॉस्पिटल":8752," विभागों":8753," संभावित":8754," चक्कर":8755,"क्ताओं":8756," लोकतंत्र":8757," चेहरा":8758," पब्लिक":8759," अनुवाद":8760," ठाकरे":8761," बचपन":8762,"ज्य":8763,"हाई":8764," आपस":8765," व्यापारी":8766," छिपा":8767," प्रका":8768," सर्वाधिक":8769,"द्रोह":8770,"नमेंट":8771," मदों":8772," अल्लाह":8773," शुरु":8774," आलिया":8775," स्रोत":8776," सर्वोच्च":8777," दिक्कत":8778,"ायें":8779,"ure":8780," ग्राहक":8781,"ण्ट":8782," रांची":8783,"age":8784," मेघ":8785,"क्चर":8786,"स्टे":8787," इति":8788,"ree":8789," डाउनलोड":8790," चलती":8791,"ंगों":8792," ।\"\n":8793," संदिग्ध":8794," amar":8795,"ister":8796,"ujala":8797," जहाज":8798," शोक":8799," ठंड":8800," गर्भ":8801,"ud":8802," अंतरिक्ष":8803," amarujala":8804," प्रशासनिक":8805," मन्त्र":8806," नियंत्रित":8807," सेल्सियस":8808," आश्रम":8809,"ार्थी":8810,"लील":8811,"ूंकि":8812," उत्सव":8813," मानो":8814," ब्लड":8815," राणा":8816,"िकेटर":8817," शर्त":8818," श्रीकृष्ण":8819,"ern":8820,"डियो":8821," लगेगा":8822," जॉन":8823," चिप":8824," साइन":8825,"दुल":8826," किस्":8827," भव्य":8828," जुर्म":8829,"ग्रा":8830," मुर":8831,"ार्टमेंट":8832," नारे":8833," अखबार":8834," प्लांट":8835," आपदा":8836," मुकेश":8837,"वाड़":8838," हिट":8839," राजपूत":8840," ट्यू":8841," लालू":8842,"दायिक":8843," जस्टिस":8844,"ँह":8845," सैल":8846,"डब्ल्यू":8847,"ँग":8848," नजदी":8849," छत":8850,"ायतों":8851," डेढ़":8852," उपास":8853," st":8854," आध्यात्म":8855," यानि":8856,"आइ":8857," सेवाएं":8858,"-ट":8859," करवाने":8860," ऑफ़":8861," भेजने":8862," सदर":8863," सहारा":8864,"जिये":8865," रोजाना":8866,"िप्त":8867," दक्षिणी":8868,"कांत":8869," सतह":8870," पोषण":8871,"ंतरिक":8872,"ूर्ण":8873," जिसमे":8874," उठाए":8875," मुज":8876," जब्त":8877," शिर":8878,"भोग":8879," शक":8880," मज़":8881," तेजस्वी":8882," मेगा":8883," पाये":8884," गेह":8885," भारती":8886,"गैर":8887," प्रयासों":8888,"ect":8889," सिद्धार्थ":8890," स्थिरी":8891," सप्":8892," रत्न":8893," कामयाब":8894," धान":8895," मुसलमानों":8896," कप्ता":8897," कंटे":8898,"परी":8899,"ञ्च":8900,"लेस":8901,"ोग्रा":8902,"साइड":8903," पठ":8904," स्थिरीकरण":8905," क्रमशः":8906,"्रीट":8907," खण्ड":8908,"धित":8909,"ड्स":8910," गायब":8911,"ोई":8912,"षित":8913," धमा":8914," us":8915,"ef":8916," दिनेश":8917,"ंचित":8918," वाक्य":8919,"तियां":8920," परियोजनाओं":8921," वार्ष":8922,"स्की":8923," ढूं":8924," निर्देशिका":8925," आदिवासी":8926,"शिंग":8927," पार्ष":8928," साजिश":8929," प्रतिष्ठित":8930," ग्लो":8931," जोड़ने":8932," जिसको":8933," बॉडी":8934," *":8935,"ंपिक":8936," बढ़ाया":8937," महंगाई":8938," पकड़ा":8939," बेचने":8940," बेस्ट":8941," नोएडा":8942," आयात":8943,"्यार":8944," आँख":8945," रुख":8946," मेन":8947,"बंद":8948," बैक":8949,"ट्यूब":8950," डूब":8951," गूगल":8952," रूपये":8953," KB":8954," आज्ञा":8955,"इंडीज":8956,"भूषण":8957," बोलते":8958," बढ़ी":8959," कंस":8960," पुराण":8961," स्मरण":8962," हानि":8963," प्राथमिकता":8964," दिना":8965," वैसा":8966,"जना":8967,"िज्य":8968," पिट":8969," पाइ":8970,"513":8971," रहकर":8972," अभ्यावेदन":8973," यथार्थ":8974," अद्भुत":8975," बारह":8976," सुशांत":8977," पेय":8978," कटौती":8979,"he":8980," सावधानी":8981,"एसएसएआई":8982,"out":8983,"जिन":8984,"ँति":8985," परस्पर":8986,"आईटी":8987,"मुख्यमंत्री":8988," कहान":8989,"स्ड":8990," प्रवाह":8991," प्रश्":8992," मानता":8993," आगरा":8994," ड्यूटी":8995," फैशन":8996,"क्राम":8997,"फिर":8998," बिलकुल":8999," पन":9000," आयी":9001,"हरण":9002," विधेयक":9003," एफएसएसएआई":9004," एंट्री":9005,"िल्स":9006," चालू":9007," मुफ्त":9008," इट":9009," दिलाने":9010," शिश":9011," मुस्क":9012," ट्रॉ":9013,"ंचल":9014," श्याम":9015," आंतरिक":9016," रात्रि":9017," सम्मिल":9018," शर्म":9019,"चंद":9020," सभ्यता":9021,"PL":9022," ईमान":9023,"संख्य":9024," आएगी":9025,"250":9026," लाइव":9027," ग्री":9028,"-से":9029," अंडर":9030," रीति":9031," पाठ्यक्रम":9032," सूच":9033," ब्ला":9034,"ंत्रिक":9035," दोहरा":9036,"शीलता":9037,"मिक":9038,"एनयू":9039," चरणों":9040," मिश्रण":9041," नेहर":9042," नकारात्मक":9043," क्रिकेटर":9044," झूठ":9045," बतौर":9046,"्रेम":9047,"बरा":9048," सांप":9049," कौर":9050," मुआ":9051," जस":9052," विशिष्टियां":9053,"ष्ठा":9054,"नियमावली":9055,"बॉल":9056," पोर्टल":9057,"वायर":9058,"ssai":9059,"ूहिक":9060," धारणा":9061," Fssai":9062," बुक":9063," सुरेश":9064," वादा":9065,",\"":9066," गर्व":9067," शिमला":9068," दिवसीय":9069," डीएम":9070," नाबाल":9071," ज्योतिष":9072,"पाई":9073,"चंद्र":9074," गार":9075," चपेट":9076," स्पोर्ट":9077," खिता":9078,"विदा":9079," नयी":9080,"र्वाद":9081," श्रीराम":9082," श्रेय":9083," रावत":9084,"ेंच":9085,"स्त्रों":9086," कना":9087," आरा":9088,"कारियों":9089," मूल्या":9090," हालाँ":9091," ग्ल":9092," सीनियर":9093," पार्टनर":9094," स्ने":9095," सपने":9096," माननीय":9097," प्रचलित":9098," बादल":9099," लंदन":9100," लापरवाही":9101,"द्वार":9102," एके":9103," अतिथि":9104," स्टूडेंट्स":9105," हालाँकि":9106,"वान्":9107,"कला":9108," वाइ":9109," दवाओं":9110," शुक्ला":9111,"आरपी":9112," गढ़":9113,"तायात":9114,"ॉग":9115," जमी":9116," हाथी":9117," त्योहार":9118,"ib":9119," विनोद":9120,"शनी":9121,"्यौ":9122,"िणी":9123," विद्यार्थी":9124," लेवल":9125,"reaking":9126," कोतवाली":9127," सम्बन्धी":9128," अहि":9129," पोस्टर":9130," नृत्य":9131,"ash":9132,"देवी":9133," अधिसू":9134,"वियत":9135," जौ":9136," नाक":9137," चौकी":9138," बाई":9139," कैमरे":9140," यौन":9141," Get":9142," मिसाइल":9143," ड्राइवर":9144,"ीट्यू":9145," नारी":9146," अधिकारों":9147," मंत्रियों":9148,"याम":9149," दाल":9150,"41":9151," दिव्या":9152," गत":9153," खासकर":9154," डिज़":9155," प्लास्टिक":9156," परिणामस्वरूप":9157," पैरों":9158,"र्वेद":9159," जरिये":9160,"बीन":9161," अवतार":9162,"शंकर":9163,"नहीं":9164," गुट":9165," pr":9166,"दिल्ली":9167," संसदीय":9168," सामूहिक":9169," व्यस्त":9170,"56":9171," शेर":9172," कनेक्शन":9173," सब्स":9174," स्टी":9175," शिवराज":9176," गोवा":9177,"लोग":9178," वैदिक":9179," मिलना":9180," नायक":9181," सेन":9182," क्लीन":9183,"बली":9184," कच":9185," कप्तानी":9186,"न्नी":9187," आचार":9188," पड़ोसी":9189," एटी":9190,"):":9191,"न्दे":9192," आश्वासन":9193," खेलते":9194," चढ़ा":9195," कालेज":9196," sp":9197," खर":9198,"चारिक":9199," live":9200,"li":9201," ग्व":9202," भावनाओं":9203," बख":9204," चूंकि":9205," तलाक":9206," खुराक":9207," एजेंस":9208,"मीन":9209," डिली":9210,"ult":9211," हथियारों":9212,"ुद्ध":9213," आंकड़ा":9214," पंत":9215," पौधे":9216," स्पिन":9217," बैठकर":9218," मद्":9219," तन":9220," गिरने":9221,"घात":9222," स्पी":9223," हुईं":9224,"43":9225,"दत्त":9226," शनि":9227," बाय":9228," संवेदन":9229,"२५":9230,"ट्टा":9231,"धों":9232,"ेक्टर":9233,"गणना":9234," सम्मिलित":9235," पुष्प":9236," टाटा":9237," तुमने":9238,"ांतों":9239,"वंश":9240," यातायात":9241," कुश":9242," चेतना":9243," रथ":9244," ब्यू":9245,"बता":9246," संस्थाओं":9247,"itics":9248," केंद्रों":9249," जायेगी":9250," संसाधन":9251,"-ख":9252,"िप्र":9253," वेस्टइंडीज":9254,"ोत्तर":9255," मथ":9256," अनन्त":9257," लघु":9258," निर्देशक":9259," वार्षिक":9260," इंजीनियरिंग":9261,"लु":9262," जाएंगी":9263," डु":9264," तालि":9265," गहरी":9266," फायदेमंद":9267," नाना":9268,"सैन":9269," शून्य":9270," बला":9271,"एव":9272,"लाइट":9273," सर्जरी":9274," कंगना":9275," नीर":9276,"प्रीत":9277," सर्टिफाइड":9278," मलिक":9279," दुर्गा":9280," निर्द":9281," फ्रंट":9282," संहिता":9283," आतंकवादी":9284,"फ्फर":9285,"िकार":9286,"विंग":9287," अरुण":9288,"ear":9289,"ical":9290,"ase":9291," नाबालिग":9292,"ंपरिक":9293,"ank":9294,"ल्ले":9295," शरी":9296," पहुंचकर":9297," झटका":9298," ऊंचाई":9299,"टके":9300,"डू":9301," प्रयाग":9302," मुँह":9303,"िवी":9304,"निस":9305," स्थानांतर":9306,"लपुर":9307," दस्तावेज":9308,"ष्कार":9309,"गित":9310," कामना":9311," पाउ":9312," डिप्टी":9313," संतुल":9314," अन्यथा":9315,"ere":9316,"ans":9317," बिन":9318," पाय":9319," शिष्य":9320," यूट्यूब":9321,"्रमण":9322," बचे":9323," स्टैंड":9324," भूख":9325,"३०":9326," मोड़":9327," मैसेज":9328," साझेदारी":9329,"केज":9330," मोर":9331," स्कीम":9332,"ual":9333," बेस":9334," नेहरू":9335," रच":9336," निलंब":9337,"द्दा":9338," गंग":9339," भागों":9340," डेस्क":9341," आशीर्वाद":9342," जायेंगे":9343,"्तर":9344," पूजन":9345,"कश":9346," धवन":9347," पाकर":9348," पहना":9349," वां":9350," एकदम":9351," आन्द":9352,"ोजक":9353," अलर्ट":9354," किंग्स":9355,"ड्डी":9356,"डकर":9357," आजम":9358," पवार":9359," स्नातक":9360," परिचित":9361," ख्याल":9362," आंकड़े":9363," पीछा":9364," वसू":9365,"कई":9366,"किस्तान":9367," वाणिज्य":9368," बदमाशों":9369," आरोपों":9370," फूड":9371," स्त्र":9372," कोर्स":9373," मेहमान":9374," पैन":9375," पेंट":9376,"आउट":9377," छापेमारी":9378,"erm":9379," स्टोरी":9380,"-इ":9381," साहि":9382," सूचित":9383," स्वप्":9384," कोचिंग":9385," जलवायु":9386," नगरी":9387," घात":9388," अपराधियों":9389,"दायक":9390,"मुना":9391," ال":9392,"aw":9393,"्रल":9394," पद्म":9395," देशभर":9396," तालाब":9397," इलेक्ट्रॉन":9398," प्रारंभिक":9399,"ल्फ":9400,"याल":9401," breaking":9402,"लेश":9403," शक्तिशाली":9404," क्योकि":9405,"ru":9406," फु":9407,"जाने":9408," करोड़ों":9409," सन्त":9410," पक्षों":9411," मनोरंजन":9412,"याय":9413,"लेशन":9414,"ee":9415,"उंडर":9416," ससुर":9417," भेंट":9418,"िति":9419,"र्में":9420," मिलेंगे":9421," बलि":9422," बरसा":9423," इज":9424," ज़रूरत":9425," संदेह":9426,"माया":9427,"केदार":9428,"isc":9429," आधे":9430," फ्रां":9431,"मिली":9432,"पता":9433," व्यय":9434,"52":9435," प्रतिष्ठा":9436,"पंथ":9437," आजाद":9438,"स्टेंट":9439,"२६":9440,"पाठी":9441," डाक्टर":9442," गुस्सा":9443," देखिए":9444," डिट":9445,"चाल":9446," World":9447," सराहना":9448," रोका":9449," दर्शाता":9450," बेरोज":9451," राइ":9452," जाँच":9453," बेंगल":9454," आमंत्रित":9455," अनुसूचित":9456," तेंद":9457," डेब्यू":9458," देरी":9459,"िवृ":9460," लैंड":9461," हरे":9462," नशे":9463," गंभीरता":9464," मस्ति":9465,"ड़की":9466," पीढ़ी":9467," फिटनेस":9468," ठोस":9469," उन्नति":9470," गाज":9471,"app":9472," चरम":9473," सोनिया":9474,"hat":9475," सीसीटीवी":9476,"कलन":9477," सौंपा":9478,"120":9479,"एनएस":9480," ड्रग":9481," स्वीकृति":9482,"न्दन":9483," जाप":9484,"51":9485,"यंती":9486,"स्पर्":9487," विक्रम":9488," युवकों":9489," हादसा":9490," एसिड":9491,"ous":9492,"ंपल":9493," पहने":9494,"dit":9495," निमित्त":9496," बैग":9497," साथियों":9498," कुमारी":9499," मद्देन":9500," फैक्ट":9501," लाइट":9502,"बाज":9503," पहाड़ी":9504," गोरखपुर":9505," प्रोफेशनल":9506," पारंपरिक":9507," गड़":9508,"करार":9509," फीचर":9510," sports":9511," बांट":9512," डिज़ाइन":9513,"म्मा":9514," भोजपुरी":9515," डालें":9516," संभ":9517," शुरूआत":9518,"कन":9519,"ick":9520," मूल्यांकन":9521," जज":9522," थोड़े":9523," सब्ज":9524," आध्यात्मिक":9525,"न्दु":9526," प्रोटीन":9527," राशन":9528,"स्वती":9529,"सनीय":9530," शुक्ल":9531," इंस्टीट्यू":9532," खेलों":9533,"तीन":9534," मनाने":9535," करेंगी":9536,"ांच":9537," ईमेल":9538," आमिर":9539,"मोहन":9540," महेंद्र":9541," सीईओ":9542," फीड":9543," अशु":9544," निधि":9545," हज़ार":9546," ईडी":9547," ख़ु":9548," कोड":9549," बोध":9550,"धानिक":9551," आपसे":9552," वाणी":9553,"।'":9554," प्रोफाइल":9555," बनना":9556," धाम":9557," सद्":9558," बहादुर":9559," पकड़ने":9560," आकर्षक":9561," सना":9562," भागीदारी":9563,"ान्य":9564," खिताब":9565,"्योर":9566," दुश्मन":9567," क्रेडिट":9568," विनय":9569,"ानुसार":9570," सेक्स":9571,"संघ":9572," सिख":9573," सोवियत":9574," चुने":9575,"वर्धन":9576,"ारू":9577," लंबा":9578," ब्यूरो":9579,"डि़":9580,"ंचाई":9581," पैदल":9582," नाट":9583,"त्स":9584," बसपा":9585,"दाई":9586,"िसिन":9587," परिवर्त":9588,"ैत":9589," मोड":9590," बेश":9591," कराए":9592,"ave":9593," इंस्प":9594,"58":9595," सुग":9596," पुस्त":9597," दुकानों":9598," समझता":9599," मिर्च":9600,"विन":9601,"ोगा":9602," चो":9603," दंड":9604," पोष":9605," संपन्न":9606," मधुर":9607," चिकित्सक":9608," म्यूज":9609," बहुमत":9610," अरु":9611," or":9612," भूकंप":9613," प्रकाशन":9614," चुनौ":9615,"ge":9616," ट्रैक":9617,"चुनाव":9618," मस्तिष्क":9619,"ार्थियों":9620," बड़":9621,"डिशा":9622," श्रीवास्तव":9623,"ंधन":9624," प्रखंड":9625," अनाज":9626," नाइट":9627," समग्र":9628," टीमें":9629," हीरो":9630," बीस":9631,"कांग":9632," वीं":9633,"२४":9634," रणबीर":9635,"रेली":9636," vs":9637,"भवती":9638," प्रथा":9639,"पार":9640," हंगामा":9641,"र्घ":9642," जयंती":9643," समस्याएं":9644," कानूनों":9645," पूछे":9646," शरद":9647,"राई":9648," मीटिंग":9649," पॉल":9650,"नैतिक":9651," टुकड़े":9652," इवेंट":9653,"िवारिक":9654," कमाल":9655," स्कू":9656,"घाट":9657," मैनेजमेंट":9658,"भास":9659,"ग्रहण":9660,"दून":9661,"लाश":9662," दिखे":9663," राधा":9664," फेल":9665," ab":9666,"57":9667," समूहों":9668,"तया":9669," रुपया":9670,"ari":9671," असा":9672," रजिस्ट्रेशन":9673,"माइ":9674,"रिस":9675,"'t":9676," समुद्री":9677," politics":9678," जूझ":9679," जीतकर":9680," बीत":9681,"ब्स":9682,"ट्रिक":9683,"धना":9684," पूर्ति":9685," निर्देशित":9686,"धाम":9687," सुविधाएं":9688,"शियों":9689," गुम":9690," निर्देशन":9691," परिजन":9692," वाद":9693," तरीकों":9694," लायक":9695," परिस्थिति":9696," आल":9697," अपराधी":9698," किल":9699," पहुंचाया":9700,"क्ख":9701," सब्जी":9702," श्रीमती":9703," ध्वनि":9704," रेंज":9705," विहार":9706," जुर्माना":9707,"िथ":9708,"दमी":9709,"बर्ग":9710," काय":9711," रायपुर":9712," रिश्ता":9713," हमे":9714," हॉल":9715,"िट्":9716," काबू":9717," गिन":9718,"सीआर":9719,"ज़न":9720," इक":9721," जन्":9722,"रात्रि":9723," क्वार":9724," सरदार":9725," डाली":9726," ट्रेलर":9727,"शुल्क":9728,"कामना":9729," सोनी":9730,"प्प":9731," रेडियो":9732," मनोहर":9733," भिक्ष":9734," करनेवाले":9735,"वाहा":9736," आतंकियों":9737,"फाइन":9738,"ऊदी":9739," घन":9740,"तिन":9741," जानवरों":9742," अत्यंत":9743," मय":9744," एंड्र":9745," पर्सनल":9746,"ार्स":9747," वैज्ञानिकों":9748,"शिव":9749," कंध":9750," आखिरकार":9751," गठित":9752," आयर":9753," कंपनियां":9754," सृ":9755,"लित":9756," एथ":9757,"सीम":9758," पकड़े":9759," मनुष्यों":9760,"लै":9761," मेकअप":9762," आर्":9763," आईं":9764,"कांक":9765," अनुराग":9766," -\n":9767," Miss":9768,"ग्रे":9769," बताए":9770," मेले":9771,"पेक्ष":9772,"डोर":9773," कार्यरत":9774,"डम":9775," ट्रैफिक":9776,"मूर्ति":9777," लैस":9778,"च्ची":9779,"माही":9780," भला":9781," झेल":9782," स्पर्श":9783,"नार":9784,"िप्ट":9785," उतनी":9786,"्वान":9787," ट्रंप":9788," दिनांक":9789," पारिवारिक":9790,"चुर":9791," दत्त":9792," बढ़त":9793," जागरूकता":9794," त्रिपाठी":9795,"-पा":9796," साइड":9797,"ance":9798,"ंगन":9799," पाक":9800," हेयर":9801," स्थलों":9802," दर्जन":9803," भाँति":9804,"हरादून":9805," पलट":9806,"ech":9807," लाई":9808," स्वीकृत":9809," माध्यमिक":9810," साहस":9811,"प्पा":9812," हाइड":9813," चेयरमैन":9814," लाह":9815,"न्ड":9816," दुर":9817," सूचकांक":9818," सोल":9819," चिन्ह":9820," गोप":9821," सिम":9822,"ालियर":9823," घाय":9824," शौच":9825," ।'":9826," ag":9827,"हू":9828," रजिस्टर्ड":9829," शृ":9830," महोत्सव":9831," लू":9832," संयोग":9833," चंडीगढ़":9834," चलेगा":9835," बादशाह":9836," दिव्य":9837," टॉ":9838," दुष्कर्म":9839," लीला":9840," कीजिए":9841,"ांजलि":9842,"स्टल":9843," परिण":9844,"पालिका":9845,"मैंने":9846," an":9847,"नस":9848,"SC":9849,"ंबा":9850," ताज":9851," स्तरी":9852," आन्दोलन":9853," हड़ताल":9854,"ue":9855,"बहुत":9856," रवी":9857," सर्वेक्षण":9858,"pr":9859,"त्तों":9860,"म्बई":9861," विनाश":9862," मेरठ":9863," उदार":9864," संदीप":9865," वरुण":9866," डाले":9867," निष्कर्ष":9868," फायरिंग":9869," सिखा":9870,"ड्डे":9871," रोटी":9872," एफआईआर":9873,"टर्स":9874," काटने":9875," On":9876," वय":9877," पांड":9878," प्रस्तावित":9879,"भाई":9880," सप्लाई":9881," इंस्टीट्यूट":9882,"लियों":9883," ),":9884," स्वच्छता":9885," होश":9886," पार्टियों":9887," तालिबान":9888,"लभ":9889,"िस्तान":9890,"ोज़":9891," कैद":9892," बिगड़":9893," सटी":9894," सतर्क":9895," छिप":9896," गज":9897,"ट्टर":9898," Ag":9899," फांसी":9900,"लिटी":9901," सावधान":9902,"बीएस":9903," दीन":9904,"्ती":9905,"-सं":9906," काग":9907," रिक्त":9908,"हारिक":9909," हस्तक्षेप":9910," अक्षर":9911,"uch":9912," रिव":9913," लक्ष्मण":9914,"्युनि":9915," बिंदु":9916," संवाददाता":9917," रूट":9918," प्याज":9919," लॉस":9920,"67":9921," प्रोट":9922," दुबे":9923," ज्ञापन":9924," लक्षित":9925,"AN":9926,"टिक":9927," बोर":9928," लिखते":9929,"II":9930,"विशेष":9931," मद्देनजर":9932," अभिव्यक्ति":9933," गर्भवती":9934," प्राणी":9935,"ंगाना":9936,"रेटर":9937," Un":9938,"iness":9939," पित":9940," हॉट":9941,"ाइक":9942,"ंसी":9943," सुभाष":9944,"ens":9945,"िपुर":9946,"डनी":9947," कलाकारों":9948," मिठ":9949," यूनियन":9950,"ell":9951," किस्म":9952," प्रांत":9953,"port":9954,"बस":9955," महेश":9956,"्लोक":9957," ऋतु":9958," अजीब":9959," जानें":9960,"193":9961,"धव":9962," नग":9963," साइकिल":9964," सत्":9965," स्थगित":9966,"बड़":9967,"नामा":9968,"ोंका":9969," राजनैतिक":9970," वेरिएंट":9971," सैम":9972," भेजी":9973," उपलब्धि":9974," कराना":9975," सर्च":9976," निकली":9977," रघु":9978,"शिंगटन":9979," चक":9980," फस":9981," पुणे":9982," ईसाई":9983," कनाडा":9984," व्यावसाय":9985,"च्य":9986," अर्थात":9987," हिंदुस्तान":9988," स्तरीय":9989,"ूँगा":9990,"सीसीआई":9991," मुआव":9992," अग्न":9993," हैंड":9994," बैठी":9995," दरवाजे":9996," पाती":9997," ढेर":9998," क्रिस":9999," it":10000," माइक्रो":10001," ओलंपिक":10002," ढूंढ":10003," कॉन्फ्रेंस":10004," जर्मन":10005," पर्यटकों":10006," अन्तिम":10007," Z":10008," माला":10009," निभाई":10010," सामु":10011," अंधे":10012," भीषण":10013," राजकीय":10014," मैनेजर":10015," छुटकारा":10016," घूमने":10017,"ंद्रा":10018," चिह्न":10019,"ालों":10020," शिल":10021," डू":10022," पाण्ड":10023," व्ही":10024," अंस":10025,"स्पी":10026," भीम":10027,"िवेदी":10028," संपूर्ण":10029," समन्वय":10030,"olly":10031,"न्ति":10032," ओडिशा":10033," अरे":10034,"68":10035,"बिन":10036," शर्":10037," सुर्खियों":10038," पाउडर":10039,"64":10040," साइबर":10041," मेडिसिन":10042," इकट्ठा":10043," आईटी":10044," देवताओं":10045,"फार्म":10046," गाइड":10047," बुर":10048," समृद्ध":10049," माँग":10050," सम्पन्न":10051," माफी":10052," रोज़":10053," स्पोर्ट्स":10054," एक्सपर्ट":10055," टैंक":10056," अद्व":10057," स्त्रियों":10058,"wood":10059," पहाड़":10060," इनको":10061," शुभकामना":10062," सर्वथा":10063," ईंधन":10064,"िडी":10065,"com":10066," बनती":10067," मुहै":10068,"पुट":10069,"इसी":10070," पैकेज":10071," इलाहाबाद":10072," फ्लोर":10073,"eal":10074," सशस्त्र":10075," ट्रस्ट":10076," कड़ा":10077," रोशनी":10078,"ंडों":10079,"tt":10080,"काव्य":10081," डेविड":10082," पांडेय":10083," शिक्षण":10084," फर्म":10085," अमरीका":10086," अल्पसंख्य":10087," साक्षात्कार":10088," सबूत":10089,"लखनऊ":10090,"नव":10091,"pur":10092,"ुत्व":10093,"72":10094," रावण":10095," निदेश":10096," स्वय":10097," जताया":10098," साहिब":10099,"आईपी":10100," व्यापारियों":10101,"झी":10102," गुर्":10103,"हिं":10104," ऐश्व":10105,"क्रामक":10106," पंजीकरण":10107," विचारधारा":10108," फीचर्स":10109," प्रबन्ध":10110," उपभोक्ता":10111," लिंग":10112," बाज":10113," फीट":10114," तथापि":10115,"िल्ला":10116," बघ":10117," चट":10118," छेड़":10119," i":10120,"मक":10121,"und":10122," मेजब":10123,"डीपी":10124," घायलों":10125," विद्रोह":10126,"दनी":10127," नौसेना":10128,"म्बे":10129," not":10130," सऊदी":10131," डेवल":10132," रोगों":10133," साहू":10134," करीबी":10135," हान":10136," मारकर":10137," शोभा":10138,"ime":10139,"िपल":10140,"रेपी":10141," अवार्ड":10142," गेहूं":10143," सर्क":10144,"ोगी":10145,"ational":10146," सिस":10147,"न्यू":10148," स्वप्न":10149,"ायती":10150," परे":10151," मुहैया":10152," प्रोत्साहित":10153," उठाकर":10154," अहमदाबाद":10155," बोल्ड":10156,"प्रधानमंत्री":10157," कनेक्ट":10158," चौरा":10159," हल्के":10160," सरस्वती":10161," are":10162," मुखिया":10163,"िशियल":10164," लेखन":10165," शू":10166," अफ़":10167," स्टार्ट":10168,"कालिक":10169,"कांड":10170," तेरे":10171," बृहस्पति":10172," रेप":10173,"ollywood":10174,"वेस्ट":10175,"59":10176,"-अपने":10177,"ूर्त":10178,"स्सी":10179,"erv":10180,"ence":10181,"चाप":10182," सबका":10183," प्रतिनिधियों":10184," समर्थक":10185," महल":10186," प्रोडक्ट":10187,"२३":10188," हल्की":10189,"रेशन":10190,"जत":10191," आँखों":10192,"orm":10193," आदत":10194,"-पी":10195," आपात":10196," फिज":10197," कार्यकारी":10198," उसमे":10199,"ंजर":10200," शिवा":10201,"ार्शन":10202," टेक्नोलॉजी":10203," पालिका":10204," आकर्षण":10205," दिखने":10206,"ail":10207," सलाहकार":10208," प्रमाणित":10209," फंस":10210,"मेरे":10211,"ps":10212," सॉफ्ट":10213," दण्ड":10214,"बड़ी":10215,"ापुर":10216," अवगत":10217," फुल":10218," मरम्मत":10219,"-पास":10220,"usiness":10221,"ingh":10222," घेर":10223," धर्मा":10224," अधिसूचना":10225," इच्छुक":10226," आर्टिकल":10227,"क्व":10228,"ass":10229," जियो":10230," कमिश्":10231,"णीय":10232," पंक":10233," चिन्ता":10234," सशक्त":10235," मथुरा":10236,"खु":10237," पान":10238," जीवा":10239," पाना":10240," रोगियों":10241," गायक":10242,"कार्य":10243,"िटीज":10244,"गमन":10245," भंग":10246,"ल्हा":10247," निपट":10248," अतएव":10249,"स्थिति":10250,"ack":10251," हवाले":10252," लड़का":10253,"सूत्र":10254," शेट":10255," चैंपियनशिप":10256,"BI":10257," प्रतिस्पर्":10258,"टित":10259," प्रिंस":10260," हैंडल":10261," टेक":10262," प्रतिबद्ध":10263," Com":10264," मुजफ्फर":10265,"राधिक":10266," आह्वान":10267," जुल":10268,"बाग":10269," इंद्र":10270,"वादियों":10271,"म्बा":10272," छीन":10273," वंचित":10274," निकाली":10275," नीतियों":10276," कैसी":10277," वान":10278,"टिया":10279," प्रैक्ट":10280," सेव":10281,"ड़का":10282,"शेखर":10283," उछ":10284," मेला":10285," कमान":10286," सम्राट":10287," पार्षद":10288,"ध्व":10289," प्रान्त":10290," पौधों":10291," कबीर":10292," पॉप":10293,"ैं":10294," मॉड":10295,"एमएक्स":10296,"sh":10297," हेल":10298," धरना":10299," वाम":10300," राजमार्ग":10301," प्रीमियर":10302,"दाद":10303,"क्यों":10304," ट्रॉफी":10305,"कीपर":10306," आचरण":10307," एग्जाम":10308," महान्":10309," बढ़ाकर":10310," कृष्णा":10311," हिन्दुस्तान":10312," स्पीड":10313," किशन":10314," विभाजन":10315," जिलाधिकारी":10316," इमारत":10317," सीरिया":10318," देनी":10319," प्रशांत":10320,"चौ":10321," लड":10322," जानिए":10323," एजु":10324,"53":10325,"क्षणिक":10326," साइंस":10327," बिर":10328,"एसआई":10329," चिर":10330,"-बड़े":10331," रणवीर":10332," हराया":10333," वर्गों":10334," स्वाम":10335,"01":10336," En":10337,"जुट":10338," लौटने":10339," अंदा":10340," गणित":10341,"विर":10342,"निर्माण":10343," कामका":10344," प्रदीप":10345,"66":10346," व्यावसायिक":10347,"वैज्ञान":10348," कच्चे":10349," प्रयुक्त":10350," this":10351,"बुल":10352," हिमालय":10353," कर्मों":10354," झील":10355," पैट":10356," उभर":10357,"िवि":10358," सिंचाई":10359,"परा":10360," दोस्ती":10361," कमर":10362," पढ":10363," हेली":10364,"ितु":10365," अमीर":10366," भक्तों":10367," हिल":10368,"फ्रेंड":10369," अर्पित":10370," तेलंगाना":10371," दार्शन":10372,"ities":10373,"िवेश":10374," अर्धशत":10375," करवाई":10376," चेतन":10377," घी":10378," हार्ट":10379," संजीव":10380," रोशन":10381," खरीदा":10382," सवालों":10383," चौथा":10384,"GB":10385," सदस्यता":10386," शेख":10387,"र्चे":10388," आसमान":10389,"नाल":10390," रामायण":10391,"पह":10392," औप":10393," जानकर":10394," कन":10395," दुर्भाग्य":10396,"दुनिया":10397,"ुख":10398,"मरी":10399," करीना":10400," ज़ि":10401," बनते":10402,"ram":10403," कामों":10404," कुत्ते":10405," फि":10406," बोझ":10407," जीवों":10408," उदा":10409," जावे":10410," बैठने":10411,"२००":10412,"र्भ":10413," स्टॉक":10414,"CC":10415,"54":10416," एजेंसियों":10417," हिर":10418," Cr":10419," सघ":10420," मानसून":10421,"चार्ज":10422," जागरण":10423," अड":10424," हरकत":10425," कॉलोनी":10426," निर्व":10427," मुलायम":10428," दायित्व":10429," दीर्घ":10430,"तुष्ट":10431,"व्यों":10432," स्मार":10433," बेड":10434," खोला":10435,"धनों":10436,"यात्रा":10437," क्वाल":10438," पदाधिकारियों":10439," सेठ":10440,"टेस्ट":10441," उच्चतम":10442," पॉलि":10443," गतिविधि":10444," ध्रु":10445," घुट":10446,"ामे":10447," महानि":10448," Pro":10449," श्लोक":10450,"ामें":10451,"मण":10452,"ोली":10453," सूजन":10454,"ल्लू":10455," कस्":10456," आंध्र":10457,"त्वा":10458,"ोटा":10459," लाना":10460," जोड़े":10461,"पने":10462," बाला":10463," पेशकश":10464," वस्तुत":10465," निराशा":10466,"पीड़":10467,"ana":10468," झलक":10469," कैलाश":10470," रौ":10471," बाह्य":10472,"पाही":10473," कक्ष":10474," छान":10475,"िसोड":10476,"ंबुल":10477,"ब्रह":10478," सेंट्रल":10479," सहमत":10480," बैल":10481,"निष":10482,"नाश":10483,"ey":10484," लगाएं":10485,"ब्बत":10486,"प्ट":10487," राजन":10488," जीएसटी":10489," धीर":10490," चित":10491,"द्वारा":10492," घटा":10493," समर्थकों":10494," एकजुट":10495," प्रको":10496," शोषण":10497," उर्दू":10498," Mo":10499," मल्टी":10500,"elhi":10501," गुरू":10502," इंस्पेक्टर":10503," you":10504," अफसरों":10505,"600":10506,"एनयूएमएक्स":10507," फैमिली":10508," छोड़ा":10509," मामूली":10510,"त्पर्य":10511," बृ":10512," हुसैन":10513," व्यावहारिक":10514,"सूर":10515," उपायों":10516," उठे":10517," लिखकर":10518," Ar":10519," Ex":10520," मासिक":10521," पहनने":10522,"किक":10523,"ज्जा":10524," नजदीक":10525,"मोह":10526," मजाक":10527," कदा":10528," @":10529,"णियों":10530," शासक":10531," आश्रय":10532,"lection":10533," सच्चाई":10534,"ंगिक":10535," शेट्टी":10536,"-ह":10537," नमा":10538," तोड़ने":10539," एकड़":10540," एपिसोड":10541," धूल":10542," Al":10543," कुलदीप":10544," सौंद":10545,"यिक":10546," कृति":10547," अपहरण":10548," क्रांति":10549," छक्के":10550," हिम्मत":10551,"२२":10552,"ान्ति":10553," क्रीम":10554,"मारे":10555," गरीबों":10556," भारतीयों":10557," दुब":10558,"वर्ड":10559,"मेन":10560," निज":10561,"ोश":10562,"78":10563," अहिंसा":10564," शत":10565," उपायुक्त":10566," लिव":10567," चर्च":10568,"माद":10569,"अन":10570," महार":10571," गहराई":10572," चौथी":10573," उग्र":10574," स्या":10575," आपराधिक":10576," अगु":10577," व्यर्थ":10578,"रिय":10579," सदैव":10580," वसूली":10581," मजे":10582," ट्रेनों":10583," आलू":10584," आईसीसी":10585," Ad":10586," ग्वालियर":10587," एकल":10588," सोचने":10589," सियासी":10590,"धारणा":10591," प्रसंग":10592," जिंदा":10593," बरकरार":10594,"ैस":10595," नाव":10596," विकार":10597," सम्प्रदाय":10598," आपसी":10599,"uk":10600," उपचुनाव":10601," टेबल":10602," पर्दे":10603," खाल":10604," जोरदार":10605,"ैली":10606," सूरत":10607,"अनु":10608,"र्जन":10609,"रोक्त":10610," कैश":10611," मेहता":10612," महाभारत":10613," बसों":10614," ग्लोबल":10615,"ैश":10616,"क्षिक":10617," दुल्":10618," Read":10619," नतीजे":10620," यमुना":10621,"पेश":10622,"गेट":10623,"नाई":10624,"बरी":10625," मुठ":10626,"AR":10627," न्यायिक":10628,"रीबी":10629," अनुभ":10630," सर्दी":10631," क्रू":10632," शान्त":10633,"ID":10634," संयंत्र":10635,"-मु":10636,"दश":10637," खनन":10638," सहन":10639," बारा":10640," प्रसारण":10641,"ंबू":10642,"yle":10643,"न्दर्य":10644," डाक":10645," चलकर":10646," अंकित":10647," बीए":10648," इनसे":10649," सीरियल":10650," गोला":10651," मतदाता":10652," विभाजित":10653,"ल्तान":10654,"ust":10655," अनुबंध":10656," सिपाही":10657,"overn":10658," शक्तियों":10659," उपर":10660,"वाड़ी":10661," Khan":10662," जूनियर":10663,"मेज":10664," प्रोत्साहन":10665," निवार":10666," करूंगा":10667,"तीक":10668,"च्चार":10669," मानवीय":10670," कम्पनी":10671,"सेट":10672,"दर्शी":10673,"ब्ब":10674,"वाइ":10675," व्यास":10676,"र्युक्त":10677,"85":10678," उद्धव":10679,"ष्का":10680," अमेरिकन":10681,"दूरी":10682," उठता":10683," अरो":10684,"ंटिक":10685," तूफान":10686,"टेक":10687," डिफ":10688," पर्याय":10689," सिद्धि":10690," they":10691," दादा":10692," तौ":10693," महाविद्यालय":10694,"प्रथम":10695," उपासना":10696," वहा":10697," श्रद्धांजलि":10698,"मानी":10699," संल":10700," जेट":10701," गारंटी":10702," विर":10703,"र्टी":10704," नरेश":10705,"ord":10706," अनुच्छेद":10707," गोयल":10708," घोर":10709," रॉयल":10710,"सवाल":10711," शर":10712,"प्पी":10713," पड़ते":10714," रक्":10715," सुनते":10716," चांदी":10717," टोक":10718,"-दो":10719," तलवार":10720,"वर्ण":10721," शुभार":10722," सम्पत्ति":10723," सनी":10724," रिए":10725," स्नेह":10726," दिसम्बर":10727,"ोंक":10728," प्रतिरोध":10729,"मिन":10730," आस्था":10731," वक़":10732," मेयर":10733," उर्व":10734," इटली":10735," जुटी":10736," घटनास्थल":10737,"तृ":10738,"आईसी":10739," दफ्त":10740," आशीष":10741," डाइ":10742," ठंडा":10743," सीन":10744," दरबार":10745," एक्टिंग":10746," सिद्धू":10747," जिनसे":10748,"सिस":10749," बूथ":10750,"डेन":10751,"ोंग":10752," बाघ":10753," इंदिरा":10754," फर्क":10755," भाइयों":10756," अंसारी":10757," लीजिए":10758,"त्थ":10759," दाह":10760," Singh":10761," ऊपरी":10762," एसडीएम":10763," मजबूती":10764," निर्धारण":10765," निया":10766," कॉमे":10767,"दरी":10768,"az":10769," फूलों":10770," ऋषभ":10771,"्ली":10772," al":10773," ex":10774," फेस":10775," ठहर":10776,"जाबी":10777," निवेशकों":10778," गेंदबाजों":10779," असाम":10780," रसोई":10781," स्क्र":10782," घास":10783," कहलाता":10784,"केल":10785," तव":10786," लाश":10787," Res":10788," आयुर्वेद":10789," दरवाजा":10790,"जागर":10791," फैन":10792," वाई":10793,"भेड़":10794," नेत्र":10795," मकर":10796," प्लस":10797," बचत":10798," नहर":10799," मन्":10800," मुना":10801," फ्रेंच":10802," शिंदे":10803," कारों":10804,"फेक्ट":10805," पॉलिसी":10806," राखी":10807," अतिक":10808," ऑप्शन":10809," मुखर्जी":10810,"पं":10811," उन्नत":10812," दही":10813," पंप":10814," कवियों":10815,"AT":10816," विद्वानों":10817," बुखार":10818," निवासियों":10819," पंकज":10820,"rit":10821,"५०":10822,"वने":10823,"माटर":10824," दायरे":10825," देहरादून":10826," प्रबल":10827," उन्हे":10828," पशुओं":10829,"नाधिकार":10830," तृतीय":10831," आलम":10832,"मपुर":10833," डिलीवरी":10834," about":10835," साड़ी":10836," उभ":10837,"मंड":10838,"किट":10839," दर्जा":10840," स्थानांतरित":10841," कमांड":10842,"radesh":10843," हितों":10844," काउंसिल":10845,"95":10846," निलंबित":10847," सुपरस्टार":10848,"नेशन":10849," सीखने":10850," मातृ":10851," जातियों":10852," गर्ल":10853," विफल":10854," फंसे":10855," पहलवान":10856," ट्रेंड":10857,"77":10858," फोर":10859," •":10860," अटल":10861," कहें":10862," आईए":10863," ट्रैक्टर":10864," पुत्री":10865,"62":10866," प्रयागराज":10867," क्षमा":10868," पाइप":10869,"ुली":10870,"वेज":10871," बिहारी":10872," स्वार्थ":10873," बल्लेबाजों":10874," चौके":10875," ड्रोन":10876,"वहीं":10877," सीधी":10878," एडी":10879," लंबाई":10880," तात्पर्य":10881,"फाई":10882," टाइगर":10883,"फाइनल":10884," ट्रां":10885," बंदर":10886," वश":10887," हसन":10888," कारा":10889," घोटाले":10890,"िफिकेशन":10891,"कांक्षा":10892,"निज":10893,"ace":10894,"कोई":10895," बीसीसीआई":10896," क्राइम":10897,"जुए":10898," तिमाही":10899," पठान":10900,"-सु":10901," पेशेवर":10902," आवेद":10903," गिरी":10904," नदियों":10905," अवकाश":10906,"यानक":10907,"JP":10908,"वैधानिक":10909,"।'\n":10910," लीक":10911," महासागर":10912," प्रशंस":10913," जाएँ":10914,"धक":10915," ट्रांसफर":10916,"ex":10917,"विष":10918," इर":10919,"फिट":10920," कमिश्नर":10921,"चन्द":10922,"भद्र":10923,"ोऽ":10924,"सें":10925," सहकारी":10926," किलोग्राम":10927,"झाने":10928,"रां":10929," अमल":10930," बलात्कार":10931," पापा":10932," राजू":10933," घड़ी":10934," मिड":10935," वृद्ध":10936," आइस":10937,"मर्श":10938," फोर्स":10939," चतुर्थ":10940," शैक्षणिक":10941," तारा":10942," फोक":10943,"IST":10944,"गीर":10945," ढांचे":10946," शिशु":10947,"iz":10948," संचालक":10949," अंकों":10950,"ंठ":10951,"डेजा":10952," कपड़ों":10953," वक़्त":10954," जोध":10955," अवॉर्ड":10956,"णों":10957,"बास":10958," साक्षी":10959,"ork":10960,"ारस":10961," स्थितियों":10962," नमू":10963," ऑर्डर":10964," आगमन":10965,"ookies":10966," अश्विन":10967," डिस्प्ले":10968," सौंदर्य":10969," निचले":10970," किले":10971," संयम":10972," डेवलप":10973," उतरे":10974," सामुदायिक":10975," परिभाषा":10976," दिली":10977,"हाद":10978,"ढे":10979,"म्र":10980," डबल":10981,"बैक":10982," भूषण":10983,"चुअल":10984," फसलों":10985," चाकू":10986," पश्चात":10987," अत्याचार":10988," जानवर":10989,"विल":10990," बहाल":10991,"स्टेबल":10992,"देशी":10993," अनुपात":10994," मौर्य":10995,"192":10996,"तन्य":10997,"बिया":10998," मंदिरों":10999,"क्षत्र":11000," कमीशन":11001," बघेल":11002,"ight":11003," विद्वान":11004," जानकार":11005," लाए":11006," वैष्ण":11007," अर्जित":11008," Reg":11009,"न्देह":11010," चैल":11011,"पीठ":11012,"थल":11013," घटनाएं":11014," अवधारणा":11015,"तिर":11016," होय":11017," गम्":11018," उमेश":11019,"गारी":11020," मूल्यों":11021," श्रद्धालुओं":11022," बॉर्डर":11023," मौजूदगी":11024,"आपको":11025," सोनू":11026,"ण्डित":11027," सप्त":11028," at":11029," असि":11030,"्की":11031," आधी":11032," निंदा":11033,"गया":11034," उपाधि":11035," मैथ":11036," मंत्रिमंडल":11037,"ान्तर":11038,"दशी":11039," हवाला":11040," कम्युनि":11041,"लेन":11042," अमी":11043," एक्सपोर्ट":11044,"वैज्ञानिक":11045," तृण":11046," सेलि":11047," वर्णित":11048," मर्या":11049," अड्डे":11050," राजेंद्र":11051," कारोबारी":11052," उत्ते":11053," राउ":11054," मतदाताओं":11055," नंद":11056,"ॉप्टर":11057,"लांग":11058," टमाटर":11059,"फ्ल":11060," कैल":11061,"छाड़":11062," त्रिप":11063," उपाध्याय":11064," जॉर्ज":11065," प्रवासी":11066," संसाधनों":11067," मांगा":11068,"क्षिप्त":11069," श्रो":11070," माफिया":11071," व्हाइट":11072," जर्":11073,"पुल":11074," चोरों":11075," अनंत":11076," आर्यन":11077,"देख":11078,"दह":11079,"शाही":11080,"षी":11081," सतीश":11082," सकल":11083,"घरों":11084," पिच":11085," कॉपी":11086," पराज":11087,"ैम":11088," पत्रिका":11089," संवेदनशील":11090,"वाहित":11091," पूर्वा":11092," अकबर":11093,"-बा":11094," टेल":11095,"पीएस":11096," केयर":11097," बाजारों":11098," निराश":11099," स्पेन":11100," शाल":11101,"दिव":11102,"Don":11103," श्रमिकों":11104," उपभोक्ताओं":11105," मैक्स":11106," फेर":11107," भयानक":11108,"ड़प":11109," साधा":11110," पूर्वक":11111," पागल":11112," म्यूजिक":11113,"नीश":11114," नामों":11115,"पिछ":11116," फ्लैट":11117," पढ़े":11118," निरन्तर":11119," जडेजा":11120,"सीना":11121," पोषक":11122,"्तों":11123," साहित्यिक":11124,"दूत":11125," विवेचन":11126," नतीजा":11127," एंटर":11128," खेतों":11129,"लाव":11130," मौलिक":11131," महि":11132," बाप":11133,"ब्ध":11134,"ber":11135,"ड़ियां":11136," भगत":11137,"ौत":11138,"विजन":11139," सार्थ":11140," अभय":11141," ट्रेड":11142," मार्गदर्शन":11143,"२७":11144," डालते":11145,"ीदा":11146," ढाई":11147," निषे":11148," राजद":11149," मुठभेड़":11150," राउंड":11151," अभिभाव":11152," लड़कों":11153,"न्ने":11154," शीत":11155," फील्ड":11156," ग्राउंड":11157," सेंसर":11158," हौ":11159," हल्का":11160," आतंकवादियों":11161," अभ्यर्थियों":11162,"भक्ति":11163,"overnment":11164," ;":11165,"ich":11166,"ुम":11167,"आरसी":11168," रियल":11169,"शिक":11170," सम्बन्धित":11171," दुखी":11172," अनुभवी":11173," प्रॉ":11174," आवि":11175," टूर":11176," बढ़िया":11177,"पिंग":11178," विरासत":11179," नाराजगी":11180," जवाहर":11181," सौन्दर्य":11182,"निष्ठ":11183," बेंगलुरु":11184,"-पु":11185," चौंका":11186,"जेशन":11187,"गुप्त":11188," मांगों":11189," पहिले":11190,"महारा":11191," गवर्नर":11192," दर्शक":11193," उद्योगों":11194," रिलेशन":11195," चिंत":11196," वितरित":11197,"आम":11198,"राशि":11199," कुर्सी":11200," و":11201," नाल":11202," चाइ":11203," जोधपुर":11204," get":11205,"लाद":11206," Min":11207," अज्ञान":11208,"गाई":11209," आर्मी":11210,"िएट":11211," गुलाब":11212," ढा":11213," रेज":11214," लड़कियां":11215," Mar":11216," भगव":11217," नान":11218," अनाव":11219," आलोक":11220," टाइम्स":11221,"AS":11222," उपज":11223," डोज":11224," पश":11225," घृ":11226," ब्रज":11227," परिस":11228," कागज":11229," स्तन":11230,"धू":11231,"ंकिंग":11232,"ियाबाद":11233," आला":11234,"डेंट":11235," मोती":11236," ब्लू":11237," मानकर":11238," पीड़ा":11239," बनाती":11240," जूते":11241," आवाज़":11242," एसी":11243,"चाई":11244," कमांडर":11245," जश्न":11246,"-ल":11247," कोने":11248," विशेषताओं":11249,"्तार":11250," भागने":11251,"ेशर":11252,"eng":11253," वेल":11254," परिश्रम":11255," कूद":11256," इकाइयों":11257,"श्चिम":11258," रोमांच":11259," आभार":11260," पैनल":11261," विविधता":11262," वैध":11263,"ॉजिस्ट":11264,"सनी":11265," रिकार्ड":11266," ?\"\n":11267," दुर्लभ":11268," कोष":11269," मकस":11270,"ोभ":11271,"ब्बे":11272," एमपी":11273," lif":11274," गुलाम":11275," निहित":11276,"69":11277," अंडे":11278,"ुलकर":11279," इले":11280,"ii":11281,"acy":11282,"साइकिल":11283," सुशील":11284," इंतजाम":11285,"कथ":11286," गरीबी":11287," प्रबंधक":11288," टाल":11289,"व्":11290," सैफ":11291,"laim":11292," अफवाह":11293," मणिपुर":11294," हॉलीवुड":11295," शाही":11296,"Ph":11297," सज":11298," ओटी":11299," नाबाद":11300,"हिया":11301,"२१":11302," पसंदीदा":11303," शहद":11304," बहू":11305," नाज":11306," पंजाबी":11307," तैयारियों":11308," रूपों":11309," सिलसिले":11310," मकसद":11311," सिलेंडर":11312," happ":11313," रंजन":11314,"विन्द":11315,"न्हे":11316," बेशक":11317," फुटबॉल":11318," एसएसपी":11319," सिलसिला":11320," बस्ती":11321,"चेंज":11322," दार्शनिक":11323,"हमारे":11324," बरत":11325," भ्रमण":11326," इजाजत":11327," संतान":11328,"ंगत":11329," कैप्टन":11330,"WE":11331,"गृह":11332," फट":11333," सौभाग्य":11334," विस":11335," यौ":11336,"उंडेशन":11337," गहरे":11338," उठाते":11339," सोचते":11340," जादू":11341," पड़ोस":11342," कलेक्शन":11343," शुभकामनाएं":11344," अतीत":11345," रचनात्मक":11346," गम्भीर":11347," फ्लाइट":11348," गिरोह":11349,"भाजपा":11350,"२८":11351," सेवान":11352,"ुरी":11353," फाइल":11354," दिलीप":11355," मुहम्मद":11356," उठाना":11357," एसटी":11358," मूवी":11359,"मुच":11360,"ांतिक":11361," प्रभावशाली":11362," पक्षी":11363," वेश":11364," फू":11365," जानती":11366,"63":11367," चक्रवर्ती":11368," लेनी":11369," अब्दुल":11370," कन्":11371," चेष्टा":11372," अधिवक्ता":11373,"ोरेशन":11374," अकादमी":11375," एजेंट":11376,"05":11377," जैक":11378," ललित":11379," आरती":11380,"ायंस":11381,"ET":11382," जनस":11383," व्र":11384,"न्दगी":11385," चलना":11386," परिणामों":11387," कुंड":11388," निरीक्षक":11389,"चारा":11390," ईद":11391,"पना":11392,"ट्टे":11393," रंगों":11394,"म्य":11395," भांति":11396,"तुम्ह":11397," गहन":11398," jo":11399," शॉट":11400," इजाफा":11401,"शिष्ट":11402," टॉस":11403," मानवता":11404," दीक्षित":11405," दिवाली":11406," बहि":11407," प्रकृत":11408," रोम":11409,"ईडी":11410,"श्यप":11411," महादेव":11412," दशकों":11413,"800":11414," प्रीति":11415," घातक":11416," उपहार":11417,"जेक्शन":11418," सच्चे":11419," शॉप":11420,"यून":11421," कोयला":11422," असफल":11423," लेटेस्ट":11424,"ख्त":11425," समापन":11426,"irit":11427," पीस":11428," गृहस्थ":11429," गला":11430," अर्धशतक":11431,"शर":11432," बिस्तर":11433," हमलों":11434," छन्द":11435,"णिक":11436," वृत्ति":11437," कपल":11438," चलाई":11439,"साइटी":11440," असंभव":11441," सेकेंड":11442," फ़र":11443," सेमीफाइनल":11444,"बाह":11445," साफ़":11446," सितम्बर":11447," कर्मी":11448," कुंभ":11449," बंधन":11450,"कतों":11451,"रांत":11452," बताना":11453," फते":11454," ईरानी":11455,"09":11456," सलामी":11457," पिटाई":11458," गली":11459,"न्ग":11460," गाड़ियों":11461," ससुराल":11462," कोटा":11463," लाकर":11464,"ND":11465," प्रतीक्षा":11466," शेड":11467," अतिक्रमण":11468," पीटीआई":11469,"कने":11470," खाड़ी":11471," जौहर":11472," किराए":11473," शुभारंभ":11474,"बिहार":11475," सीतार":11476," दां":11477," कन्न":11478,"ासपुर":11479," सांसदों":11480,"ory":11481,"छित":11482," बुकिंग":11483," कठिनाई":11484,"eg":11485,"सायनिक":11486,"जीपी":11487," दक्ष":11488,"भ्य":11489,"लत":11490," साधक":11491," नीरज":11492," सेकंड":11493," ...":11494,"IC":11495,"edia":11496," लौटे":11497," सक्":11498,"त्नी":11499," चलो":11500," मानद":11501," इसपर":11502,"पेयी":11503," पुलिसकर्मियों":11504," Ass":11505," चुनौतियों":11506,"यूवी":11507,"बूझ":11508," मदन":11509," लापता":11510,"रक्षा":11511,"वीण":11512,"08":11513,"माव":11514," पैक":11515," पुस्तकालय":11516," राठ":11517,"estyle":11518," ठिक":11519," स्मिथ":11520," खाम":11521," सास":11522," उठी":11523," बर्तन":11524," विवादित":11525," विक्र":11526," विद्यालयों":11527,"स्करी":11528," मांसपेश":11529," पार्थ":11530,"नीर":11531,"-निर्":11532," have":11533,"तीस":11534," शौचालय":11535," गरम":11536," रेश":11537," समावेश":11538,"सीए":11539,"ूर्व":11540," राक्ष":11541," तहरीर":11542," सटीक":11543," हाईवे":11544," दुनियाभर":11545,"वाज":11546," बिल्डिंग":11547,"युद्ध":11548," सकेगी":11549,"pt":11550,"लीम":11551," कॉम":11552,"एमएस":11553,"ँव":11554," अकेला":11555," मासूम":11556," बैंकिंग":11557,"ाम्":11558," चैलेंज":11559," पार्किंग":11560," मायावती":11561,"igh":11562," टीचर":11563,"istr":11564," जुटा":11565," क्री":11566," दिखाते":11567," ण":11568," रिटर्न":11569," सोसाइटी":11570," बैन":11571,"ैर्य":11572,"ौप":11573," समृद्धि":11574,"ong":11575," एजुकेशन":11576," मांगे":11577,"ोदय":11578," सत्त":11579," चिं":11580,"88":11581," खाद":11582," जातक":11583," आकलन":11584," मारी":11585," महानगर":11586," न्यायमूर्ति":11587,"जवान":11588," उज":11589," इंडियंस":11590," विश्वसनीय":11591," भंडार":11592,"कांग्रेस":11593,"स्टन":11594," आदर":11595," लिहाज":11596,"विच":11597," निर्मल":11598," बर्बाद":11599,"हेल":11600," सिंगल":11601," दुल्हन":11602," छः":11603,"क्रोश":11604," रूपए":11605," सेवक":11606," पृथक्":11607," प्रिंट":11608," शैक्षिक":11609," टूल्स":11610," आंगन":11611," फोकस":11612,"ामु":11613,"िकारक":11614,"र्षि":11615," उपरोक्त":11616,"ष्ठान":11617," सहारे":11618," टर्म":11619," मजदूरी":11620," मेडल":11621," ट्रोल":11622,"man":11623,"नाग":11624,"ाइंट":11625," जीने":11626," केशव":11627," बटन":11628," गिनती":11629,"िक्सल":11630," नागरिकता":11631," नींबू":11632," लौटा":11633," मले":11634," बेंच":11635,"पीड़न":11636," मार्केटिंग":11637," ग्रो":11638," happen":11639,"मौ":11640,"ver":11641,"लिन":11642," पृष्ठभूमि":11643,"oh":11644,"िस्ट्रेट":11645,"ैसे":11646," काफ़ी":11647," कामकाज":11648,"नाल्ड":11649," शिफ्ट":11650," फैलाने":11651,"वाँ":11652," अपनाया":11653,"पंथी":11654," अनुदान":11655,"ivacy":11656," कलक":11657,"ाराम":11658," आटा":11659,"टू":11660," पढ़ेंः":11661," कैच":11662," जमाने":11663," नवम्बर":11664," छात्राओं":11665," निदेशालय":11666," परिवर्तित":11667," बंट":11668," पर्यटक":11669," मिमी":11670," मोटरसाइकिल":11671," महाराजा":11672," चर्":11673,"प्रो":11674," राइट":11675,"ther":11676," फाउंडेशन":11677," अंबानी":11678," बनेगा":11679," स्टील":11680," बुरे":11681,"मध्य":11682," खैर":11683," मीन":11684," अनुचित":11685," बिलियन":11686," एशियाई":11687," लोहे":11688,"भौ":11689,"िप्राय":11690," इंटी":11691,"्डी":11692," मार्क":11693,"07":11694," स्पीकर":11695," ज्ञानी":11696,"च्चारण":11697," पुतिन":11698," कर्ण":11699," बसा":11700," मांगने":11701," शॉर्ट":11702," आयकर":11703," गुस्से":11704,"रेख":11705," चलाते":11706," दिखता":11707,"्यारह":11708," क्षेत्रफल":11709," विद्वान्":11710," नास":11711," जरुर":11712," भारतवर्ष":11713,"छे":11714," much":11715,"िम्म":11716," अंग्रेजों":11717," क्ली":11718," खोले":11719," खरीदी":11720," वस्तुतः":11721," बर्थ":11722," कॉले":11723," गवाह":11724,"तांत्रिक":11725," यहा":11726," इशारा":11727," do":11728,"ुश":11729," उत्साहित":11730," sh":11731," जोकि":11732," Tra":11733,"ूण":11734," अक्त":11735," ख़िला":11736,"हाना":11737,"प्पल":11738," डील":11739," कट्टर":11740," तलाशी":11741,"anc":11742,"राष्ट्रपति":11743," विद":11744,"जैसे":11745," कॉर्प":11746," पंचायतों":11747," भजन":11748," तिलक":11749,"ोदिया":11750," पुरी":11751," अनुष्का":11752,"ोगु":11753," झटके":11754,"शियल":11755," घोड़े":11756,"ivers":11757," तैयारियां":11758," नाकाम":11759,"191":11760," सीमाओं":11761,"isclaim":11762,"कोण":11763," पंजीकृत":11764," बताता":11765,"नेता":11766,"लीफ":11767," टैग":11768," प्रतिबंधित":11769," एमएस":11770," सिक्योर":11771," छुट्ट":11772," तस्करी":11773,"गें":11774,"्ये":11775," श्वे":11776,"क्षीय":11777," फेड":11778," द्विवेदी":11779," कैफ":11780," साय":11781," सूख":11782," देखेंः":11783," क्ले":11784," परीक्षाओं":11785," पाचन":11786," लता":11787," सेले":11788,"वेदना":11789,"isclaimer":11790,"SE":11791," राशिफल":11792,"मान्य":11793," फलों":11794,"वायरस":11795," परत":11796," स्टडी":11797," व्यायाम":11798,"\\/":11799," अश्":11800,"oss":11801," एकत्रित":11802," चूक":11803," यकीन":11804,"ug":11805,"ौड़":11806,"दृश्य":11807," शमी":11808," स्वादिष्ट":11809," चाहें":11810,"त्रिम":11811," सिरे":11812,"किया":11813," ईसा":11814," updates":11815,"ल्ली":11816,"तरह":11817,"वित":11818," सौंपी":11819,"इया":11820,"ाब":11821,"नीति":11822," पेयजल":11823," सालाना":11824," सहस":11825," मुर्":11826,"गाव":11827,"टीसी":11828,"61":11829," असमर्थ":11830,"तुर":11831," करनेके":11832," सज्":11833," टोल":11834,"71":11835," कारक":11836," महिमा":11837," हिस्सेदारी":11838," दफ्तर":11839," राजाओं":11840," असह":11841,"700":11842," राघ":11843," हँस":11844," चांद":11845," संशोधित":11846," बाधित":11847," महतो":11848," संतुलन":11849,"dian":11850," हत्याकांड":11851," कपड़ा":11852," यूक्रेनी":11853,"बूत":11854,"ोंको":11855,"वाकर":11856,"iritual":11857," पासवान":11858,"िकरण":11859," खोजने":11860," आत्मविश्वास":11861," सचमुच":11862," स्पेस":11863," वर्गी":11864,"षक":11865," वाज":11866,"cc":11867,"02":11868," फाइबर":11869," फोटोज":11870," ईयर":11871," गाथा":11872," केक":11873," चित्रित":11874," देखेंगे":11875,"निर":11876,"----":11877," कार्बन":11878," लोकप्रियता":11879,"ुपयोग":11880," चाचा":11881," पड़ेगी":11882," स्टे":11883," टि":11884,"पिता":11885,"शब्":11886," खुफिया":11887,"मुक्त":11888,"गठ":11889," तैनाती":11890,"मू":11891,"फ़ा":11892,"तिया":11893," शर्तों":11894,"३६":11895," अनो":11896,"ph":11897," ऑफिसर":11898," business":11899,"दृष्टि":11900," ठहराया":11901," डाइट":11902," वीक":11903," लक्षणों":11904," शुगर":11905,"echn":11906," कटा":11907,"राती":11908," सम्यग्":11909," सख्ती":11910," सीपी":11911," पूछने":11912,"आन":11913," प्रैक्टिस":11914," तृणमूल":11915," एटीएम":11916," पग":11917," दार":11918," प्रसन्नता":11919," फुटेज":11920," इको":11921,"ोही":11922," चित्रण":11923," निभाने":11924," रेटिंग":11925,"प्रसाद":11926," पैसों":11927," पूर्णिमा":11928," सीओ":11929,"दायी":11930," बरसात":11931," अक्तूबर":11932,"क्टी":11933," स्मारक":11934," प्रवीण":11935," रोमन":11936," हमसे":11937," खेलना":11938," थेरेपी":11939," रासायनिक":11940," आईडी":11941," यूएस":11942," Am":11943,"oy":11944," तरल":11945," बायो":11946," तुझे":11947," बहाने":11948," फलस्वरूप":11949,"-पर":11950," फर्स्ट":11951," साधनों":11952,"स्थापित":11953,"बर्ट":11954," सम्बंध":11955," चैतन्य":11956," तेरी":11957,"Ch":11958," आक्रोश":11959," विचित्र":11960,"ेक्षित":11961,"ानन्द":11962,"ata":11963," बेन":11964,"ोषित":11965," अनुमो":11966," भयं":11967,"-ऑ":11968," रैंकिंग":11969,"98":11970,"्वत":11971," बडी":11972," परिचालन":11973,"खल":11974," खुलकर":11975,"ैग":11976,"सेल":11977,"रेगा":11978,"ditions":11979,"-साम":11980," बॉय":11981," बोतल":11982," आवंटित":11983," अनुभूति":11984," शैल":11985," पुकार":11986,"ुकता":11987," प्रशिक्षित":11988," स्थिरता":11989," मालिकों":11990,"्यां":11991," क्षत्र":11992,"na":11993,"भ्र":11994," अपनाने":11995,"कोरोना":11996,"प्रत्य":11997," पचास":11998,"फ्टी":11999,"पाली":12000,"२०१":12001," सुल्तान":12002," आईसी":12003," पारा":12004," विदेशों":12005,"चिक":12006," समझे":12007," बॉल":12008," पतन":12009," Sp":12010," चिल्ला":12011," व्यवस्थित":12012," कूट":12013," नेहा":12014," करु":12015," गाँधी":12016," मंजिल":12017," संग्रहालय":12018," सरो":12019," नकली":12020," संज्ञान":12021," उपन":12022," धाराओं":12023,"कॉ":12024," ऑयल":12025,"180":12026," शेयरों":12027," निकालकर":12028," औरत":12029,"पुत्र":12030," फूट":12031," बताती":12032," झुका":12033," लम्बे":12034," लह":12035," भली":12036," सेवानिवृ":12037,"मास":12038," डब्ल्यू":12039," विमानों":12040,"टों":12041," तेरा":12042,"erms":12043," वात":12044,"trology":12045," ड्राइव":12046," गौरी":12047," पुलिसकर्मी":12048," मिठाई":12049,"वर्ग":12050," उतारा":12051,"मेरी":12052," सिसोदिया":12053," सृजन":12054,"ीकृत":12055," गणराज्य":12056," सिंगर":12057," सर्दियों":12058,"समय":12059," सुखद":12060," spiritual":12061," केदार":12062,"धीर":12063,"ंगार":12064,"74":12065," पहुँचे":12066," धैर्य":12067,"टु":12068,"MS":12069,"स्टेट":12070," ख़िलाफ़":12071," उधार":12072," इसमे":12073," मूर्ख":12074," बंदूक":12075," व्यतीत":12076,"ब्रे":12077,"क्टर्स":12078,"190":12079," निःशुल्क":12080," प्रीमियम":12081,"अमे":12082," करि":12083," प्रग":12084," उजागर":12085," गणतंत्र":12086," लेगा":12087," मुन":12088," सूखे":12089,"RA":12090," नाच":12091," प्रतिकूल":12092," हानिकारक":12093," दीजिए":12094," रोचक":12095," मीरा":12096,"ani":12097," एक्सचेंज":12098," गर्दन":12099," ब्रि":12100," व्याप्त":12101," जोश":12102," बैंड":12103," सिंधिया":12104,"्यर":12105," धीमी":12106," कोमल":12107," इलेक्ट्रॉनिक":12108," दरों":12109," दस्तावेजों":12110," अष्ट":12111," हराकर":12112," मोटी":12113," उदयपुर":12114," दिलाई":12115," गाल":12116," अटैक":12117,"धियों":12118,"इससे":12119,"निर्भर":12120," व्हाट्स":12121,"03":12122,"माला":12123," अभिप्राय":12124," नियत":12125,"प्रकार":12126," अस्थायी":12127," पेमेंट":12128," खन्ना":12129," वाशिंगटन":12130," फोटोग्रा":12131," स्ट्राइक":12132,"र्वा":12133,"सिस्को":12134,"धड़ी":12135," बंजर":12136,"76":12137," भेदभाव":12138,"साथ":12139," भटक":12140," जेपी":12141,"गह":12142," हल्दी":12143," पत्ते":12144," नक्षत्र":12145," विराज":12146," Register":12147," दुबई":12148," प्रता":12149," झगड़ा":12150," मल्":12151," संग्राम":12152," फैन्स":12153," ग्यारह":12154,"फलता":12155," सेल्":12156," रजिस्टर":12157," शीर्षक":12158," प्रतिद्व":12159," वास्तु":12160,"ेशनों":12161,"ज़े":12162,"चरित":12163," नोटिफिकेशन":12164," जगदी":12165," प्रारूप":12166," मुसी":12167," हज":12168," AM":12169,"ucation":12170,"पिछले":12171," देहा":12172," मर्यादा":12173," इंकार":12174," केएल":12175," ज़मीन":12176,"बुद्ध":12177," असुर":12178," निदान":12179," ऑफिशियल":12180," अल्पसंख्यक":12181," हिला":12182,"राणिक":12183," रग":12184," सब्जियों":12185,"स्तुति":12186,"सरत":12187,"ement":12188," चंद्रमा":12189," पीएच":12190," महीना":12191," मित्रों":12192," ।'\n":12193," पड़ताल":12194," वॉल":12195," लड़ाकू":12196," गर्मियों":12197," ड्रग्स":12198," Ph":12199," गिरि":12200," जबलपुर":12201,"कप":12202," संवैधानिक":12203,"हरि":12204,"ुरू":12205," प्रमोशन":12206,"ax":12207," जेब":12208," समाय":12209," will":12210," श्वेता":12211," अन्ध":12212,"form":12213," नल":12214," ?\"":12215,"73":12216,"रीबन":12217," बजर":12218,"ideo":12219," नाते":12220," चलिए":12221," किट":12222,"धाना":12223," साई":12224,"णो":12225,"१९४":12226,"श्रम":12227," भयंकर":12228," $":12229," फाल":12230," संबद्ध":12231," स्टोरेज":12232," cities":12233," घटक":12234," उपर्युक्त":12235,"ज़रत":12236,"साइज":12237," शास्त्रों":12238,"इए":12239,"ठीक":12240," has":12241," फैक्ट्री":12242," दीं":12243,"ानुभूति":12244,"रेप":12245,"जन्म":12246,"ांट":12247,"नाइटेड":12248," jobs":12249,"06":12250," उत्पीड़न":12251," आसन":12252," अरोड़ा":12253," महाप":12254," यों":12255," रिलीज़":12256,"करों":12257," पहलू":12258," एसयूवी":12259," नारियल":12260," कश्यप":12261,"खाना":12262," निवारण":12263,"कवि":12264," अजमेर":12265," हेमंत":12266," जनजाति":12267," जिनको":12268,"ोका":12269," कालि":12270," बनाएं":12271,"वहार":12272,"ँसी":12273,"घ्न":12274," bollywood":12275," बृज":12276," मग":12277," विवादों":12278," क्रिस्ट":12279," मदर":12280," अब्दु":12281," शीतल":12282," व्याकरण":12283,"िएटर":12284," खां":12285," आब":12286," उद्यान":12287," डिमांड":12288," यूर":12289," रेत":12290," वोटिंग":12291,"04":12292," अतीक":12293,"io":12294,"ंडन":12295,"गिर":12296,"धो":12297," वसूल":12298," तीर":12299," Privacy":12300," शाहिद":12301," Cookies":12302," समाधि":12303," Conditions":12304," पूर्वोत्तर":12305," वसु":12306," महंगा":12307," आसार":12308," टेक्स":12309," डॉग":12310," बगैर":12311," सम्पर्क":12312,"वनेश्वर":12313," नागपुर":12314," lifestyle":12315," ऑस्ट्रेलियाई":12316," पण्डित":12317," कीर्ति":12318," Terms":12319,"MP":12320,"द्दाख":12321," गोविंद":12322," Pl":12323," जुटे":12324,"ire":12325," Agree":12326," पत्रों":12327," राजनाथ":12328," astrology":12329,"ैः":12330," गुड़":12331,"ंटन":12332," नसी":12333," रिज़":12334,"भवन":12335," लाठी":12336," सॉफ्टवेयर":12337," spirituality":12338," आक्रामक":12339,"सिया":12340,"दिया":12341," विंड":12342," ईस्ट":12343,"पीडिया":12344," नहा":12345,"हालांकि":12346," पिला":12347," स्क्":12348,"ूरती":12349," अन्याय":12350,"मराह":12351," बकाया":12352," जिलाध्यक्ष":12353," पूज्य":12354," नीलामी":12355," अस्वी":12356," WWE":12357," मजिस्ट्रेट":12358,"ंशिक":12359," कॉलेजों":12360,"युग":12361," बगल":12362,"भक्त":12363," चमत्कार":12364," प्रातः":12365," नवी":12366,"किम":12367," ग्रन्थों":12368,"ign":12369,"ED":12370," टैब":12371," Table":12372," सफलतापूर्वक":12373," क्लिन":12374,"ओल":12375," समझाने":12376," सिनेमाघरों":12377,"न्द्रिय":12378," चिकित्सकों":12379,"ाइज":12380," अर्चना":12381," बाज़ार":12382," our":12383," प्रसारित":12384," प्रास":12385,"श्मी":12386," लिहाजा":12387," अंदाजा":12388,"ry":12389," अव्य":12390,"ंधा":12391,"िनि":12392," सनातन":12393,"६०":12394," स्टेज":12395," जितेंद्र":12396," मुरा":12397," लक्ष्यों":12398," समझाया":12399," गाजियाबाद":12400," नक्सलियों":12401," तेंदुलकर":12402," उमर":12403," चलें":12404," धोखाधड़ी":12405,"कुमारी":12406," जावेद":12407,"ric":12408," कैंड":12409," रेस":12410," सबकी":12411," अगला":12412," लम्बी":12413," मजेदार":12414,"ake":12415," चिंतित":12416,"ोहित":12417," टेलीविजन":12418," तदन":12419,"मेरा":12420," अध्यापक":12421," कोशिकाओं":12422," सूबे":12423," जना":12424," उपेक्षा":12425," अनि":12426," भागवत":12427,"गोलिक":12428," मुआवजा":12429," दोगु":12430," सर्वत्र":12431," बसे":12432," स्वतन्त्रता":12433,"गेटिव":12434,"व्रत":12435," कैप्शन":12436," स्वामित्व":12437," औपचारिक":12438," मैक":12439," डायब":12440," नितिन":12441," पादु":12442," रिश्तेदार":12443," सर्वि":12444," कांड":12445," ज़रूरी":12446," निकाले":12447," देवेंद्र":12448,"इल":12449," श्रमिक":12450,"सर्व":12451," देशी":12452," मोहित":12453," नींव":12454," प्रेशर":12455,"एप":12456," दिश":12457,"शो":12458," जख":12459," टकरा":12460," एम्स":12461,"न्नत":12462," अग्रणी":12463," रूपी":12464," विभागीय":12465," जबरन":12466," आंखें":12467,"ौलत":12468," पारि":12469," पट्टी":12470," आँखें":12471," तरफ़":12472,"सभी":12473,"४०":12474," नरक":12475," अबतक":12476," यम":12477," आज़ा":12478," किराया":12479," कर्ता":12480," पका":12481," लगाये":12482," For":12483," रिलायंस":12484," दीक्षा":12485," वृष":12486," एडमिट":12487," शिक्षित":12488," दै":12489," गाली":12490," किस्मत":12491,"टरीना":12492," बया":12493,"टेल":12494," ज़रूर":12495," क्षय":12496," रतन":12497," प्राथमिकी":12498,"हद":12499," सरा":12500," क्रॉस":12501,"्वती":12502,"जहां":12503," व्यंज":12504," चार्":12505," महानिदेशक":12506," गम":12507," ट्व":12508," सिं":12509,"-भिन्न":12510,"ोके":12511," स्कूटर":12512," पैटर्न":12513," ससार":12514,"ठों":12515," संपादित":12516," जनसभा":12517," टीके":12518," संतुष्ट":12519," बचें":12520," उतरी":12521," बरेली":12522," ग्रेजुए":12523," प्रक्रियाओं":12524," बजकर":12525," रेड्डी":12526," चहल":12527," दमदार":12528," प्रकोप":12529,"ealth":12530," चाली":12531," वैल":12532," रणनीतिक":12533,"110":12534," अगुवाई":12535," सर्टिफिकेट":12536," बरस":12537," एनडीए":12538,"ण्डी":12539," असाधारण":12540," उपलब्धता":12541," गंध":12542," खूबसूरती":12543," जोड़कर":12544,"शहर":12545," बिछ":12546," जॉब":12547,"फरी":12548," मिथुन":12549," हकी":12550," नम्बर":12551," तथ्यों":12552," अभियुक्त":12553," ह्यू":12554," लगीं":12555,"-चार":12556," पुस्तकों":12557," चिट्":12558,"बाला":12559," उच्चारण":12560," काटकर":12561,"अर्थ":12562," अपितु":12563," शिल्प":12564," पौराणिक":12565,"प्रभाव":12566," कंटेंट":12567," खपत":12568,"साल":12569," नाइ":12570," समाप्ति":12571," पीट":12572," मौन":12573," एंजिल्स":12574," घंटा":12575,"वाहिक":12576,"योग्य":12577," रेस्ट":12578," पहनकर":12579," लंबित":12580," सैंपल":12581,"मंत्र":12582," शौक":12583," सितारों":12584," लटका":12585,"enc":12586,"माता":12587,"दाश्त":12588," अजीत":12589,"ड़के":12590," बुमराह":12591,"मिल":12592,"ress":12593," रामपुर":12594," खनिज":12595," rel":12596,"खाव":12597," रोमांटिक":12598," यूज":12599," किडनी":12600," ago":12601," सेब":12602," मत्":12603," चौड़ा":12604," प्राचार्य":12605," लिपि":12606,"शीट":12607," राख":12608,"बोर्ड":12609," अनुशासन":12610," प्रतिस्पर्धा":12611,"िनल":12612," लेखकों":12613," यूं":12614,"क्रिय":12615,"वीस":12616,"फुल":12617," निशाने":12618," चयनित":12619," श्रेणीः":12620," अनुश":12621," फंसा":12622," चंद्रशेखर":12623,"शियन":12624," पुरा":12625," प्व":12626," स्पिनर":12627,"ब्रह्म":12628," बाध्य":12629," निवेदन":12630," कृत्रिम":12631," ग्ला":12632," चट्ट":12633," सैनी":12634,"वासीय":12635," स्वयंसे":12636,"ौदा":12637,"्ज":12638," खातों":12639,"ोटी":12640,"ob":12641,"-नि":12642," जापानी":12643," सील":12644,"मान्":12645," वैद्य":12646," निर्माताओं":12647," टाइप":12648," अमरीकी":12649," दुकानें":12650,"मेव":12651,"रिटी":12652,"षु":12653," म्यू":12654," रजत":12655," संज्ञा":12656,"ंबल":12657,"-तीन":12658," बवाल":12659,"विद्या":12660," मानकों":12661," तत्पर":12662," लेखा":12663," संक्षिप्त":12664," कहर":12665," पेस्ट":12666," पाठकों":12667," भया":12668," अंगों":12669," संध्या":12670," जीती":12671," स्टेप":12672," रोह":12673,"IR":12674," अशुभ":12675," सीएस":12676," सिंघ":12677,"79":12678,"बेल":12679,"ंवर":12680,"AP":12681," एल्":12682," भौगोलिक":12683,"अंग":12684," अनुपम":12685,"एड":12686,"तिथि":12687,"Sh":12688,"पुलिस":12689,"...\n":12690," डें":12691," प्रशंसकों":12692," लाहौर":12693,"क्टेयर":12694,"रिज":12695," घबरा":12696," खट":12697," परेशानियों":12698," बेटियों":12699,"oron":12700," योजनाएं":12701," गृहमंत्री":12702," बग":12703," निकलता":12704," ऊंची":12705," सब्सिडी":12706," फिन":12707,"ks":12708," रखेंगे":12709,"थान":12710,"adh":12711," नमस्कार":12712,"यहां":12713," अधिग्रहण":12714," स्टेशनों":12715," गड्":12716,"हसास":12717,"धारित":12718," हरिद्वार":12719," खाई":12720," ख़ास":12721,"थो":12722,"सह":12723,"घन्य":12724," नॉन":12725,"र्पण":12726," शार":12727,"ैण्ड":12728," चिन्तन":12729," चारित्र":12730," जगा":12731," प्राप":12732,"ियाना":12733," कमलनाथ":12734," डीसी":12735," वोल":12736," श्रवण":12737," हड्ड":12738," बेव":12739," प्रवर्तन":12740," आड":12741,"मुखी":12742,"vi":12743," लद्दाख":12744," वाटर":12745," रिलेशनशिप":12746," देवगन":12747,"हिट":12748," समझकर":12749,"ष्मान":12750,"अर्":12751," दाग":12752," लैब":12753," बृहस्पतिवार":12754," कछ":12755," प्रोटोक":12756," सावन":12757," le":12758," पंक्ति":12759," गुणांक":12760,"वात":12761," क्षतिग्रस्त":12762,"पीएफ":12763," शरीफ":12764," खरीदारी":12765," लेफ्ट":12766," गोस्वामी":12767," डायल":12768,"रोल":12769," अनुसरण":12770," चंदन":12771," मक्":12772," संभवतः":12773," प्रिया":12774," मिश्रित":12775," मुकदमे":12776," त्यागी":12777," ट्रायल":12778," बिलासपुर":12779," भै":12780," उपनिष":12781," रिश्तों":12782," हेलीक":12783," सौरभ":12784," हमको":12785,"-बी":12786," यंत्र":12787," Q":12788,"किस":12789,"आईएएनएस":12790," जहर":12791," बेरोजगारी":12792,"र्थ्य":12793," बनाम":12794," ईवी":12795," पत्रकारिता":12796," प्रभार":12797," Disclaimer":12798," तकरीबन":12799," विरू":12800," कॉफी":12801,"ऊंगा":12802," उनपर":12803,"रिफ":12804," फीसद":12805," एकादशी":12806,"ंतरण":12807,"टीय":12808," नय":12809,"ेंशियल":12810,"दक":12811," अय्यर":12812,"र्मल":12813," ज्यों":12814," उपवास":12815," हटाया":12816," इष्ट":12817,"चर्य":12818," Up":12819," सनसनी":12820," माधु":12821," राइड":12822,"83":12823," प्रयोगशाला":12824," विश्वविद्यालयों":12825," निष्पक्ष":12826," श्रीनगर":12827,"सिद्धि":12828," हड़क":12829," मार्क्स":12830," किशोरी":12831,"www":12832,"िं":12833," स्थूल":12834," हिंसक":12835," एहसास":12836," कॉमेडी":12837,"फिल्म":12838," छाती":12839," प्रच":12840," ब्रांच":12841,"व्यापी":12842," सदस्यीय":12843," चुनने":12844," चन्द्रमा":12845," कीमतें":12846," मिस्र":12847," केम":12848," प्रोडक्शन":12849," गुणा":12850," क्वि":12851," गुफा":12852,"भाषित":12853," उपरांत":12854," م":12855,"-छा":12856,"पों":12857,"ations":12858," नृ":12859,"डमी":12860," परम्परागत":12861," रुका":12862," सुखी":12863," मुगल":12864,"चित्":12865," इनाम":12866,"आईएम":12867," Sc":12868," धनु":12869,"-भाषा":12870," संयोजन":12871," संयोजक":12872,"रोन":12873,"ेली":12874,"राजा":12875," गों":12876,"र्मेंद्र":12877," संलग्न":12878," निषेध":12879," तेज़":12880,"\"।":12881," खरा":12882," पशुप":12883," ऐश्वर्या":12884," लोकतांत्रिक":12885," सार्थक":12886,"CB":12887," सरपंच":12888," प्राणियों":12889," निकलते":12890," निका":12891," क्रूर":12892," जातीय":12893," सता":12894,"ors":12895," निरूप":12896," डिपार्टमेंट":12897," विश्राम":12898," जीबी":12899," उपमुख्यमंत्री":12900," छे":12901,"अम":12902,"हसुन":12903," नाह":12904," अटक":12905,"वला":12906,"IT":12907,"der":12908," संन्यास":12909,"IM":12910,"लीटर":12911," जायगी":12912,"lic":12913,"खिल":12914," पला":12915,"पादित":12916," संबोधन":12917," आवासीय":12918,"क्सीडेंट":12919," प्रमोद":12920," धर्मों":12921," रिश्वत":12922," दुष्ट":12923,"मांक":12924,"र्फ़":12925," पेंटिंग":12926," मृतकों":12927,"-रो":12928," गवर्नमेंट":12929," पादुकोण":12930,"मुक":12931," पैरा":12932,"The":12933," जगदीश":12934,"act":12935," शासकीय":12936," ईमानदारी":12937," मल्ल":12938," रिहा":12939,"tern":12940,"350":12941,"तोड़":12942," उज्ज्वल":12943,"स्पद":12944," ]\n":12945,"ie":12946,"िलाई":12947,"शिक्ष":12948," कैटरीना":12949," छेद":12950," ठेकेदार":12951," वोटों":12952," तकलीफ":12953," समुचित":12954,"SA":12955," अनू":12956," पाली":12957," कब्र":12958," दीवारों":12959,"रणीय":12960,"टेन":12961,"ोरा":12962,"ईस":12963," स्तु":12964," मनोवैज्ञानिक":12965," अद्वितीय":12966,"ection":12967," बहनों":12968," रेफर":12969," सेक्शन":12970," पांचवें":12971," जायें":12972," वध":12973," बढ़ाना":12974,"ंसू":12975," देवर":12976," आत्मनिर्भर":12977,"मिया":12978,"प्रभु":12979," सहयोगियों":12980," स्पॉट":12981," आएंगी":12982," हॉकी":12983," गांग":12984," अल्ट":12985," इन्द्रिय":12986," युवराज":12987,"इयां":12988,"ौरी":12989,"यता":12990," मरण":12991,"पीएम":12992," गोलीबारी":12993," वसा":12994," टार":12995," सीए":12996,"ise":12997," कड़े":12998," बेकार":12999," क्वालिटी":13000,"84":13001," निगाह":13002," छानबीन":13003,"नामी":13004,"न्ती":13005," फ्रांसिस्को":13006," लोभ":13007," लियो":13008,"योगी":13009,"चर्चा":13010," मांसपेशियों":13011," छोर":13012," उतने":13013," अभ्यर्थी":13014,"ियमित":13015," मिक्स":13016,"स्तरां":13017," चढ़ाई":13018,"वंशी":13019," Tablet":13020,"लीला":13021,"िच":13022,"्वित":13023," नड्डा":13024," उल्ट":13025," वैसी":13026," शिवाजी":13027," रसायन":13028," अडानी":13029," रहो":13030," प्रश्नों":13031," पांड्या":13032," मर्":13033," आवंटन":13034," रिंग":13035,"way":13036," लख":13037," करनेवाला":13038," बलिदान":13039," भावों":13040," संवेदना":13041,"पाकिस्तान":13042," दिलाया":13043," परवाह":13044," ध्रुव":13045," ed":13046," बँ":13047," द्विप":13048," कहानियों":13049," प्रम":13050,"३३":13051," उसपर":13052,"नपुर":13053," निर्देशों":13054,"ानंद":13055,"ालियों":13056," मोटे":13057," मायने":13058," मराठी":13059,"ोत":13060,"ारोप":13061,"ासित":13062," जेडी":13063,"इंडिया":13064," उज्जैन":13065," सन्देह":13066," दिलचस्पी":13067,"An":13068," गंवा":13069,"्रेसी":13070," सौदा":13071," उत्पादक":13072," हिन्दुओं":13073," तीव्रता":13074," धर्मेंद्र":13075,"-पू":13076," छेड़छाड़":13077," Man":13078," प्लानिंग":13079,"82":13080,"र्नर":13081," Dr":13082," डालना":13083," त्वर":13084," आरक्षित":13085," उतरने":13086," बडे":13087," प्रतिभाग":13088,"राउंडर":13089,"ृता":13090,"भीत":13091," त्रुट":13092," अख्तर":13093,"समाज":13094," माफ":13095," वोटर":13096," रियर":13097," जनक":13098," बचना":13099," आक":13100," विगत":13101," सिक्योरिटी":13102,"ग्नि":13103,"यूनियन":13104," जरूरतों":13105," समर":13106," एडमिशन":13107," अपार्टमेंट":13108," कंसल्ट":13109," et":13110," केके":13111," लेट":13112," छोड":13113," कंधे":13114," भास्कर":13115," विक्रे":13116," पुजारी":13117," मानवा":13118,"शॉर्ट":13119," छठ":13120,"ऐसे":13121," जंगली":13122," सिवा":13123," कराते":13124," असिस्टेंट":13125,"-छोटे":13126," तिन":13127,"्शा":13128," सोसाय":13129," कामयाबी":13130," त्रिपुरा":13131,"क्षकों":13132,"कल्पिक":13133," प्रत्याशियों":13134," व्यापारिक":13135," फ़िल":13136," जायसवाल":13137," व्याख्यान":13138," सच्ची":13139," लैपट":13140,"फोर्ड":13141," कस्ट":13142," सहानुभूति":13143," बदौलत":13144,"ome":13145," विधवा":13146," एनर्जी":13147," इमो":13148," बनारस":13149," संरक्षित":13150," श्रुति":13151," जं":13152," श्म":13153,"१९३":13154," पासपोर्ट":13155," चिकन":13156," अग्रिम":13157,"पहले":13158," दिखला":13159," तत्र":13160," ओपी":13161," पाएगा":13162," गोलियां":13163," स्कूली":13164,"वारा":13165,"89":13166," एससी":13167," BS":13168," दीपा":13169," इस्लामी":13170,"अपनी":13171," बहर":13172,"प्ला":13173," उठने":13174," पढ़ते":13175," सफ़":13176," तबी":13177,"सौ":13178,"IA":13179," Univers":13180," उठकर":13181," सुनाया":13182," वैकल्पिक":13183," मण्डल":13184," मस्ती":13185,"एसी":13186," लेनदेन":13187,"प्रश्न":13188," फैलने":13189,"सुख":13190," सस्ता":13191," पिक":13192," श्रुत":13193," पीले":13194,"कारण":13195," क़ान":13196," इल":13197," मीना":13198," खुर":13199," Election":13200," जाट":13201," साक्ष्य":13202,"सम्म":13203," चाहा":13204," टाइट":13205," ओटीटी":13206,"ब्राह":13207," सवारी":13208,"क्राइ":13209," मेकर्स":13210," गुन":13211," पहुंचते":13212," एक्सएनयूएमएक्स":13213," सुक":13214,"िविटी":13215,"नोई":13216,"ुए":13217," स्वतः":13218," देन":13219," सुमन":13220," विरूद्ध":13221," दूंगा":13222," घृणा":13223,"एचओ":13224," बढ़ेगी":13225,"दूस":13226,"me":13227," वच":13228," भूपेश":13229," अनिश्चित":13230," पर्दा":13231," विशेषकर":13232,"ॉयड":13233," ग्रैंड":13234," ज़िम्म":13235," भती":13236,"द्वाज":13237," बतलाया":13238," जातकों":13239,"ंत्रण":13240," लिखना":13241," सर्वप्रथम":13242," किसे":13243," तेलु":13244," मनोविज्ञान":13245,"यराम":13246,"108":13247," नवाब":13248," बेसिक":13249,"कॉम":13250," बीती":13251,"्टा":13252," अभियंता":13253," ग्रेड":13254," मच्छ":13255," पट्ट":13256," बैंगल":13257," परो":13258,"कारिणी":13259," मिनी":13260," मीणा":13261," पोट":13262," गड":13263," ताइ":13264," खिड़की":13265," डिस्ट":13266," आकांक्षा":13267," छुपा":13268,"-पत्र":13269," अमन":13270,"मां":13271," di":13272," मतगणना":13273,"ष्ठी":13274,"फ़ो":13275," देवा":13276," दिव्यांग":13277,"विष्ट":13278," हेक्टेयर":13279," हीरा":13280,"प्रतिनि":13281," रेग":13282,"श्ती":13283," चुपचाप":13284," बुलंद":13285," प्रदर्शनी":13286," नर्म":13287,"old":13288,"ould":13289," करन":13290," तोमर":13291," गांगुली":13292," हड़कंप":13293," कोठ":13294,"द्मा":13295," नाश्":13296," बढ़ेगा":13297," नमी":13298,"जली":13299,"श्मीरी":13300," हेल्प":13301,"ific":13302," स्पेशलिस्ट":13303," पुद्":13304," तपस्या":13305," शिल्पा":13306," इलेवन":13307,"ोकर":13308," कहो":13309," सल्ल":13310,"गेड":13311,"गमेंट":13312,"ंगर":13313," वु":13314," सचिवालय":13315,"दयू":13316," जप":13317," पीजी":13318," रेस्तरां":13319," सस्ते":13320,"भावस्था":13321,"त्तरी":13322,"हारा":13323," सुष":13324,"फु":13325," कोले":13326," कैरियर":13327,"जनन":13328,"oto":13329," आस्ट्रेलिया":13330," दमन":13331,"सला":13332,"स्टिव":13333," मोन":13334,"oday":13335,".)":13336," App":13337," वाजपेयी":13338," साकार":13339,"लाइका":13340," होस्ट":13341," छठे":13342," राउत":13343," बदलते":13344," कुलपति":13345,"ामदायक":13346,"130":13347," Modi":13348,"एगी":13349,"र्टर":13350,"ैनी":13351," एंबुल":13352," ताला":13353," विश्वनाथ":13354," सातवें":13355," भुवनेश्वर":13356,"मानस":13357," तुला":13358," रिटायर":13359," सुसाइड":13360," रहेंगी":13361," स्तुति":13362," महामंत्री":13363,"ोको":13364,"्लाई":13365," पूल":13366," जेम्स":13367,"शॉर्टकट":13368," तले":13369," हार्ड":13370,"ोधी":13371," मददगार":13372," जैविक":13373," प्रामा":13374,"ियर्स":13375,"उड":13376,"नात्मक":13377,"कास्ट":13378," बाँध":13379," करेंः":13380,"ंटा":13381," गृ":13382,"स्तरीय":13383,"दशा":13384," जघन्य":13385,"राजस्थान":13386," विशेषज्ञता":13387," मस्क":13388," भाष":13389," तुरन्त":13390," हड्डी":13391,"शॉर्टकटः":13392,"पृ":13393," अवलोक":13394," निर्मला":13395,"125":13396,"per":13397," पृथक":13398," परफॉ":13399," मेहमानों":13400," कोटि":13401," हालिया":13402,"यूनियनपीडिया":13403,"रथ":13404," सिद्धांतों":13405," रुद्र":13406,"कप्तान":13407," लहसुन":13408," व्यंजन":13409," वैभव":13410," फरी":13411," संभालने":13412," बंदरगाह":13413," आयुष्मान":13414," झड़प":13415," इंग्लिश":13416," स्ट्रीट":13417,"कथित":13418," वैक्सीनेशन":13419,"म्भव":13420," गुला":13421,"जील":13422,"िमय":13423," सेल्फी":13424," नशा":13425," विकेटकीपर":13426," निर्दिष्ट":13427,"ond":13428," पार्वती":13429," एकीकृत":13430," प्रधाना":13431," क्षु":13432," निकासी":13433," तबीयत":13434," एंबुलेंस":13435," UP":13436,"फै":13437," सुरेंद्र":13438,"िटल्स":13439,"डेड":13440," संपादक":13441,"ara":13442,"पुरम":13443,"ौरा":13444," प्रोटोकॉल":13445,"मेह":13446," यूए":13447," अवशेष":13448," फास्ट":13449," समुदायों":13450,"बाड़ी":13451," सितारे":13452," अपेक्षाकृत":13453," तुमसे":13454," होनेसे":13455,"ढ़ियों":13456,"160":13457,"ele":13458,"ेण":13459," कांस्टेबल":13460," बचाया":13461," उलझ":13462," पूँ":13463,"कह":13464,"ॉफ":13465," सुस":13466," मंजूर":13467," सोसायटी":13468," सिर्फ़":13469," मिलन":13470,"फ्रा":13471,"िटर":13472," विक्की":13473,"-जा":13474," Shar":13475," इमेज":13476," श्रद्धालु":13477,"ज़ों":13478," कहेंगे":13479,"काउंट":13480," आरामदायक":13481," सबकुछ":13482," अवसरों":13483," मम":13484," मोर्चे":13485," आभूषण":13486,"रियल":13487," आंशिक":13488,"्यूशन":13489,"वियर":13490," IPL":13491," आईएएस":13492," हज़रत":13493,"पादक":13494," प्रगट":13495," डायबिटीज":13496," रहमान":13497," सिग":13498," दस्त":13499," वैष्णव":13500," योद्धा":13501,"ंशी":13502," इक्":13503,".,":13504,"गिन":13505,"िजय":13506," गड़बड़ी":13507," पेरिस":13508," बालिका":13509," यहू":13510," त्वरित":13511,"ल्हे":13512,"ोनेशिया":13513,"केंद्रीय":13514,"सबसे":13515," अनदे":13516,"ऐसा":13517,"ute":13518," जायजा":13519,"पाट":13520,"ons":13521,"ali":13522," साइकोल":13523," टेनिस":13524," गंदगी":13525,"ोंकी":13526," खाया":13527,"्ठ":13528," वास्तविकता":13529,"जीन":13530," फौज":13531,"eh":13532," जाव":13533,"पिक्सल":13534,"रूपी":13535," रॉकेट":13536," वल":13537,"तब":13538," फैली":13539," परिभाषित":13540," सतत":13541," हत्य":13542," मठ":13543,"चेत":13544," CO":13545,"फोड़":13546," मानवाधिकार":13547," पटा":13548," पदो":13549," शम":13550," वर्जन":13551," पॉपुलर":13552," बेबी":13553,"ैंक":13554," मास्को":13555,"न्ते":13556," बैनर":13557," ओवरों":13558," धक्का":13559," मोट":13560," हिंदुओं":13561," लकी":13562," तंज":13563," गाया":13564," हार्म":13565," मुसीबत":13566,"ल्चर":13567," ad":13568," होनेपर":13569," संवत्":13570," लैपटॉप":13571," दोषियों":13572,"यर्स":13573,"यहाँ":13574,"स्कूल":13575,"नाज":13576," डिस्क":13577," सोरेन":13578,"91":13579," अभिनव":13580,"गठबंधन":13581," आवे":13582," :-":13583,"रावती":13584,"मेक":13585," स्टार्टअप":13586,"पूर्ति":13587,"लेक्":13588,"ER":13589," कर्क":13590," सान":13591,"फिल":13592,"ीरपुर":13593,"kh":13594," निरस्त":13595," धर्मशाला":13596," ब्यूटी":13597," हिन्दु":13598," डेंगू":13599," रोने":13600," कीं":13601," वन्य":13602,"मार्":13603," फेमस":13604," स्वे":13605," गुहार":13606," पीड़ितों":13607," स्ल":13608," रचनाओं":13609," कारी":13610," झां":13611," नफर":13612," आगम":13613," ठग":13614," खासतौर":13615," एमडी":13616,"ूंगी":13617," वायुसेना":13618,"81":13619,"ाहे":13620,"-वे":13621," बोलना":13622," Government":13623," रैम":13624," इनकम":13625,"पोल":13626,"-ड":13627," क्रमांक":13628," ट्रि":13629," स्पर्":13630," डिवी":13631," समता":13632," गार्डन":13633,"NA":13634,"शुदा":13635,"सां":13636," धनराशि":13637,"ऊं":13638," रत्":13639,"गौर":13640," ठगी":13641," बनवा":13642,"echnology":13643," आमने":13644,"जेक्ट":13645," मोटा":13646," अरुणा":13647," सर्विसेज":13648," गुर्जर":13649,"UP":13650," मूव":13651,"पीसी":13652,"दित्य":13653," द्वेष":13654," किम":13655," शंका":13656," प्लेटफार्म":13657," देओल":13658," आशय":13659,"-जैसे":13660,"anch":13661," दिग्व":13662," जिज्ञ":13663,"-पूर्व":13664," कुशवाहा":13665," पायी":13666," ब्रिज":13667,"एनजी":13668," पेन":13669," मूड":13670,"ौनी":13671," आगा":13672,"92":13673,"-ध":13674," क्षत्रिय":13675," प्रवृत्त":13676," हमलावर":13677,"370":13678," कार्यशाला":13679," अंगू":13680," चौराहे":13681,"ज्जित":13682," अहंकार":13683,"विचार":13684," पक्षियों":13685," बैक्टी":13686," सुधारने":13687," अवध":13688," लय":13689,"दीन":13690," झुक":13691," ब्रिगेड":13692," लाज":13693," जहरी":13694,"इंट्स":13695," प्रहार":13696,"कित":13697,"ल्थ":13698," विलास":13699," नक्":13700,"ेक्स":13701," विलियम":13702,"डार":13703," ओबीसी":13704,"शम":13705," रित":13706,"बिग":13707,"IS":13708," खुलने":13709,"िडेट":13710," डेम":13711," दवाई":13712," कुत्तों":13713,"गीत":13714," संक्षेप":13715,"समु":13716," जंगलों":13717," सूट":13718," पनीर":13719," गन":13720,"जेडी":13721," नमः":13722,"सेंट":13723,"ात्मक":13724,"न्नति":13725," सुदृ":13726," प्रतिज्ञा":13727," चेन":13728," सस्प":13729," अपन":13730," एक्सर":13731," अनियमित":13732,"'।":13733," नकदी":13734," गाव":13735," वरना":13736," सवा":13737," धनुष":13738," केन":13739," आदम":13740," कराकर":13741," भ्रष्ट":13742," मारुति":13743," ch":13744," सम्भावना":13745," मलाइका":13746," रश्म":13747," सोचना":13748," भगा":13749," आराधना":13750," सस्ती":13751," डेवलपमेंट":13752," कूल":13753,"ल्डर":13754," गिफ्ट":13755," गद्य":13756," निभाया":13757," देखती":13758," सैय":13759,"संच":13760," आओ":13761," उनमे":13762,"ार्ता":13763," वीरेंद्र":13764," द्विपक्षीय":13765," सैलरी":13766," नवीनतम":13767," University":13768,"हमें":13769,"ार्जुन":13770,"यः":13771,"ामि":13772,"बलों":13773,"िसार":13774," दीख":13775,"वियों":13776,"१९२":13777," गिलास":13778,"दोष":13779," एडिट":13780," हेलीकॉप्टर":13781," उपद्र":13782,"वाट":13783,"tra":13784," फिल्मी":13785," ड्राइविंग":13786," सुपरहिट":13787," जैव":13788,"ann":13789,"ism":13790," भिक्षु":13791," डायरेक्ट":13792," सोनम":13793," बांस":13794,"द्रव्य":13795,"-छात्रा":13796," सुप्र":13797," रिश्तेदारों":13798," परीक्ष":13799,"रेस्ट":13800," डीएसपी":13801," परिशिष्ट":13802," टिका":13803," सामर्थ्य":13804," भिड़":13805,"स्मा":13806,"गना":13807," नकल":13808,"यूपी":13809," शशि":13810," अपार":13811," यूनाइटेड":13812,"atch":13813," Cl":13814,"86":13815," तंग":13816,"जरा":13817," हैरानी":13818," शिकायतों":13819," रजनी":13820," किसने":13821," इज़":13822,"ूष":13823," सड़कें":13824," मेजर":13825," कलकत्ता":13826," संधि":13827," उछाल":13828," हनी":13829," थिएटर":13830,"ings":13831," कमाने":13832," बजरंग":13833," पकड़कर":13834," पराजित":13835," संगठित":13836,"अव":13837," वेग":13838," जदयू":13839," रैंक":13840," Rec":13841,"ोनिक":13842," सिंगापुर":13843," वासना":13844,"बाय":13845,"सास":13846,"डीओ":13847,"राल":13848," वनस्पति":13849," दादी":13850,"sy":13851," चौदह":13852," महर्षि":13853,"स्तिक":13854," अलै":13855," इमरजेंसी":13856," चैम्प":13857," कारगर":13858," छोड़ना":13859,"कड़":13860," आमदनी":13861," स्टूडेंट":13862," बाबर":13863," जयराम":13864," नारेबाजी":13865,"aid":13866," होल":13867," टु":13868," अश्लील":13869,"-दु":13870,"िकल्प":13871,"३५":13872," ताना":13873," औषधि":13874," अपेक्षित":13875," प्रॉप":13876," शेफ":13877,"गान":13878,"ित्री":13879,"माना":13880,"डन":13881," सर्किट":13882,"धारकों":13883," सिवाय":13884," नक्सली":13885," ग्रंथों":13886,"१९५":13887," भैया":13888,"जन्य":13889," इण्ड":13890," मतों":13891," नबी":13892," ent":13893," टिप्स":13894," ع":13895," कमला":13896," अतुल":13897," धनी":13898," दुआ":13899,"शास्त्री":13900,"नारायण":13901," Comm":13902," एमएल":13903," अणु":13904," अभिम":13905," कॉर":13906," दर्जनों":13907," मनमोहन":13908," श्रीम":13909,"सरकार":13910," प्रदर्शनकारियों":13911," पेड़ों":13912," सुविधाजनक":13913," नौजवान":13914," रॉयल्स":13915," पहुँचने":13916," अपराधों":13917," लाभदायक":13918," वाणिज्यिक":13919,"कीर्ण":13920," उपभोग":13921," एमबी":13922," संघीय":13923,"hah":13924," नामित":13925," कमजोरी":13926," लांच":13927,"ital":13928," थक":13929,"LA":13930,"ict":13931," लिट":13932," डिस्काउंट":13933,"ainment":13934," ऑस्ट":13935,"ण्ण":13936," आरबीआई":13937," समू":13938," नफरत":13939,"ox":13940," एजें":13941," विवश":13942," प्रावधानों":13943,"ुद्दीन":13944,"तावास":13945," बुलेट":13946," `":13947," स्टार्स":13948," निकलकर":13949," New":13950," कुरु":13951," सोलह":13952," श्राव":13953,"ारूढ़":13954," घटनाक्रम":13955,"चय":13956," चाँ":13957,"ाव":13958,"शाक":13959," रिएक्शन":13960," मैग":13961,"96":13962,"बेट":13963,"तिके":13964,"्वरी":13965," ऑलराउंडर":13966," नकद":13967,"ोग्य":13968," शास्त्रीय":13969," चालान":13970,"दं":13971," भड़क":13972," लोहा":13973," दिलों":13974,"oor":13975," आत्":13976," अर्थशास्त्र":13977," Inst":13978," नरम":13979," भरकर":13980,"-तरह":13981," मामा":13982," त्यौ":13983,"कानेर":13984,"af":13985," गुड":13986," इरादा":13987,"िल्ल":13988," इमाम":13989," अपरि":13990,"स्फ":13991,"डीएफ":13992,"लास":13993," बाएं":13994," एएन":13995,"eb":13996,"ख्ता":13997," चौंकाने":13998," तबाद":13999," सभापति":14000," जहाजों":14001," बेरोजगार":14002," प्रणाम":14003," खड़":14004," जनगणना":14005," टूटने":14006,"शब्द":14007," डोनाल्ड":14008," महागठबंधन":14009," दुरुपयोग":14010,"विड़":14011,"क्ले":14012," डिफेंस":14013," ईंट":14014,"ल्श":14015," नमाज":14016," प्रतिपक्ष":14017," तहसीलदार":14018,"pl":14019," नं":14020," हास्य":14021," प्रोड्यू":14022,"-इन":14023,"मनी":14024," अजित":14025," पूनम":14026," कश्मीरी":14027," पीसी":14028,"ण्डा":14029," पितृ":14030,"प्रेम":14031,"umb":14032," हता":14033,"क्तियों":14034," डोर":14035," टीएमसी":14036," Minister":14037," फेस्टिव":14038,"िलो":14039,"कारिता":14040," काज":14041,"जोत":14042," अमृतसर":14043," बान":14044," मुहर":14045," pro":14046,"काई":14047," तैर":14048," नॉर्थ":14049,"िनेंट":14050," मौलाना":14051," अन्ना":14052,"िज्म":14053," जुलूस":14054,"कूट":14055," प्रोसेस":14056," किय":14057," Pradesh":14058," साँ":14059," स्टूडियो":14060," अंतराल":14061,"स्फी":14062,"ीडी":14063,"पुराण":14064,"BC":14065," पकाने":14066," छत्र":14067,"राग्य":14068," दांत":14069," बताओ":14070," Sch":14071," वर्चुअल":14072," रोमांचक":14073,"िप्":14074," चार्जिंग":14075,"र्मेंस":14076,"कक्ष":14077," आंसू":14078," कुचल":14079," अध्यात्म":14080," पीयू":14081," सज्जन":14082," लोकल":14083," अंततः":14084," बदलकर":14085,"बिज":14086,"पकों":14087," बैंगलोर":14088," फेफ":14089," पहाड़ों":14090,"ोजर":14091," लाइक":14092," दुकानदार":14093,"ड्डू":14094," प्रस्तुति":14095,"१००":14096," सुहा":14097," पीना":14098," समीकरण":14099," कीजिये":14100," छी":14101," अवलोकन":14102,"दगी":14103,"own":14104," होगे":14105,"ंदों":14106," चर्चित":14107," कम्युनिस्ट":14108," महंगी":14109," हलचल":14110," बर्फबारी":14111," दिग्विजय":14112," पढ़ना":14113," इंजेक्शन":14114," उपयोगकर्ता":14115," भविष्यवाणी":14116,"सेसर":14117," ईशान":14118," संगम":14119,"ame":14120," गर्भावस्था":14121," सीआरपी":14122," ज़ोर":14123,"हासन":14124,"पतियों":14125,"माई":14126," नेक":14127," भरोसे":14128," पडे":14129,"टकी":14130," विंग":14131," शस्त्र":14132," कैपिटल्स":14133,"ग्रन्थ":14134," कैंडिडेट":14135,"यरी":14136," दूतावास":14137," मार्गों":14138," एलान":14139," सर्जन":14140," बाहु":14141," Ka":14142," पटरी":14143,"ान्यास":14144,"न्ता":14145," प्रह":14146," नीच":14147,"ग्वेद":14148," चुक":14149," आर्टिस्ट":14150," जर्न":14151," वरीय":14152," प्रप":14153,"त्तव्य":14154," डिस":14155,"ाफ्ट":14156," समर्पण":14157," धोने":14158," डेल":14159," इन्द्रियों":14160," बेसब":14161,"दक्षि":14162," रेख":14163,"२९":14164,"PS":14165," स्पष्टीकरण":14166," स्फ":14167," नुस्":14168,"३४":14169," गांधीजी":14170," बक":14171," मिर्जा":14172," पसन्द":14173," दस्तक":14174," Co":14175,"शोर":14176,"तियाँ":14177," हमीरपुर":14178," उपग्रह":14179," निर्वाचित":14180," दलील":14181," हाफ":14182," me":14183," कद":14184," सुधा":14185," related":14186,"प्रे":14187,"षाय":14188," निर्दोष":14189," सेलिब्र":14190," सभ्य":14191,"र्फ्यू":14192," सांप्र":14193,"वैसी":14194,"थन":14195,"endra":14196,"कार्प":14197," हरीश":14198," इनपुट":14199,"ेंसिंग":14200,"दानी":14201,"book":14202,"साथी":14203," निर्दलीय":14204," राघव":14205," जोड़ों":14206," पाटिल":14207," Day":14208,"ta":14209," प्वाइंट":14210," pl":14211," आविष्कार":14212," एलर्जी":14213," बुलाई":14214," चैट":14215,"reat":14216," सरसों":14217,"डीसी":14218," बताएंगे":14219,"क्त्व":14220," फ़ोन":14221," एक्सरसाइज":14222,"ंख्य":14223," उद्देश्यों":14224," दहशत":14225,"िनो":14226,"इसलिए":14227,"महल":14228," एकाग्र":14229," कंक":14230,"हाउस":14231," तोड़कर":14232," अनुकरण":14233,"जनी":14234," नोक":14235," घुटने":14236," जलाने":14237," शांतिपूर्ण":14238," प्रॉपर्टी":14239," रुके":14240," मान्यताओं":14241," क्रिप्ट":14242," गरि":14243," ड्रामा":14244," चिट्ठी":14245," जूस":14246," गोपनीय":14247," दिखाकर":14248," सूद":14249," दंप":14250,"र्गे":14251," मद्र":14252,"लोरी":14253," बहरहाल":14254,"टेनमेंट":14255," धरने":14256,"िंग्स":14257," दुष्प्रभाव":14258," वेदों":14259," पोज":14260," BJP":14261," un":14262,"जाही":14263,"दान्त":14264," माप":14265," स्वाधीन":14266," सुमित":14267," बाजी":14268,"ोंसे":14269," उबाल":14270," उग":14271," सिले":14272," काठ":14273," दूँ":14274," अनूप":14275,"ina":14276," शॉ":14277," काफ":14278,"०००":14279," भावुक":14280,"140":14281," ऑडियो":14282,"नां":14283," लेगी":14284," नर्सिंग":14285,"//":14286," पों":14287," भारद्वाज":14288," किताबें":14289," दर्दनाक":14290," बताएं":14291," शोरूम":14292," हेल्दी":14293,"जीपुर":14294," कंड":14295,"एनए":14296," बयानों":14297," फ़ैस":14298," थम":14299,"वांस":14300," उक":14301," सत्यापन":14302,"क्कड़":14303," प्या":14304," कर्फ्यू":14305,"ृत्ति":14306," थकान":14307," तर्ज":14308," बुराई":14309,"मताओं":14310,"वॉ":14311," गन्ना":14312,"क्म":14313," प्रतिपादन":14314," शिलान्यास":14315," डेन":14316," ग्राफ":14317,"दरअसल":14318,"जद":14319," वैन":14320,"हीत":14321," फतेह":14322,"सेक्स":14323," दिखी":14324,"वर्तमान":14325," अंधेरे":14326," लटक":14327," प्रजनन":14328," सीने":14329," ढी":14330," etc":14331,"िक्ट":14332," ट्यूब":14333," अस्थिर":14334," उलट":14335," बडा":14336,"vel":14337,"पाक":14338," आयुष":14339," अलीगढ़":14340,"umar":14341," मुजफ्फरनगर":14342,"न्नाथ":14343," सबक":14344," क्वार्टर":14345," कस्बे":14346," विषा":14347," प्यारी":14348," एनएच":14349,"राबरी":14350," वीजा":14351," बम्बई":14352," पुस्तकें":14353,"फेक्शन":14354," डिजाइनर":14355," रिम":14356," षड":14357," दिग":14358," तथाकथित":14359,"िनेशन":14360," कास्ट":14361," मशीनों":14362,"पंजाब":14363," उपयोगिता":14364," भाभी":14365,"भोपाल":14366," कैदियों":14367," भावी":14368," जोग":14369," देवे":14370," शॉपिंग":14371," विशुद्ध":14372,"शंस":14373," जीन":14374,"87":14375," नाट्य":14376,"-घ":14377,"97":14378," बहिष्कार":14379," प्रणालियों":14380," तिस":14381,"्ह":14382," ऋतिक":14383," खाकर":14384,"मनु":14385," मेजबानी":14386," ट्राई":14387," ब्राह्मणों":14388," महंगे":14389,"होत्रा":14390," कार्यकारिणी":14391,"विंदर":14392,"ज़ल":14393," बजाए":14394,"३१":14395," माइन":14396,"वड़ा":14397," आवाजाही":14398," मुख्यतः":14399,"गाम":14400," हीन":14401," अन्तः":14402," प्रेग्न":14403,"विता":14404," कण":14405," Delhi":14406," शिरकत":14407," तद":14408,"वनि":14409,"ihar":14410,"अरे":14411," स्वदेशी":14412," पुरोहित":14413,"सक":14414,"प्य":14415," टेस्टिंग":14416," विस्फोटक":14417,"बूझकर":14418," वनाधिकार":14419,"कोच":14420," ग्ले":14421," तिरंगा":14422,"रचना":14423," समीर":14424," हाइड्र":14425," मंथ":14426,"ove":14427,"बूल":14428," अनावश्यक":14429," बर्दाश्त":14430," असामान्य":14431," फ्ले":14432," स्वर्":14433," घेरे":14434," खरीदना":14435," विधा":14436," प्राधिकारी":14437,"IPL":14438,"बिट":14439," लोकमत":14440,"ृश्य":14441," Stay":14442," यार":14443," CM":14444,"-क्या":14445," पर्यवे":14446," परेड":14447," Go":14448," Raj":14449," लोकेशन":14450," मिलाएं":14451,"गि":14452,"देय":14453,"emb":14454," त्यौहार":14455,"दर्द":14456," कोरोनावायरस":14457,"राइट":14458," सिग्":14459,"Th":14460," स्ला":14461," युक्ति":14462," फिरोज":14463," आरएसएस":14464," शिकायतें":14465," पांव":14466,"चलन":14467,"जक":14468,"लीट":14469," चलेगी":14470,"आरआर":14471," आयाम":14472,"ile":14473,"्युन":14474," दहेज":14475," सड":14476," सेवानिवृत्त":14477," लाते":14478," ज़िले":14479," उदासीन":14480," एलि":14481," लत":14482," शवों":14483," प्रतिबि":14484," रनौत":14485," he":14486," मेष":14487,"थियों":14488," भां":14489," सेशन":14490,"रीज़":14491,"क्राइब":14492," जनप्रतिनि":14493," मुहूर्त":14494," ढाल":14495,"93":14496," स्रोतों":14497," केअ":14498," असंत":14499," मूत्र":14500,"वनी":14501," एनसीपी":14502,"गोर":14503," स्ट्रीम":14504," सोचता":14505," बाउ":14506," गोदाम":14507," रूबल":14508,"तानुसार":14509," updated":14510," विभू":14511," पिताजी":14512,"क्षु":14513," x":14514," प्रसं":14515," वसंत":14516," रोमांस":14517," ऊंचा":14518,"शिला":14519," प्रथ":14520," बुलाकर":14521,"क्यूमेंट":14522,"नायक":14523," टारगेट":14524,"वर्स":14525," बोस":14526,"अभी":14527," प्रतिनिधिमंडल":14528,"ऐप":14529,"ery":14530,"पटना":14531," प्रतिभागियों":14532,"-स्":14533," एकेडमी":14534," चारा":14535," कनेक्टिविटी":14536," महाद्वीप":14537,"ऑफ":14538,"ल्लाहु":14539," अनल":14540," माग":14541," देसी":14542,"समी":14543," नियामक":14544,").":14545,"ush":14546," बापू":14547,"३२":14548,"ानन":14549,"रलैंड":14550," झूठे":14551," मसले":14552," इंस्ट्र":14553,"प्रद":14554," नीम":14555," गुजराती":14556," ओपनिंग":14557," देखिये":14558," कारकों":14559,"बीएसई":14560," सन्द":14561,"र्वी":14562," राजेन्द्र":14563," नद":14564," व्ला":14565," करुणा":14566,"णन":14567,"ॉक्स":14568," रखर":14569," कार्यालयों":14570," प्रकारके":14571,"कभी":14572,"कथा":14573," प्लेयर":14574,"ोवा":14575,"-जगह":14576,"संह":14577," स्तंभ":14578," वांछित":14579," राज्यमंत्री":14580," श्राप":14581," अनी":14582," गतिविधियां":14583," गर्ग":14584,"्यूम":14585," मेगापिक्सल":14586," प्रतिद्वंद":14587," शिवलिंग":14588," सर्प":14589," कॉम्प":14590," सियासत":14591," गेम्स":14592," कैथ":14593," वैरिएंट":14594," वादे":14595," सई":14596," रोकना":14597," सत्तारूढ़":14598," पक्का":14599,"ंधर":14600," कर्नल":14601,"ark":14602," रिच":14603," अधिका":14604," फ़े":14605,"हिणी":14606,"ident":14607,"सत्य":14608,"नाद":14609," उमा":14610," सांख्य":14611," सूखा":14612," विराजमान":14613," महापौर":14614,"र्निंग":14615," प्रतिबंधों":14616," दरि":14617,"िकर":14618," चतुर":14619," एन्":14620," पुष्ट":14621,"पीएल":14622," was":14623," गीतों":14624," निष्ठा":14625," संक्रमितों":14626," मत्स्य":14627,"eam":14628,"्यूट":14629," मनाई":14630," टकराव":14631," चुरा":14632," बराबरी":14633," बैच":14634,"ारसी":14635," कीव":14636," चलाना":14637," इंडोनेशिया":14638," प्यारे":14639,"ौं":14640," Upd":14641," पूरक":14642,"rou":14643,"पोषण":14644," देखरेख":14645,"arn":14646," लीडर":14647," ख़त्म":14648," प्रिंसिपल":14649," रखरखाव":14650," करिश्":14651," छल":14652," फ्रेम":14653,"VID":14654," गन्ध":14655," सत्याग्रह":14656,"थिल":14657," अनुज":14658,"रेल":14659,"जीविका":14660,"ौफ":14661," तोप":14662," विजयी":14663,"ल्शियम":14664," राजदूत":14665," बौद्धिक":14666,"ेटिक":14667," निर्णायक":14668," दिवंगत":14669," सोया":14670," मुक़":14671,"ईटी":14672,"सेवा":14673," पारस्पर":14674," स्टाइलिश":14675," टैबलेट":14676,"PM":14677,"ाहिर":14678," हैक":14679,"ंगाबाद":14680," फ्रांसीसी":14681," बिगा":14682," प्रत्यय":14683,"हरियाणा":14684," सुध":14685,"स्तों":14686,"ort":14687," फैले":14688," राध":14689," ट्रेनर":14690," मसाले":14691," मेजबान":14692,"ogle":14693," बिल्ली":14694,"खड़":14695," ऑपरेटर":14696," माधव":14697," जीवनसाथी":14698," आकृति":14699," इजराय":14700," डै":14701," तरक्की":14702," प्राइस":14703,"जाज":14704,"णाल":14705," पद्य":14706," लालच":14707," जया":14708,"ानिर्":14709," रहाणे":14710,"नीतिक":14711,"-घर":14712,"ोरेट":14713," उत्थान":14714," फ्रेंड":14715,"देही":14716," प्रजापति":14717," res":14718,"केन":14719," सपनों":14720,"वचन":14721,"शैली":14722,"पैठ":14723," कन्ह":14724," सती":14725," सुचार":14726," नज़":14727," इफेक्ट":14728," क्रांतिक":14729,"94":14730,"cl":14731,"गामी":14732," एबी":14733," बढ़ाते":14734," अधिकृत":14735," आदान":14736," करत":14737," टायर":14738," सहार":14739," ओवैसी":14740," स्कॉ":14741," लोड":14742," आइसो":14743," कुंडली":14744," आपत्तिजनक":14745,"हं":14746," टुकड़ों":14747," किसके":14748,"ौपदी":14749," कॉमन":14750," कुल्लू":14751," सेगमेंट":14752," सीतारमण":14753," श्रेणियों":14754," आइट":14755," जताते":14756,"बुद्धि":14757,"शूट":14758,"भारी":14759," झगड़े":14760,"ेलियन":14761,"िडा":14762," उठाई":14763," कैलोरी":14764," महासभा":14765,"ope":14766," एमसी":14767," बारीक":14768," पञ्च":14769," काे":14770,"िकेश":14771,"mi":14772," दांव":14773," पीरिय":14774,"्रेड":14775," घाव":14776," स्वाय":14777,"ण्ठ":14778," शेड्यूल":14779," मक":14780,"चक्र":14781," आरसीबी":14782,"://":14783," जोड़ो":14784," नवरात्रि":14785," लीन":14786,"आरएस":14787,"गोपाल":14788,"िवे":14789," अलगाव":14790," आयरन":14791," उगा":14792," टुकड़ा":14793,"डिय":14794," चतुर्व":14795," कमरा":14796," अनुमानित":14797," comp":14798," छुड़ा":14799,"188":14800," खल":14801,"गुन":14802," श्वास":14803," धन्य":14804," मन्त्री":14805," गोचर":14806," रवींद्र":14807," व्यंग":14808,"900":14809,"-लि":14810,"HO":14811," स्तम्भ":14812," भुला":14813," मल्होत्रा":14814," वगैर":14815,"प्स":14816,"सन्":14817," प्रेमिका":14818," दिखती":14819,"चेतन":14820,"फोटो":14821," काया":14822," पात्रों":14823," अभिले":14824," फाइनेंस":14825,"ढी":14826," भोर":14827," अनिय":14828," टास्क":14829," थाई":14830," ध्वस्त":14831," कांस":14832,"म्पा":14833,"सुप":14834," जनहित":14835,"घट":14836," हुड्डा":14837," स्कैन":14838," तटीय":14839,"له":14840,"यायी":14841,"जीर":14842,"ोरेंट":14843," सलाम":14844," सहस्र":14845," सीखा":14846," झंडा":14847," आईआईटी":14848,"-प्रति":14849," संगी":14850," चैम्पियन":14851,"ऩे":14852," बनेंगे":14853," आवागमन":14854,"ऊँगा":14855," ठंडे":14856,"स्फीति":14857," update":14858," करनेका":14859," पुज":14860,"नोट":14861," परिषद्":14862,"?\"":14863,"नक":14864,"ाइजी":14865," जलन":14866," पुष्कर":14867,"बेर":14868," दत्ता":14869," बर्थडे":14870," इम्यू":14871," पुत":14872,"ामाबाद":14873,"हमने":14874," सर्वोत्तम":14875,"नीचर":14876," प्रोसेसर":14877,"केंद्र":14878,"िस्ट्री":14879," डिप्लो":14880," हकीकत":14881," ट्रम्प":14882," गिना":14883," अभिभावकों":14884,"air":14885," घने":14886," पब्ल":14887,"जीने":14888," उर":14889,"वाग":14890,"now":14891," संभाग":14892," व्यंजनों":14893,"ोक्त":14894," केन्द्रों":14895,"द्रता":14896," विलय":14897," चाहेंगे":14898," बेल्ट":14899," Col":14900," शार्":14901," संप्रदाय":14902," आंत":14903,"वादा":14904,"बीस":14905," डीजीपी":14906," सूर्या":14907," घुसपैठ":14908," इस्लामिक":14909," फर्श":14910," so":14911," उपलब्धियों":14912,"ोच":14913," कैल्शियम":14914," किराये":14915," आएं":14916," ह्र":14917,"किता":14918,"कं":14919," टेक्सास":14920," अरुणाचल":14921," बीबीसी":14922," अनुप्र":14923," रचा":14924," आयरलैंड":14925," घटाने":14926,"स्टाइल":14927,"बेन":14928,"ूला":14929,"गिल":14930," दक्षता":14931," महिंद्रा":14932,"वय":14933," विनिमय":14934," राक्षस":14935,"arh":14936," रिय":14937,"राइल":14938," महत्वा":14939,"ंटल":14940," प्रस्थान":14941,"तुल":14942," नाले":14943," अधू":14944," बदलना":14945," जार":14946," पुद्गल":14947,"eep":14948," सिल्वर":14949,"maz":14950," अफ्रीकी":14951," आडवाणी":14952," दृढ़ता":14953," भावनात्मक":14954," अवय":14955," डिवीजन":14956," ₹":14957," ड्राई":14958," सनराइ":14959," सन्तान":14960,"काशी":14961," टेंडर":14962," कॉस्म":14963," डेयरी":14964,"ourn":14965," पढ़कर":14966,"-उधर":14967,"HA":14968," उन्म":14969,"दर्शिता":14970," बढ़ाई":14971," लाभार्थियों":14972," प्रताड़":14973," वर्गीकरण":14974," सन्न":14975," which":14976,"-डी":14977," पारस्परिक":14978," क्रिसमस":14979," कैटे":14980,"कमिंग":14981," ग्रहों":14982," ग्रस्त":14983,"सारी":14984," सम्बोध":14985," फिस":14986," कड़":14987," रविंद्र":14988," खिलौ":14989," उपरान्त":14990," मॉल":14991," शिप":14992," जुड़ने":14993," बैड":14994,"फेल":14995," महापुरुष":14996,"adhya":14997,"St":14998,"श्ले":14999," हाज":15000," संरक्षक":15001,"999":15002,"PC":15003,"oci":15004," विकल्पों":15005," पलायन":15006," जगन्नाथ":15007,"दुर्":15008,"इसे":15009,"-व्य":15010,"िरे":15011," गेस्ट":15012,"जेंडर":15013," जख्मी":15014,"दिल":15015,"रूम":15016," नाप":15017," संतुलित":15018," नर्मदा":15019," अब्दुल्ला":15020," प्रतिबद्धता":15021," सम्मुख":15022," सुंदरता":15023," ताज़ा":15024," विक्ष":15025," वापिस":15026,"लाइंस":15027," अपवाद":15028,"वटी":15029," डां":15030," हार्मोन":15031," निस्त":15032," महंत":15033," झूठी":15034," लाभकारी":15035," जेन":15036," अर्जी":15037,"णवीस":15038," ब्लॉग":15039," ب":15040," अखंड":15041,"स्त्रा":15042," सरकारें":15043,"SS":15044," रिमांड":15045," education":15046," दिखाना":15047," नाख":15048," ब्रह्मचर्य":15049,"धिप":15050," नाई":15051," Bh":15052," परिपूर्ण":15053," अभिन्न":15054,"ोरिया":15055," एट":15056," बेहोश":15057," संभाला":15058,"क्ष्मी":15059," गुरुग्राम":15060," गर्लफ्रेंड":15061," फेस्टिवल":15062," राष्ट्रों":15063," वैराग्य":15064,"वारे":15065," अलविदा":15066,"१९९":15067,"CT":15068," आइड":15069," इंटीरियर":15070," मद्रास":15071,"पानी":15072," नियोजन":15073," खिंच":15074,"ater":15075," पिछड़ा":15076," कंडी":15077," मुस्त":15078," हंसी":15079," वेडिंग":15080," तादाद":15081," नवाचार":15082,"ारह":15083,"ुरुस्त":15084," द्रौपदी":15085,"फन":15086," फड":15087,"श्चिक":15088,"ड्ढा":15089,"खास्त":15090,"ूबी":15091," ऑपरेट":15092," ग्लास":15093," सुरक्षाबलों":15094," चालकों":15095," ठिकानों":15096," आबकारी":15097," आर्म":15098," फार्":15099," इरफान":15100,"ंझ":15101," बन्धन":15102,"acebook":15103," can":15104,"ound":15105," आति":15106," टेलीग्राम":15107," बीकानेर":15108," आईजी":15109,"UV":15110," घण्ट":15111,"हब":15112," नवजात":15113," अन्तर्राष्ट्रीय":15114," चीख":15115," Im":15116,"imes":15117,"India":15118," रास":15119,"पय":15120," नीले":15121,"लोगों":15122,"४६":15123," दिखाए":15124," सूचीबद्ध":15125," वेदना":15126," दिशानिर्":15127,"ोला":15128," उतारने":15129," तब्दी":15130," ॐ":15131," पारियों":15132,"वस":15133," सुगंध":15134," सिक्के":15135," भान":15136,"ocial":15137," नानक":15138,"जाता":15139,"क़े":15140," मुरली":15141," अठ":15142," पनडु":15143," बची":15144," नूर":15145," खासा":15146,"ruit":15147," बैक्टीरिया":15148," शंक":15149," चलाए":15150," ठेके":15151," जोड़ें":15152," इंडेक्स":15153," नू":15154,"अंग्रे":15155," क्षमताओं":15156," मुर्म":15157," छापा":15158,"edit":15159," श्वेत":15160," सुधीर":15161," पारस":15162," वीरता":15163," पाठशाला":15164," विराम":15165,"Post":15166,"185":15167,"३८":15168,"ale":15169," अबू":15170,"IN":15171," रिपब्लिक":15172," बिज़":15173,"arm":15174," आइये":15175," टाउन":15176," अंकुश":15177,"ंजा":15178," वृत्त":15179," घब":15180," सेनाओं":15181," ट्रीट":15182," वयस्क":15183," रक्खा":15184," लड़े":15185," क्वाली":15186," रस्सी":15187,"ित्या":15188," परिदृश्य":15189,"Raj":15190,"्मीकि":15191,"यानी":15192," क्रान्ति":15193,"िस्टर":15194,"काउ":15195," नायडू":15196," अपकमिंग":15197," घटकर":15198,"ाइलों":15199,"राचार्य":15200," अंग्रेज़ी":15201," गैंगस्टर":15202," वाकई":15203," मति":15204,"तह":15205," कारखाने":15206,"जीवी":15207," निराकरण":15208," आरटी":15209," लां":15210,"ौला":15211,"ड़ो":15212,"िलर":15213,"कारो":15214," कांग्रेसी":15215," मीर":15216," सुलभ":15217," आजीविका":15218," उपयोगकर्ताओं":15219," प्रवास":15220,"ापे":15221," तुमको":15222," अलैहि":15223,"थात्":15224," माइकल":15225,"्रीमो":15226,"ाहियों":15227,"-पत्नी":15228," चित्रों":15229," शिला":15230," पतली":15231," अहसास":15232," परफॉर्मेंस":15233,"खिक":15234,"खेज":15235," व्यवधान":15236," पृथिवी":15237," बिख":15238,"बेस":15239," स्नै":15240," भड़":15241," दवाएं":15242," नैन":15243,"श्योर":15244," सुने":15245," कर्त्तव्य":15246,"वस्तु":15247," मता":15248," चतुर्वेदी":15249,"ंसिल":15250," जुटाने":15251,"प्ताहिक":15252,"अभ":15253," व्हील":15254," भलाई":15255,"न्होने":15256," फ़ॉ":15257,"ौकिक":15258," चॉक":15259," इमारतों":15260," किला":15261," स्थाई":15262," बगी":15263," आईएम":15264," काउंटर":15265," पूँजी":15266," द्वि":15267,"हिमा":15268," Tr":15269," रमन":15270,"ूलन":15271,"वैसे":15272," दीपावली":15273," खासी":15274,"क़ी":15275," वेट":15276," निकालना":15277," पीयूष":15278," पीटा":15279," भाल":15280," Cent":15281," मिथ्यात्व":15282," भुगत":15283," बसें":15284,"स्थापन":15285,"भिषेक":15286," बनेगी":15287," चैनलों":15288," कन्हैया":15289,"जूर":15290,"र्मन":15291," भेजकर":15292," Sam":15293," व्हाट्सएप":15294," उबर":15295," डेरा":15296,"दया":15297," गिराया":15298,"वाहक":15299,"सै":15300," बालू":15301," नट":15302," बढ़ना":15303," As":15304," पवेलियन":15305," Me":15306," इसीलिये":15307,"हेब":15308,"संगत":15309," राजे":15310,"र्याप्त":15311," मैनु":15312,"आरएफ":15313," पद्मा":15314,"म्बन":15315," द्रविड़":15316,"चाना":15317,"राहट":15318," Video":15319,"int":15320,"ंद्रह":15321," एमए":15322,"नें":15323,"प्पू":15324," घिरा":15325,"ाइश":15326," लगेगी":15327," नमूने":15328," सांप्रदायिक":15329," Su":15330," अनुष्ठान":15331," उद्धार":15332," चरित":15333," परिमाण":15334," हरिया":15335,"-आधारित":15336," लहरा":15337," गोल्डन":15338," पिछड़े":15339,"शित":15340," व्यू":15341,"क्साइड":15342," एकान्त":15343,"बिलिटी":15344,"सोस":15345," एंड्रॉ":15346," कैदी":15347,"विकास":15348,"ौरन":15349," खोलकर":15350," सुनना":15351,"निटी":15352,"स्क्यू":15353,"144":15354," मुनाफा":15355," इंटेल":15356,"मयी":15357,"आईएस":15358," करोड":15359,"हों":15360," कौशिक":15361,"ose":15362," इस्तीफे":15363," भंडारण":15364," ف":15365," थीम":15366," योगा":15367,"कांक्षी":15368," लपेट":15369," चार्ट":15370," बदनाम":15371," ब्ले":15372," स्टीव":15373,"OS":15374," कुटु":15375,"ायु":15376," technology":15377,"hatt":15378,"ओसी":15379,"३७":15380,"लें":15381," डिटेल":15382," वज्र":15383," बहने":15384,"con":15385," पाद":15386," लाला":15387," पिघ":15388," गरिमा":15389," डेली":15390," सगाई":15391," माओ":15392," हटाकर":15393," ढांचा":15394," नोटबंदी":15395,"मोर":15396," मेघालय":15397,"गाड़ी":15398," काटा":15399,"ज्जत":15400,"ंगली":15401," सिन्ध":15402,"डान":15403," नाटकों":15404," बेचा":15405,"सिटी":15406," पोशाक":15407," पावन":15408,"लेवा":15409," सदियों":15410," मार्ट":15411,"ृश":15412," खुदरा":15413," बाबत":15414,"चर्या":15415,"कार्":15416,"ck":15417," वॉट":15418,"ashi":15419," सूर्यकुमार":15420," पढ़ी":15421,"दयाल":15422," गडकरी":15423,"ड़कर":15424," हाय":15425," निर्वाह":15426,"मुन":15427,"ख्यान":15428," यादगार":15429," दामों":15430," श्रावक":15431,"लराम":15432," आदिवासियों":15433," तोह":15434,"ुराम":15435," असु":15436," प्राइमरी":15437,"उसके":15438,"याँ":15439,"प्ल":15440,"ानुमान":15441,"जैन":15442," सिगरेट":15443," तेज़ी":15444," अधिवेशन":15445," अनार":15446,"किर":15447,"ल्लभ":15448," नन्द":15449," उद्धृत":15450," बरतने":15451,"तूस":15452," विदा":15453,"मूल्य":15454," gov":15455," आईपीएस":15456," घोटाला":15457," मुद्रास्फीति":15458,"DA":15459," जनजातीय":15460,"र्ता":15461,"फेयर":15462,"oard":15463," निरूपण":15464," ऊंचे":15465,"मं":15466," परीक्षाएं":15467,"वाड":15468,"ध्यान":15469," घटित":15470," कतार":15471," फर्नीचर":15472," सम्बंधित":15473,"श्चात्य":15474,"दिमीर":15475," अंतरिम":15476," निर्भ":15477,"अग":15478," प्रासंगिक":15479," अड़":15480," We":15481," तेरह":15482,"-कर":15483,"नीज":15484," रैना":15485,"चालित":15486,"त्विक":15487,"पाठ":15488," प्रमाणपत्र":15489," मैग्":15490," खांसी":15491," रीड":15492,"चित्त":15493,"बुक":15494," गयीं":15495," बताकर":15496," तारों":15497,"निवास":15498," अनुपमा":15499," सिंधु":15500," ब्रॉड":15501,"स्ट्रॉल":15502,"ोत्तम":15503," निवेशक":15504,"िताओं":15505," टोपी":15506," वकीलों":15507,"हाइड":15508," सक्सेना":15509,"राज्यपाल":15510," चारो":15511,"म्पर":15512," आश्वस्त":15513," छोड़ी":15514," सनराइजर्स":15515," प्रशास":15516," इंगित":15517,"टरिंग":15518," ब्लाक":15519," काँ":15520," गायत्री":15521,"कुट":15522," हड्डियों":15523,"मिति":15524,"शेद":15525," सीबीएसई":15526," पीते":15527,"गर्":15528," पीटर":15529,"SP":15530," मैरी":15531," सार्वभौ":15532,"मानुसार":15533,"जाल":15534," सजावट":15535,"ंछ":15536," महम":15537," रुझ":15538,"बों":15539," मुस्कान":15540,"ys":15541," शेखर":15542," रेस्टोरेंट":15543,"विद":15544," पात्रता":15545," II":15546," मुद्र":15547," खुलासे":15548," सैयद":15549," मसी":15550,"संचार":15551,"..\n":15552,"प्ली":15553," कच्चा":15554," खयाल":15555,"िश्र":15556," कैरी":15557," महाकाव्य":15558," खदान":15559,"ुप्र":15560," कैम्प":15561," चिह्नित":15562," पार्श्व":15563," इन्वेस्ट":15564," दयान":15565," प्रचुर":15566," डेटिंग":15567," आश्रित":15568," पेर":15569,"ोधन":15570," प्लेइंग":15571," लोकार्प":15572," तबा":15573," टीजर":15574," रूपसे":15575," मरे":15576," रिज़र्व":15577,"mazon":15578,"व्व":15579," तोड़ा":15580," ऊँचा":15581," तालिका":15582,"जहाँ":15583," गियर":15584," अवस्थ":15585,"-चढ़ा":15586," मौतों":15587," एडवांस":15588," कस्टम":15589," ब्राजील":15590,"लाभ":15591," चाहने":15592,"ंधे":15593,"ेबल":15594,"विस":15595," माली":15596," मुल्क":15597," विख्यात":15598," एंटरटेनमेंट":15599," मुजफ्फरपुर":15600," Rs":15601," रोट":15602," प्रजातियों":15603," सजाया":15604,"िंक":15605," विकृत":15606," अनुभाग":15607,"ंसल":15608," बैठते":15609,"mit":15610," जुन":15611," कारतूस":15612,"कोव":15613," शुभमन":15614," बेसब्री":15615," बिज़नेस":15616," अम्":15617," अलंकार":15618," चादर":15619," अंग्रेज":15620,"कान्त":15621," दर्शाया":15622," कचरा":15623," पार्टियां":15624," app":15625," मुहिम":15626,"ोंमें":15627," कार्यक्षेत्र":15628,"लेक्स":15629,"महिला":15630,"खला":15631,"एजेंसी":15632,",,":15633," चिकित्सालय":15634," महाकाल":15635," अभिमान":15636," नाटो":15637," वरदान":15638,"विया":15639," वगैरह":15640," सीआरपीएफ":15641," बेस्ड":15642,"िशियन":15643," एनएस":15644," min":15645," जरुरत":15646," चिंतन":15647," राशिद":15648,"त्म्य":15649,"न्वित":15650," your":15651," गुलाबी":15652,"जिंग":15653," नाजुक":15654," दिखाता":15655,"-सामने":15656," चेकिंग":15657," डॉट":15658,"189":15659," स्वर्गीय":15660,"श्योरेंस":15661," ज्वेल":15662," निकलती":15663," निष्क्रिय":15664," उत्सुक":15665," सम्बद्ध":15666,"मानव":15667," पाट":15668," मिटा":15669," सरलता":15670," गाड़ियां":15671," जेडीयू":15672,"ool":15673,"फना":15674," स्ट्रे":15675," चिराग":15676,"ung":15677," पछ":15678," अदरक":15679," पुजारा":15680," أ":15681," सटे":15682," दुकानदारों":15683," दबो":15684," काबुल":15685," ऑड":15686," नीद":15687,"अच्छा":15688," देशमुख":15689,"१९६":15690," आनन":15691," आगाज":15692,"ांकित":15693,"ारायण":15694," आधुन":15695," निभाते":15696," मुर्मू":15697," प्रज्ञा":15698," कास":15699,"हैं":15700,"बोट":15701," झाड़":15702," सिराज":15703," संभावनाओं":15704," विवेचना":15705," अँ":15706,"इये":15707," चन्द":15708," प्रगतिशील":15709," दीवान":15710,"रीना":15711," करनेसे":15712," Health":15713," साध्य":15714," कोयले":15715," चोटिल":15716,"च्छे":15717," शुष्क":15718," खरीदे":15719," गिरे":15720,"so":15721," प्रां":15722," जेटली":15723," जमीनी":15724," पढ़ाने":15725," प्रोडक्ट्स":15726," समकक्ष":15727,"ंबे":15728," निजात":15729,"-पश्चिम":15730," ताइवान":15731," लग्":15732,"य्या":15733," बलराम":15734," रेस्क्यू":15735," अभिला":15736,"त्तियां":15737," उत्सर्जन":15738," निरोध":15739," केसर":15740," मुक":15741," मैट":15742," नौका":15743," उल्टा":15744,"शांत":15745,"ोर्टर":15746,".अ":15747,"दोनों":15748," प्राइम":15749," प्रज":15750," पिस्टल":15751," ताबड़":15752," entert":15753," एकनाथ":15754," रंज":15755,"हिन्दी":15756," बंदी":15757," पेट्रोलियम":15758," मिसाल":15759," लोकार्पण":15760,"चारे":15761," भोले":15762," प्रसव":15763,".com":15764,"महाराष्ट्र":15765,
[...]
